{
  "version": "1.0",
  "truncation": null,
  "padding": null,
  "added_tokens": [],
  "normalizer": null,
  "pre_tokenizer": {
    "type": "ByteLevel",
    "add_prefix_space": false,
    "trim_offsets": true,
    "use_regex": true
  },
  "post_processor": {
    "type": "ByteLevel",
    "add_prefix_space": true,
    "trim_offsets": false,
    "use_regex": true
  },
  "decoder": {
    "type": "ByteLevel",
    "add_prefix_space": true,
    "trim_offsets": true,
    "use_regex": true
  },
  "model": {
    "type": "BPE",
    "dropout": null,
    "unk_token": null,
    "continuing_subword_prefix": null,
    "end_of_word_suffix": null,
    "fuse_unk": false,
    "byte_fallback": false,
    "vocab": {
      "!": 0,
      "\"": 1,
      "#": 2,
      "$": 3,
      "%": 4,
      "&": 5,
      "'": 6,
      "(": 7,
      ")": 8,
      "*": 9,
      "+": 10,
      ",": 11,
      "-": 12,
      ".": 13,
      "/": 14,
      "0": 15,
      "1": 16,
      "2": 17,
      "3": 18,
      "4": 19,
      "5": 20,
      "6": 21,
      "7": 22,
      "8": 23,
      "9": 24,
      ":": 25,
      ";": 26,
      "<": 27,
      "=": 28,
      ">": 29,
      "?": 30,
      "@": 31,
      "A": 32,
      "B": 33,
      "C": 34,
      "D": 35,
      "E": 36,
      "F": 37,
      "G": 38,
      "H": 39,
      "I": 40,
      "J": 41,
      "K": 42,
      "L": 43,
      "M": 44,
      "N": 45,
      "O": 46,
      "P": 47,
      "Q": 48,
      "R": 49,
      "S": 50,
      "T": 51,
      "U": 52,
      "V": 53,
      "W": 54,
      "X": 55,
      "Y": 56,
      "Z": 57,
      "[": 58,
      "\\": 59,
      "]": 60,
      "^": 61,
      "_": 62,
      "`": 63,
      "a": 64,
      "b": 65,
      "c": 66,
      "d": 67,
      "e": 68,
      "f": 69,
      "g": 70,
      "h": 71,
      "i": 72,
      "j": 73,
      "k": 74,
      "l": 75,
      "m": 76,
      "n": 77,
      "o": 78,
      "p": 79,
      "q": 80,
      "r": 81,
      "s": 82,
      "t": 83,
      "u": 84,
      "v": 85,
      "w": 86,
      "x": 87,
      "y": 88,
      "z": 89,
      "{": 90,
      "|": 91,
      "}": 92,
      "~": 93,
      "¡": 94,
      "¢": 95,
      "£": 96,
      "¤": 97,
      "¥": 98,
      "¦": 99,
      "§": 100,
      "¨": 101,
      "©": 102,
      "ª": 103,
      "«": 104,
      "¬": 105,
      "®": 106,
      "¯": 107,
      "°": 108,
      "±": 109,
      "²": 110,
      "³": 111,
      "´": 112,
      "µ": 113,
      "¶": 114,
      "·": 115,
      "¸": 116,
      "¹": 117,
      "º": 118,
      "»": 119,
      "¼": 120,
      "½": 121,
      "¾": 122,
      "¿": 123,
      "À": 124,
      "Á": 125,
      "Â": 126,
      "Ã": 127,
      "Ä": 128,
      "Å": 129,
      "Æ": 130,
      "Ç": 131,
      "È": 132,
      "É": 133,
      "Ê": 134,
      "Ë": 135,
      "Ì": 136,
      "Í": 137,
      "Î": 138,
      "Ï": 139,
      "Ð": 140,
      "Ñ": 141,
      "Ò": 142,
      "Ó": 143,
      "Ô": 144,
      "Õ": 145,
      "Ö": 146,
      "×": 147,
      "Ø": 148,
      "Ù": 149,
      "Ú": 150,
      "Û": 151,
      "Ü": 152,
      "Ý": 153,
      "Þ": 154,
      "ß": 155,
      "à": 156,
      "á": 157,
      "â": 158,
      "ã": 159,
      "ä": 160,
      "å": 161,
      "æ": 162,
      "ç": 163,
      "è": 164,
      "é": 165,
      "ê": 166,
      "ë": 167,
      "ì": 168,
      "í": 169,
      "î": 170,
      "ï": 171,
      "ð": 172,
      "ñ": 173,
      "ò": 174,
      "ó": 175,
      "ô": 176,
      "õ": 177,
      "ö": 178,
      "÷": 179,
      "ø": 180,
      "ù": 181,
      "ú": 182,
      "û": 183,
      "ü": 184,
      "ý": 185,
      "þ": 186,
      "ÿ": 187,
      "Ā": 188,
      "ā": 189,
      "Ă": 190,
      "ă": 191,
      "Ą": 192,
      "ą": 193,
      "Ć": 194,
      "ć": 195,
      "Ĉ": 196,
      "ĉ": 197,
      "Ċ": 198,
      "ċ": 199,
      "Č": 200,
      "č": 201,
      "Ď": 202,
      "ď": 203,
      "Đ": 204,
      "đ": 205,
      "Ē": 206,
      "ē": 207,
      "Ĕ": 208,
      "ĕ": 209,
      "Ė": 210,
      "ė": 211,
      "Ę": 212,
      "ę": 213,
      "Ě": 214,
      "ě": 215,
      "Ĝ": 216,
      "ĝ": 217,
      "Ğ": 218,
      "ğ": 219,
      "Ġ": 220,
      "ġ": 221,
      "Ģ": 222,
      "ģ": 223,
      "Ĥ": 224,
      "ĥ": 225,
      "Ħ": 226,
      "ħ": 227,
      "Ĩ": 228,
      "ĩ": 229,
      "Ī": 230,
      "ī": 231,
      "Ĭ": 232,
      "ĭ": 233,
      "Į": 234,
      "į": 235,
      "İ": 236,
      "ı": 237,
      "Ĳ": 238,
      "ĳ": 239,
      "Ĵ": 240,
      "ĵ": 241,
      "Ķ": 242,
      "ķ": 243,
      "ĸ": 244,
      "Ĺ": 245,
      "ĺ": 246,
      "Ļ": 247,
      "ļ": 248,
      "Ľ": 249,
      "ľ": 250,
      "Ŀ": 251,
      "ŀ": 252,
      "Ł": 253,
      "ł": 254,
      "Ń": 255,
      "Ġ\"": 256,
      "\"]": 257,
      "ĠR": 258,
      "ĠN": 259,
      "ĠB": 260,
      "Ġ1": 261,
      "Ġ2": 262,
      "ĠQ": 263,
      "ĠK": 264,
      "Ġ3": 265,
      "te": 266,
      "Ġ4": 267,
      "ite": 268,
      "ac": 269,
      "xd": 270,
      "en": 271,
      "ack": 272,
      "Bl": 273,
      "hite": 274,
      "White": 275,
      "Black": 276,
      "Ġd": 277,
      "Ġe": 278,
      "Ġ5": 279,
      "Ġc": 280,
      "xe": 281,
      "23": 282,
      "ĠNf": 283,
      "xc": 284,
      "20": 285,
      "xf": 286,
      "Ġa": 287,
      "Ġg": 288,
      "ĠNc": 289,
      "Ġh": 290,
      "Ġb": 291,
      "ate": 292,
      "de": 293,
      "it": 294,
      "Ġf": 295,
      "lo": 296,
      "le": 297,
      "Ġ6": 298,
      "ent": 299,
      "Ev": 300,
      "Event": 301,
      "Fi": 302,
      "2023": 303,
      "Date": 304,
      "Id": 305,
      "deId": 306,
      "FideId": 307,
      "Elo": 308,
      "ĠO": 309,
      "Tit": 310,
      "Title": 311,
      "ĠBe": 312,
      "ar": 313,
      "es": 314,
      "in": 315,
      "ĠKf": 316,
      "xb": 317,
      "ĠNd": 318,
      "ĠRe": 319,
      "ĠNe": 320,
      "ĠBd": 321,
      "ia": 322,
      "ĠRa": 323,
      "xg": 324,
      "ĠKg": 325,
      "ĠRc": 326,
      "ĠRd": 327,
      "Ġ7": 328,
      "ĠBg": 329,
      "ĠRf": 330,
      "ĠQd": 331,
      "ĠKe": 332,
      "nd": 333,
      "Ġ20": 334,
      "ĠQe": 335,
      "pen": 336,
      "Ġ8": 337,
      "ĠRb": 338,
      "ĠQc": 339,
      "on": 340,
      "ĠBf": 341,
      "ĠBb": 342,
      "ing": 343,
      "ul": 344,
      "ou": 345,
      "pening": 346,
      "ti": 347,
      "ĠNb": 348,
      "ĠKh": 349,
      "Ġ10": 350,
      "ĠBc": 351,
      "Ġ11": 352,
      "xa": 353,
      "Ġ12": 354,
      "ĠKd": 355,
      "10": 356,
      "ult": 357,
      "Res": 358,
      "CO": 359,
      "Rou": 360,
      "Site": 361,
      "EventDate": 362,
      "Result": 363,
      "Round": 364,
      "WhiteFideId": 365,
      "BlackFideId": 366,
      "ECO": 367,
      "Opening": 368,
      "WhiteElo": 369,
      "BlackElo": 370,
      "Ġ13": 371,
      "Ġ17": 372,
      "Ġ18": 373,
      "aria": 374,
      "Ġ19": 375,
      "Ġ14": 376,
      "ch": 377,
      "tion": 378,
      "ariation": 379,
      "Ġ9": 380,
      "Ġ24": 381,
      "Ġ16": 382,
      "Ġ25": 383,
      "Ġ23": 384,
      "Ġ26": 385,
      "ĠQf": 386,
      "ĠQb": 387,
      "Ġ21": 388,
      "Ġ27": 389,
      "an": 390,
      "Ġ29": 391,
      "ĠNg": 392,
      "xh": 393,
      "Ġ30": 394,
      "Ġ31": 395,
      "22": 396,
      "Ġcxd": 397,
      "08": 398,
      "Ġ22": 399,
      "ĠNxd": 400,
      "WhiteTitle": 401,
      "Ġ15": 402,
      "Ġ32": 403,
      "BlackTitle": 404,
      "ĠRh": 405,
      "ĠRg": 406,
      "ĠKc": 407,
      "Ġ33": 408,
      "ue": 409,
      "ĠI": 410,
      "07": 411,
      "ĠNxe": 412,
      "Variation": 413,
      "Ġ36": 414,
      "Ġ28": 415,
      "om": 416,
      "Ġ37": 417,
      "ĠQg": 418,
      "09": 419,
      "24": 420,
      "15": 421,
      "ĠRxd": 422,
      "Ġ38": 423,
      "ess": 424,
      "Ġ35": 425,
      "am": 426,
      "ĠQxd": 427,
      "Ġ34": 428,
      "ĠT": 429,
      "Ġ39": 430,
      "Ġexd": 431,
      "ĠBxf": 432,
      "th": 433,
      "ĠKb": 434,
      "ĠQa": 435,
      "FM": 436,
      "chess": 437,
      "ĠBxd": 438,
      "com": 439,
      "ĠIN": 440,
      "ĠBxc": 441,
      "ĠINT": 442,
      "Ġ40": 443,
      "ĠBxe": 444,
      "21": 445,
      "ĠRxe": 446,
      "Titled": 447,
      "ĠTue": 448,
      "ĠRxc": 449,
      "Ġ42": 450,
      "ian": 451,
      "Ġ43": 452,
      "ĠQh": 453,
      "11": 454,
      "Ġ44": 455,
      "er": 456,
      "GM": 457,
      "25": 458,
      "Ġdxe": 459,
      "ic": 460,
      "Ġbxc": 461,
      "Ġ45": 462,
      "ov": 463,
      "ĠQxe": 464,
      "ĠBa": 465,
      "ĠBh": 466,
      "ĠNxc": 467,
      "Ġ41": 468,
      "Ġaxb": 469,
      "ĠNa": 470,
      "Ġ2023": 471,
      "41": 472,
      "28": 473,
      "or": 474,
      "Ġ46": 475,
      "ĠS": 476,
      "ĠRxf": 477,
      "ĠNh": 478,
      "ĠNbd": 479,
      "Ġ0": 480,
      "IM": 481,
      "Ġhxg": 482,
      "ĠE": 483,
      "Ġdxc": 484,
      "26": 485,
      "ĠL": 486,
      "ĠRxa": 487,
      "il": 488,
      "Ġfxe": 489,
      "ĠQxc": 490,
      "19": 491,
      "Ġ49": 492,
      "Ġv": 493,
      "ĠQxf": 494,
      "ĠRxb": 495,
      "Ġvariation": 496,
      "13": 497,
      "Ġ48": 498,
      "Ġ50": 499,
      "Ġgxf": 500,
      "ĠNxf": 501,
      "ly": 502,
      "as": 503,
      "14": 504,
      "al": 505,
      "Ġ47": 506,
      "Ġ51": 507,
      "29": 508,
      "ĠA": 509,
      "18": 510,
      "Ġexf": 511,
      "Ġ52": 512,
      "16": 513,
      "34": 514,
      "17": 515,
      "is": 516,
      "arly": 517,
      "ĠEarly": 518,
      "eam": 519,
      "00": 520,
      "ĠQxb": 521,
      "ĠBxg": 522,
      "ĠRad": 523,
      "Team": 524,
      "ce": 525,
      "'s": 526,
      "Ġ53": 527,
      "Ġ55": 528,
      "35": 529,
      "ĠBxb": 530,
      "el": 531,
      "Ġ56": 532,
      "05": 533,
      "im": 534,
      "04": 535,
      "27": 536,
      "ilian": 537,
      "icilian": 538,
      "Sicilian": 539,
      "Ġ57": 540,
      "ĠKa": 541,
      "ĠLate": 542,
      "Ġde": 543,
      "Ġ54": 544,
      "ĠRfd": 545,
      "ĠRxg": 546,
      "os": 547,
      "ĠRac": 548,
      "Ġ58": 549,
      "ĠP": 550,
      "ĠRxh": 551,
      "03": 552,
      "Ch": 553,
      "la": 554,
      "ĠM": 555,
      "Ġfxg": 556,
      "ĠNxb": 557,
      "Ġdef": 558,
      "CM": 559,
      "Ġdefen": 560,
      "ĠQxa": 561,
      "ĠKxg": 562,
      "Re": 563,
      "ĠQxg": 564,
      "tt": 565,
      "ĠRfe": 566,
      "Ġ59": 567,
      "ug": 568,
      "40": 569,
      "Ġdefence": 570,
      "ĠOpen": 571,
      "ĠKxf": 572,
      "ra": 573,
      "12": 574,
      "sk": 575,
      "Ġ(": 576,
      "47": 577,
      "ĠNxg": 578,
      "Ġcxb": 579,
      "01": 580,
      "45": 581,
      "ĠBxa": 582,
      "ak": 583,
      "ĠJ": 584,
      "06": 585,
      "Ġ62": 586,
      "pe": 587,
      "st": 588,
      "ĠAug": 589,
      "Ġ61": 590,
      "ĠG": 591,
      "at": 592,
      "ev": 593,
      "46": 594,
      "Ġ60": 595,
      "Ġgxh": 596,
      "Ġ63": 597,
      "ed": 598,
      "ttack": 599,
      "ol": 600,
      "ik": 601,
      "Be": 602,
      "..": 603,
      "Ġattack": 604,
      "ĠBxh": 605,
      "ĠQxh": 606,
      "Ra": 607,
      "id": 608,
      "Ġ64": 609,
      "ndian": 610,
      "Ne": 611,
      "ct": 612,
      "aw": 613,
      "ĠOct": 614,
      "31": 615,
      "Ġbxa": 616,
      "ĠC": 617,
      "ep": 618,
      "60": 619,
      "48": 620,
      "WhiteTeam": 621,
      "BlackTeam": 622,
      "Ġ65": 623,
      "30": 624,
      "Que": 625,
      "re": 626,
      "ish": 627,
      "Queen": 628,
      "Nf": 629,
      "ig": 630,
      "Ġo": 631,
      "ĠSep": 632,
      "Nc": 633,
      "ur": 634,
      "ĠJul": 635,
      "ad": 636,
      "Ġgam": 637,
      "ĠNxa": 638,
      "ĠRae": 639,
      "Ġp": 640,
      "ĠKxe": 641,
      "38": 642,
      "ĠNge": 643,
      "39": 644,
      "ĠKxd": 645,
      "Bd": 646,
      "ich": 647,
      "ir": 648,
      "Ġopening": 649,
      "Ġ66": 650,
      "02": 651,
      "ag": 652,
      "ĠRfc": 653,
      "awn": 654,
      "54": 655,
      "ng": 656,
      "ĠRab": 657,
      "50": 658,
      "ĠIndian": 659,
      "Kf": 660,
      "Ġ68": 661,
      "ub": 662,
      "Ġpawn": 663,
      "us": 664,
      "67": 665,
      "Rf": 666,
      "Rd": 667,
      "em": 668,
      "ĠKxh": 669,
      "Nd": 670,
      "37": 671,
      "Ġ69": 672,
      "US": 673,
      "Rc": 674,
      "ter": 675,
      "Kg": 676,
      "Ġ67": 677,
      ")\"]": 678,
      "90": 679,
      "QG": 680,
      "ann": 681,
      "ĠNxh": 682,
      "av": 683,
      "der": 684,
      "Ġ70": 685,
      "53": 686,
      "68": 687,
      "Qd": 688,
      "Fr": 689,
      "King": 690,
      "imz": 691,
      "33": 692,
      "Ke": 693,
      "Car": 694,
      "QGD": 695,
      "57": 696,
      "et": 697,
      "un": 698,
      "44": 699,
      "Kh": 700,
      "Ty": 701,
      "Ġ71": 702,
      "Eng": 703,
      "Nimz": 704,
      "Qc": 705,
      "66": 706,
      "lish": 707,
      "Nb": 708,
      "co": 709,
      "sy": 710,
      "Ġgame": 711,
      "99": 712,
      "Qe": 713,
      "sky": 714,
      "Rb": 715,
      "English": 716,
      "ts": 717,
      "ang": 718,
      "EventTy": 719,
      "EventType": 720,
      "36": 721,
      "OL": 722,
      "88": 723,
      "ĠNfd": 724,
      "ĠW": 725,
      "Bg": 726,
      "...": 727,
      "ab": 728,
      "ste": 729,
      "Ġ72": 730,
      "lin": 731,
      "56": 732,
      "Bf": 733,
      "42": 734,
      "Reti": 735,
      "lav": 736,
      "ko": 737,
      "98": 738,
      "Bb": 739,
      "ĠD": 740,
      "97": 741,
      "ĠKxc": 742,
      "ench": 743,
      "Caro": 744,
      "Kann": 745,
      "French": 746,
      "los": 747,
      "Mar": 748,
      "TCh": 749,
      "220": 750,
      "218": 751,
      "ovich": 752,
      "210": 753,
      "65": 754,
      "Ar": 755,
      "ay": 756,
      "pid": 757,
      "ER": 758,
      "ez": 759,
      "St": 760,
      "ĠRapid": 761,
      "96": 762,
      "sen": 763,
      "Ġ75": 764,
      "Na": 765,
      "WFM": 766,
      "Ġ74": 767,
      "58": 768,
      "77": 769,
      "Sh": 770,
      "Ġ73": 771,
      "ro": 772,
      "Bc": 773,
      "ld": 774,
      "Kd": 775,
      "Ru": 776,
      "li": 777,
      "itz": 778,
      "78": 779,
      "Nimzovich": 780,
      "ĠH": 781,
      "ĠNgf": 782,
      "uk": 783,
      "ĠRed": 784,
      "95": 785,
      "las": 786,
      "Ġ76": 787,
      "ob": 788,
      "lov": 789,
      "An": 790,
      "70": 791,
      "94": 792,
      "ĠKxb": 793,
      "Ng": 794,
      "Nxd": 795,
      "Qf": 796,
      "ĠRUS": 797,
      "ski": 798,
      "van": 799,
      "Qb": 800,
      "73": 801,
      "od": 802,
      "76": 803,
      "55": 804,
      "ical": 805,
      "Ġ77": 806,
      "309": 807,
      "rd": 808,
      "ri": 809,
      "43": 810,
      "ĠPOL": 811,
      "ope": 812,
      "79": 813,
      "Chess": 814,
      "SP": 815,
      "Ale": 816,
      "Ġsy": 817,
      "stem": 818,
      "Ġsystem": 819,
      "86": 820,
      "and": 821,
      "61": 822,
      "Rh": 823,
      "opez": 824,
      "ze": 825,
      "ard": 826,
      "So": 827,
      "ĠRhe": 828,
      "Rxd": 829,
      "32": 830,
      "sh": 831,
      "orld": 832,
      "ina": 833,
      "ith": 834,
      "anov": 835,
      "Nxe": 836,
      "63": 837,
      "um": 838,
      "Ġ78": 839,
      "ĠV": 840,
      "Rg": 841,
      "dor": 842,
      "hang": 843,
      "ĠRcd": 844,
      "74": 845,
      "Ġk": 846,
      "80": 847,
      "ant": 848,
      "ĠF": 849,
      "losed": 850,
      "ĠLopez": 851,
      "Qxd": 852,
      "cxd": 853,
      "bit": 854,
      "ie": 855,
      "84": 856,
      "64": 857,
      "85": 858,
      "ow": 859,
      "up": 860,
      "93": 861,
      "xchang": 862,
      "xchange": 863,
      "51": 864,
      "nig": 865,
      "iv": 866,
      "Bxf": 867,
      "dorf": 868,
      "team": 869,
      "ova": 870,
      "nigh": 871,
      "Kc": 872,
      "Bxc": 873,
      "exd": 874,
      "closed": 875,
      "59": 876,
      "Ġknigh": 877,
      "Ġknights": 878,
      "141": 879,
      "Ruy": 880,
      "Al": 881,
      "71": 882,
      "ach": 883,
      "ĠLe": 884,
      "ĠNce": 885,
      "iel": 886,
      "dern": 887,
      "ĠRde": 888,
      "ru": 889,
      "Bxd": 890,
      "72": 891,
      "op": 892,
      "ha": 893,
      "man": 894,
      "WIM": 895,
      "exchange": 896,
      "91": 897,
      "za": 898,
      "ĠKxa": 899,
      "223": 900,
      "ern": 901,
      "Ġ79": 902,
      "odern": 903,
      "etr": 904,
      "ek": 905,
      "Rxe": 906,
      "75": 907,
      "49": 908,
      "ap": 909,
      "ut": 910,
      "ĠU": 911,
      "ĠMem": 912,
      "UR": 913,
      "Le": 914,
      "lass": 915,
      "ĠGER": 916,
      "52": 917,
      "Bxe": 918,
      "iss": 919,
      "Qg": 920,
      "215": 921,
      "Ġ81": 922,
      "129": 923,
      "imo": 924,
      "Rxc": 925,
      "Ġgambit": 926,
      "ters": 927,
      "ĠESP": 928,
      "oz": 929,
      "Ba": 930,
      "Tar": 931,
      "Ġ80": 932,
      "Ma": 933,
      "1410": 934,
      "87": 935,
      "Indian": 936,
      "Qa": 937,
      "ast": 938,
      "Ġ82": 939,
      "enko": 940,
      "lassical": 941,
      ".\"]": 942,
      "with": 943,
      "og": 944,
      "69": 945,
      "83": 946,
      "ana": 947,
      "89": 948,
      "Nbd": 949,
      "vance": 950,
      "ud": 951,
      "na": 952,
      "iy": 953,
      "ague": 954,
      "ras": 955,
      "92": 956,
      "62": 957,
      "RA": 958,
      "Ġ83": 959,
      "ĠBl": 960,
      "ber": 961,
      "Ros": 962,
      "ka": 963,
      "Bar": 964,
      "Naj": 965,
      "ler": 966,
      "ot": 967,
      "atal": 968,
      "Najdorf": 969,
      "ĠRhd": 970,
      "kh": 971,
      "ĠLeague": 972,
      "che": 973,
      "ĠBlitz": 974,
      "Nxc": 975,
      "81": 976,
      "ĠRfb": 977,
      "Kb": 978,
      "dxe": 979,
      "yan": 980,
      "ma": 981,
      "bxc": 982,
      "341": 983,
      "ara": 984,
      "ior": 985,
      "125": 986,
      "Catal": 987,
      "Ġ84": 988,
      "Bh": 989,
      "Catalan": 990,
      "Dan": 991,
      "RB": 992,
      "ĠRdd": 993,
      "Qxe": 994,
      "And": 995,
      "Qh": 996,
      "advance": 997,
      "axb": 998,
      "ĠMas": 999,
      "82": 1000,
      "our": 1001,
      "ZE": 1002,
      "ĠRaf": 1003,
      "urg": 1004,
      "Sa": 1005,
      "iz": 1006,
      "zy": 1007,
      "tto": 1008,
      "Rxf": 1009,
      "TA": 1010,
      "ĠNdf": 1011,
      "ĠY": 1012,
      "ĠRdc": 1013,
      "ĠRec": 1014,
      "modern": 1015,
      "ianche": 1016,
      "ianchetto": 1017,
      "classical": 1018,
      "fel": 1019,
      "ĠChess": 1020,
      "line": 1021,
      "ĠRbc": 1022,
      "hxg": 1023,
      "akh": 1024,
      "est": 1025,
      "Ġ...": 1026,
      "sch": 1027,
      "va": 1028,
      "feld": 1029,
      "Ġ85": 1030,
      "dxc": 1031,
      "Rxa": 1032,
      "Qxc": 1033,
      "ĠRhg": 1034,
      "oni": 1035,
      "133": 1036,
      "Rob": 1037,
      "Qxf": 1038,
      "nik": 1039,
      "AT": 1040,
      "ĠMar": 1041,
      "Ġline": 1042,
      "Rxb": 1043,
      "ry": 1044,
      "ĠRee": 1045,
      "burg": 1046,
      "fxe": 1047,
      "oh": 1048,
      "ovic": 1049,
      "Ross": 1050,
      "110": 1051,
      "ta": 1052,
      "olimo": 1053,
      "Rossolimo": 1054,
      "WGM": 1055,
      "chi": 1056,
      "tin": 1057,
      "Ġch": 1058,
      "Ka": 1059,
      "pov": 1060,
      "ion": 1061,
      "ier": 1062,
      "ĠRbd": 1063,
      "World": 1064,
      "Nh": 1065,
      "ĠRcc": 1066,
      "Nxf": 1067,
      "Can": 1068,
      "ĠNde": 1069,
      "Nimzo": 1070,
      "2417": 1071,
      "Sch": 1072,
      "ĠSlav": 1073,
      "ĠSRB": 1074,
      "uz": 1075,
      "iu": 1076,
      "De": 1077,
      "DE": 1078,
      "res": 1079,
      "ris": 1080,
      "ĠWorld": 1081,
      "Sw": 1082,
      "320": 1083,
      "gxf": 1084,
      "Ġ86": 1085,
      "SK": 1086,
      "Andre": 1087,
      "ĠTeam": 1088,
      "ca": 1089,
      "ust": 1090,
      "ĠRhf": 1091,
      "Ġ87": 1092,
      "Ġ88": 1093,
      "wo": 1094,
      "ind": 1095,
      "KS": 1096,
      "As": 1097,
      "Ste": 1098,
      "ĠCup": 1099,
      "ĠNbc": 1100,
      "wiss": 1101,
      "iga": 1102,
      "Rad": 1103,
      "ash": 1104,
      "son": 1105,
      "se": 1106,
      "ĠRce": 1107,
      "ine": 1108,
      "Ġ89": 1109,
      "137": 1110,
      "135": 1111,
      "Ben": 1112,
      "igor": 1113,
      "ĠITA": 1114,
      "FI": 1115,
      "cia": 1116,
      "Petr": 1117,
      "350": 1118,
      "zh": 1119,
      "les": 1120,
      "exf": 1121,
      "415": 1122,
      "WCM": 1123,
      "out": 1124,
      "ga": 1125,
      "Ta": 1126,
      "kol": 1127,
      "Qxb": 1128,
      "arsen": 1129,
      "enfeld": 1130,
      "all": 1131,
      "ĠZ": 1132,
      "100": 1133,
      "rand": 1134,
      "Vi": 1135,
      "1411": 1136,
      "Mor": 1137,
      "ĠNdb": 1138,
      "emi": 1139,
      "UN": 1140,
      "dez": 1141,
      "Bxg": 1142,
      "eters": 1143,
      "Ġ90": 1144,
      "ica": 1145,
      "FIDE": 1146,
      "without": 1147,
      "ruenfeld": 1148,
      "ort": 1149,
      "omen": 1150,
      "pin": 1151,
      "rasch": 1152,
      "Tarrasch": 1153,
      "410": 1154,
      "128": 1155,
      "2410": 1156,
      "ars": 1157,
      "Sochi": 1158,
      "ED": 1159,
      "POL": 1160,
      "ĠCZE": 1161,
      "he": 1162,
      "RUS": 1163,
      "ĠRdf": 1164,
      "124": 1165,
      "OR": 1166,
      "bia": 1167,
      "ĠNed": 1168,
      "AN": 1169,
      "atsch": 1170,
      "ĠPeters": 1171,
      "ĠPetersburg": 1172,
      "USA": 1173,
      "Mat": 1174,
      "rad": 1175,
      "Robatsch": 1176,
      "ne": 1177,
      "acce": 1178,
      "stein": 1179,
      "oc": 1180,
      "200": 1181,
      "mm": 1182,
      "Kor": 1183,
      "land": 1184,
      "rag": 1185,
      "ĠTUR": 1186,
      "Sc": 1187,
      "Nik": 1188,
      "Jos": 1189,
      "ĠSpe": 1190,
      "ĠSpeed": 1191,
      "Sm": 1192,
      "ĠNcd": 1193,
      "Ber": 1194,
      "ke": 1195,
      "Ġ91": 1196,
      "Martin": 1197,
      "ny": 1198,
      "to": 1199,
      "ala": 1200,
      "etrical": 1201,
      "mmetrical": 1202,
      "Bxb": 1203,
      "oco": 1204,
      "ham": 1205,
      "kolsky": 1206,
      "elg": 1207,
      "Giu": 1208,
      "Larsen": 1209,
      "Giuoco": 1210,
      "ĠRaa": 1211,
      "kov": 1212,
      "ĠPian": 1213,
      "ĠSpeedChess": 1214,
      "RE": 1215,
      "RO": 1216,
      "oun": 1217,
      "ishop": 1218,
      "Mi": 1219,
      "Par": 1220,
      "ba": 1221,
      "ĠNfe": 1222,
      "imanov": 1223,
      "mer": 1224,
      "Gruenfeld": 1225,
      "sa": 1226,
      "ya": 1227,
      "Alexa": 1228,
      "ĠAl": 1229,
      "Daniel": 1230,
      "uez": 1231,
      "Jan": 1232,
      "ner": 1233,
      "Lu": 1234,
      "Ġ-": 1235,
      "initz": 1236,
      "ah": 1237,
      "Gar": 1238,
      "Ala": 1239,
      "Mak": 1240,
      "ius": 1241,
      "ill": 1242,
      "ĠMasters": 1243,
      "Ġw": 1244,
      "EN": 1245,
      "da": 1246,
      "Ġcoun": 1247,
      "Den": 1248,
      "eva": 1249,
      "utch": 1250,
      "Sokolsky": 1251,
      "Rac": 1252,
      "Rxg": 1253,
      "Chigor": 1254,
      "Chigorin": 1255,
      "Tr": 1256,
      "ubin": 1257,
      "ron": 1258,
      "ĠWomen": 1259,
      "lay": 1260,
      "ĠJun": 1261,
      "Ad": 1262,
      "inav": 1263,
      "tel": 1264,
      "ong": 1265,
      "145": 1266,
      "ice": 1267,
      "ernan": 1268,
      "io": 1269,
      "Rfd": 1270,
      "Nov": 1271,
      "Ser": 1272,
      "main": 1273,
      "Pr": 1274,
      "Ab": 1275,
      "Ġ92": 1276,
      "ĠNED": 1277,
      "Sar": 1278,
      "symmetrical": 1279,
      "rist": 1280,
      "ĠUSA": 1281,
      "Alapin": 1282,
      "andinav": 1283,
      "Scandinav": 1284,
      "Scandinavian": 1285,
      "Rom": 1286,
      "ja": 1287,
      "tch": 1288,
      "hov": 1289,
      "ernandez": 1290,
      "In": 1291,
      "Se": 1292,
      "AR": 1293,
      "ĠRdg": 1294,
      "ĠRff": 1295,
      "120": 1296,
      "cen": 1297,
      "ubinstein": 1298,
      "Taimanov": 1299,
      "ff": 1300,
      "Ġbishop": 1301,
      "ĠRbb": 1302,
      "Rxh": 1303,
      "ila": 1304,
      "astr": 1305,
      "fianchetto": 1306,
      "ĠRbe": 1307,
      "Ġ94": 1308,
      "Belg": 1309,
      "ĠNhf": 1310,
      "ĠJunior": 1311,
      "Ander": 1312,
      "Qxg": 1313,
      "lan": 1314,
      "ĠRhc": 1315,
      "Ġcounter": 1316,
      "Ġ93": 1317,
      "Canal": 1318,
      "116": 1319,
      "146": 1320,
      "osco": 1321,
      "oscow": 1322,
      "Pa": 1323,
      "ok": 1324,
      "rade": 1325,
      "ora": 1326,
      "berg": 1327,
      "Neo": 1328,
      "Ġ95": 1329,
      "rig": 1330,
      "ĠSen": 1331,
      "Slav": 1332,
      "Dutch": 1333,
      "esh": 1334,
      "Ġmain": 1335,
      "Pir": 1336,
      "ano": 1337,
      "2413": 1338,
      "ska": 1339,
      "Kar": 1340,
      "TUR": 1341,
      "LI": 1342,
      "ĠSenior": 1343,
      "fxg": 1344,
      "ey": 1345,
      "Qxa": 1346,
      "ĠCh": 1347,
      "1340": 1348,
      "ib": 1349,
      "Kxg": 1350,
      "Nxb": 1351,
      "ura": 1352,
      "Per": 1353,
      "Sco": 1354,
      "ĠRO": 1355,
      "Ġfianchetto": 1356,
      "510": 1357,
      "900": 1358,
      "KR": 1359,
      "246": 1360,
      "lad": 1361,
      "iev": 1362,
      "Er": 1363,
      "uss": 1364,
      "Th": 1365,
      "ip": 1366,
      "odrig": 1367,
      "Scotch": 1368,
      "ord": 1369,
      "ated": 1370,
      "Fran": 1371,
      "Belgrade": 1372,
      "ĠNec": 1373,
      "let": 1374,
      "ĠUKR": 1375,
      "Rfe": 1376,
      "441": 1377,
      "Har": 1378,
      "Mik": 1379,
      "Ġ96": 1380,
      "Bog": 1381,
      "mp": 1382,
      "outh": 1383,
      "Kr": 1384,
      "povcen": 1385,
      "povcensky": 1386,
      "ĠNbxd": 1387,
      "ĠSte": 1388,
      "UI": 1389,
      "ĠOpovcensky": 1390,
      "ĠROU": 1391,
      "org": 1392,
      "cz": 1393,
      "tem": 1394,
      "Anders": 1395,
      "nt": 1396,
      "ary": 1397,
      "old": 1398,
      "Br": 1399,
      "ĠDiv": 1400,
      "oria": 1401,
      "UT": 1402,
      "ick": 1403,
      "Pirc": 1404,
      "105": 1405,
      "semi": 1406,
      "Kxf": 1407,
      "Nxg": 1408,
      "end": 1409,
      "Wars": 1410,
      "aj": 1411,
      "Am": 1412,
      "Warsaw": 1413,
      "VK": 1414,
      "ĠGM": 1415,
      "ĠRef": 1416,
      "ush": 1417,
      "ESP": 1418,
      "no": 1419,
      "vin": 1420,
      "ver": 1421,
      "ardo": 1422,
      "000": 1423,
      "han": 1424,
      "411": 1425,
      "kin": 1426,
      "Kan": 1427,
      "ira": 1428,
      "cza": 1429,
      "Anderssen": 1430,
      "elik": 1431,
      "113": 1432,
      "uel": 1433,
      "Me": 1434,
      "tak": 1435,
      "ĠReb": 1436,
      "134": 1437,
      "rem": 1438,
      "ĠTCh": 1439,
      "Ġ97": 1440,
      "ies": 1441,
      "ĠSwiss": 1442,
      "oslav": 1443,
      "Bo": 1444,
      "aya": 1445,
      "yn": 1446,
      "two": 1447,
      "osit": 1448,
      "uan": 1449,
      "Petrov": 1450,
      "cxb": 1451,
      "Ġposit": 1452,
      "Ġposition": 1453,
      "Bud": 1454,
      "Sk": 1455,
      "idor": 1456,
      "khine": 1457,
      "Pe": 1458,
      "clin": 1459,
      "Ġdeclin": 1460,
      "Ġdeclined": 1461,
      "245": 1462,
      "open": 1463,
      "466": 1464,
      "La": 1465,
      "Modern": 1466,
      "Sam": 1467,
      "003": 1468,
      "ias": 1469,
      "icz": 1470,
      "lez": 1471,
      "417": 1472,
      "ĠHUN": 1473,
      "arian": 1474,
      "Sz": 1475,
      "Vlad": 1476,
      "Lo": 1477,
      "Dav": 1478,
      "Jul": 1479,
      "ĠAr": 1480,
      "ower": 1481,
      "Tor": 1482,
      "Bxa": 1483,
      "Barcza": 1484,
      "LO": 1485,
      "ares": 1486,
      "Mich": 1487,
      "Sp": 1488,
      "mann": 1489,
      "Ġpositional": 1490,
      "390": 1491,
      "ĠSch": 1492,
      "Ivan": 1493,
      "136": 1494,
      "208": 1495,
      "arov": 1496,
      "ĠPlay": 1497,
      "gor": 1498,
      "owski": 1499,
      "hil": 1500,
      "ks": 1501,
      "bek": 1502,
      "ade": 1503,
      "450": 1504,
      "ers": 1505,
      "Four": 1506,
      "Jak": 1507,
      "takower": 1508,
      "Ag": 1509,
      "Ger": 1510,
      "lerated": 1511,
      "accelerated": 1512,
      "Tartakower": 1513,
      "Ġ98": 1514,
      "Roman": 1515,
      "II": 1516,
      "uen": 1517,
      "2340": 1518,
      "Va": 1519,
      "iro": 1520,
      "ula": 1521,
      "Pol": 1522,
      "San": 1523,
      "lovak": 1524,
      "Dm": 1525,
      "IN": 1526,
      "Asian": 1527,
      "ĠRfa": 1528,
      "Ġsemi": 1529,
      "gxh": 1530,
      "ĠMoscow": 1531,
      "ung": 1532,
      "ĠIND": 1533,
      "Benko": 1534,
      "Zh": 1535,
      "ĠNac": 1536,
      "ima": 1537,
      "du": 1538,
      "Qxh": 1539,
      "ĠIM": 1540,
      "apest": 1541,
      "uper": 1542,
      "Jose": 1543,
      "ĠRcb": 1544,
      "Ġwithout": 1545,
      "Rich": 1546,
      "swiss": 1547,
      "Berlin": 1548,
      "Ġ+": 1549,
      "ĠSVK": 1550,
      "237": 1551,
      "zech": 1552,
      "chenko": 1553,
      "Ġdel": 1554,
      "IS": 1555,
      "380": 1556,
      "AS": 1557,
      "eldorf": 1558,
      "des": 1559,
      "tsev": 1560,
      "Trom": 1561,
      "iad": 1562,
      "117": 1563,
      "enna": 1564,
      "Os": 1565,
      "uzer": 1566,
      "Ġ99": 1567,
      "1420": 1568,
      "Ruth": 1569,
      "ĠNdc": 1570,
      "Alekhine": 1571,
      "Deniz": 1572,
      "180": 1573,
      "115": 1574,
      "povsky": 1575,
      "Trompovsky": 1576,
      "odriguez": 1577,
      "par": 1578,
      "Lin": 1579,
      "lev": 1580,
      "insk": 1581,
      "Dmit": 1582,
      "olo": 1583,
      "ĠVe": 1584,
      "mad": 1585,
      "Budapest": 1586,
      "Kir": 1587,
      "Bxh": 1588,
      "ĠNef": 1589,
      "ĠYouth": 1590,
      "Duss": 1591,
      "Win": 1592,
      "ita": 1593,
      "Dusseldorf": 1594,
      "2302": 1595,
      "ls": 1596,
      "Ant": 1597,
      "ĠRag": 1598,
      "Ġ100": 1599,
      "Ġ101": 1600,
      "505": 1601,
      "ragon": 1602,
      "ĠRdb": 1603,
      "ki": 1604,
      "bxa": 1605,
      "Bak": 1606,
      "Old": 1607,
      "bar": 1608,
      "oug": 1609,
      "ĠTeams": 1610,
      "126": 1611,
      "Dub": 1612,
      "ĠSant": 1613,
      "419": 1614,
      "Cas": 1615,
      "je": 1616,
      "onte": 1617,
      "omas": 1618,
      "zo": 1619,
      "2308": 1620,
      "414": 1621,
      "Denizli": 1622,
      "cent": 1623,
      "ys": 1624,
      "106": 1625,
      "ĠNdxe": 1626,
      "149": 1627,
      "Gr": 1628,
      "Kam": 1629,
      "astrze": 1630,
      "ĠBu": 1631,
      "me": 1632,
      "illa": 1633,
      "Martinez": 1634,
      "Gu": 1635,
      "Is": 1636,
      "2416": 1637,
      "ika": 1638,
      "Artem": 1639,
      "David": 1640,
      "Val": 1641,
      "Te": 1642,
      "qu": 1643,
      "Ġ102": 1644,
      "2418": 1645,
      "Phil": 1646,
      "2419": 1647,
      "Su": 1648,
      "ĠPiano": 1649,
      "NC": 1650,
      "ert": 1651,
      "Lima": 1652,
      "445": 1653,
      "206": 1654,
      "Two": 1655,
      "UKS": 1656,
      "ummer": 1657,
      "Fernandez": 1658,
      "KD": 1659,
      "2411": 1660,
      "evic": 1661,
      "oj": 1662,
      "2303": 1663,
      "Jastrze": 1664,
      "ĠGar": 1665,
      "ĠGora": 1666,
      "Jastrzebia": 1667,
      "ena": 1668,
      "ĠNcxe": 1669,
      "2208": 1670,
      "fan": 1671,
      "2228": 1672,
      "ĠPOR": 1673,
      "148": 1674,
      "ĠSummer": 1675,
      "Nge": 1676,
      "Jo": 1677,
      "ata": 1678,
      "Benoni": 1679,
      "wski": 1680,
      "uer": 1681,
      "rian": 1682,
      "ĠGRE": 1683,
      "2426": 1684,
      "AZ": 1685,
      "uga": 1686,
      "Van": 1687,
      "bad": 1688,
      "ĠInt": 1689,
      "418": 1690,
      "ell": 1691,
      "rez": 1692,
      "Eind": 1693,
      "hoven": 1694,
      "Eindhoven": 1695,
      "260": 1696,
      "Korch": 1697,
      "ely": 1698,
      "ĠSp": 1699,
      "Vienna": 1700,
      "Man": 1701,
      "Sant": 1702,
      "go": 1703,
      "Paul": 1704,
      "amp": 1705,
      "osh": 1706,
      "ugoslav": 1707,
      "ikov": 1708,
      "dragon": 1709,
      "Steinitz": 1710,
      "que": 1711,
      "ĠSuper": 1712,
      "issimo": 1713,
      "awer": 1714,
      "abi": 1715,
      "AI": 1716,
      "asi": 1717,
      "ndr": 1718,
      "ĠRgf": 1719,
      "ĠSUI": 1720,
      "ĠPianissimo": 1721,
      "226": 1722,
      "err": 1723,
      "420": 1724,
      "hal": 1725,
      "Ġ103": 1726,
      "ĠSAT": 1727,
      "RANC": 1728,
      "ĠSATRANC": 1729,
      "atar": 1730,
      "Leon": 1731,
      "lymp": 1732,
      "otvin": 1733,
      "otvinnik": 1734,
      "Lev": 1735,
      "isch": 1736,
      "Richter": 1737,
      "ĠOlymp": 1738,
      "ĠOlympiad": 1739,
      "ico": 1740,
      "ity": 1741,
      "138": 1742,
      "ĠGarcia": 1743,
      "Rubinstein": 1744,
      "Kxe": 1745,
      "ĠAUT": 1746,
      "skiy": 1747,
      "ni": 1748,
      "ph": 1749,
      "2421": 1750,
      "127": 1751,
      "Rae": 1752,
      "Winawer": 1753,
      "Ast": 1754,
      "036": 1755,
      "ĠDh": 1756,
      "oczy": 1757,
      "yr": 1758,
      "Julius": 1759,
      "ĠRcf": 1760,
      "Ali": 1761,
      "nikov": 1762,
      "Ġwith": 1763,
      "290": 1764,
      "030": 1765,
      "2226": 1766,
      "onov": 1767,
      "mar": 1768,
      "ĠDhabi": 1769,
      "Kon": 1770,
      "Str": 1771,
      "ĠSteinitz": 1772,
      "ein": 1773,
      "pp": 1774,
      "ĠMason": 1775,
      "ĠME": 1776,
      "Dur": 1777,
      "ĠEN": 1778,
      "ĠNeg": 1779,
      "Nxa": 1780,
      "ĠBen": 1781,
      "oroz": 1782,
      "ĠMemoria": 1783,
      "ĠMemorial": 1784,
      "erez": 1785,
      "ĠYugoslav": 1786,
      "orth": 1787,
      "iya": 1788,
      "520": 1789,
      "lores": 1790,
      "Max": 1791,
      "Or": 1792,
      "eb": 1793,
      "ĠBo": 1794,
      "227": 1795,
      "law": 1796,
      "2284": 1797,
      "Ġopen": 1798,
      "ĠENG": 1799,
      "Gol": 1800,
      "153": 1801,
      "ĠPER": 1802,
      "ĠBaer": 1803,
      "130": 1804,
      "Kxd": 1805,
      "119": 1806,
      "lub": 1807,
      "2256": 1808,
      "500": 1809,
      "ted": 1810,
      "ew": 1811,
      "del": 1812,
      "Fin": 1813,
      "ari": 1814,
      "Rab": 1815,
      "Torre": 1816,
      "Il": 1817,
      "tor": 1818,
      "Kre": 1819,
      "2409": 1820,
      "ubice": 1821,
      "ardubice": 1822,
      "KA": 1823,
      "var": 1824,
      "Astana": 1825,
      "Ja": 1826,
      "250": 1827,
      "nder": 1828,
      "037": 1829,
      "wicz": 1830,
      "imir": 1831,
      "ĠCRO": 1832,
      "ĠCzech": 1833,
      "ley": 1834,
      "2500": 1835,
      "IT": 1836,
      "2215": 1837,
      "ĠMKD": 1838,
      "288": 1839,
      "173": 1840,
      "005": 1841,
      "EL": 1842,
      "Ga": 1843,
      "pted": 1844,
      "Ġacce": 1845,
      "ida": 1846,
      "Ġaccepted": 1847,
      "ker": 1848,
      "ĠRea": 1849,
      "2509": 1850,
      "ĠNfxd": 1851,
      "ĠCH": 1852,
      "Dzh": 1853,
      "2390": 1854,
      "ĠVal": 1855,
      "Jon": 1856,
      "Pardubice": 1857,
      "Es": 1858,
      "rov": 1859,
      "arb": 1860,
      "ost": 1861,
      "2253": 1862,
      "256": 1863,
      "roi": 1864,
      "OM": 1865,
      "dam": 1866,
      "Char": 1867,
      "ambit": 1868,
      "2465": 1869,
      "ukh": 1870,
      "oham": 1871,
      "2278": 1872,
      "Linares": 1873,
      "be": 1874,
      "Ġ104": 1875,
      "2619": 1876,
      "era": 1877,
      "ĠGrand": 1878,
      "234": 1879,
      "2304": 1880,
      "Ces": 1881,
      "lovakia": 1882,
      "ĠFRA": 1883,
      "ĠCO": 1884,
      "Vl": 1885,
      "ortoroz": 1886,
      "ĠBRA": 1887,
      "ĠMEX": 1888,
      "2216": 1889,
      "ikh": 1890,
      "192": 1891,
      "Franc": 1892,
      "QGA": 1893,
      "047": 1894,
      "NI": 1895,
      "ino": 1896,
      "ubga": 1897,
      "Dzhubga": 1898,
      "med": 1899,
      "jovic": 1900,
      "mat": 1901,
      "ĠRge": 1902,
      "143": 1903,
      "ĠAZE": 1904,
      "imen": 1905,
      "Baku": 1906,
      "Bul": 1907,
      "ij": 1908,
      "KSz": 1909,
      "iva": 1910,
      "duardo": 1911,
      "ria": 1912,
      "inov": 1913,
      "ĠSLO": 1914,
      "El": 1915,
      "odo": 1916,
      "440": 1917,
      "2307": 1918,
      "209": 1919,
      "2103": 1920,
      "ames": 1921,
      "258": 1922,
      "710": 1923,
      "CC": 1924,
      "Kev": 1925,
      "1360": 1926,
      "ĠCHN": 1927,
      "ilov": 1928,
      "Ha": 1929,
      "Ram": 1930,
      "Serbia": 1931,
      "Aust": 1932,
      "1119": 1933,
      "ĠAL": 1934,
      "ĠMaroczy": 1935,
      "uch": 1936,
      "123": 1937,
      "Ole": 1938,
      "Ge": 1939,
      "ve": 1940,
      "Ro": 1941,
      "Ko": 1942,
      "2606": 1943,
      "Mos": 1944,
      "465": 1945,
      "Mal": 1946,
      "Doug": 1947,
      "ĠPrem": 1948,
      "ĠPremier": 1949,
      "HUN": 1950,
      "chuk": 1951,
      "055": 1952,
      "2227": 1953,
      "iteroi": 1954,
      "ĠNgxe": 1955,
      "Garcia": 1956,
      "dy": 1957,
      "2300": 1958,
      "229": 1959,
      "Douglas": 1960,
      "Jakub": 1961,
      "WE": 1962,
      "zak": 1963,
      "ĠNcb": 1964,
      "2276": 1965,
      "uy": 1966,
      "ĠCOL": 1967,
      "490": 1968,
      "ram": 1969,
      "Ġbind": 1970,
      "Bor": 1971,
      "ral": 1972,
      "ĠRubinstein": 1973,
      "odox": 1974,
      "1330": 1975,
      "roc": 1976,
      "Philidor": 1977,
      "Bogo": 1978,
      "Sv": 1979,
      "ubl": 1980,
      "Gal": 1981,
      "541": 1982,
      "Rfc": 1983,
      "2415": 1984,
      "Alexander": 1985,
      "kar": 1986,
      "ili": 1987,
      "Oz": 1988,
      "antin": 1989,
      "Vladimir": 1990,
      "centre": 1991,
      "Bur": 1992,
      "ani": 1993,
      "ĠIOM": 1994,
      "than": 1995,
      "zek": 1996,
      "Biel": 1997,
      "Hung": 1998,
      "Kos": 1999,
      "gar": 2000,
      "gambit": 2001,
      "2047": 2002,
      "Ġ105": 2003,
      "dejovic": 2004,
      "ĠBudejovic": 2005,
      "Ceske": 2006,
      "ĠBudejovice": 2007,
      "Ho": 2008,
      "tis": 2009,
      "Ġ106": 2010,
      "108": 2011,
      "imenez": 2012,
      "399": 2013,
      "2163": 2014,
      "noi": 2015,
      "Ker": 2016,
      "Mam": 2017,
      "Da": 2018,
      "ĠPa": 2019,
      "Krefeld": 2020,
      "Riga": 2021,
      "tal": 2022,
      "147": 2023,
      "eli": 2024,
      "Dem": 2025,
      "2368": 2026,
      "190": 2027,
      "Ve": 2028,
      "Ġ107": 2029,
      "ois": 2030,
      "2287": 2031,
      "346": 2032,
      "stan": 2033,
      "shall": 2034,
      "545": 2035,
      "2218": 2036,
      "Ts": 2037,
      "2360": 2038,
      "278": 2039,
      "Michal": 2040,
      "Do": 2041,
      "uben": 2042,
      "abri": 2043,
      "ero": 2044,
      "2185": 2045,
      "bel": 2046,
      "Mir": 2047,
      "2399": 2048,
      "2213": 2049,
      "2225": 2050,
      "acie": 2051,
      "ruz": 2052,
      "uw": 2053,
      "stantin": 2054,
      "Kxh": 2055,
      "2266": 2056,
      "Struga": 2057,
      "2251": 2058,
      "139": 2059,
      "2288": 2060,
      "Rauzer": 2061,
      "elikan": 2062,
      "Pelikan": 2063,
      "olas": 2064,
      "idze": 2065,
      "ua": 2066,
      "ĠSK": 2067,
      "Juan": 2068,
      "ael": 2069,
      "int": 2070,
      "4168": 2071,
      "0047": 2072,
      "570": 2073,
      "2203": 2074,
      "300": 2075,
      "ES": 2076,
      "2393": 2077,
      "ito": 2078,
      "Ġ108": 2079,
      "2199": 2080,
      "rey": 2081,
      "2343": 2082,
      "LIK": 2083,
      "Ah": 2084,
      "Her": 2085,
      "345": 2086,
      "1000": 2087,
      "iet": 2088,
      "per": 2089,
      "Ġclassical": 2090,
      "2108": 2091,
      "zi": 2092,
      "2506": 2093,
      "ĠBenoni": 2094,
      "087": 2095,
      "299": 2096,
      "inia": 2097,
      "2505": 2098,
      "skaya": 2099,
      "2271": 2100,
      "447": 2101,
      "lon": 2102,
      "ĠSt": 2103,
      "yrne": 2104,
      "Sim": 2105,
      "cu": 2106,
      "anaus": 2107,
      "Nxh": 2108,
      "ola": 2109,
      "ĠRfxd": 2110,
      "Mag": 2111,
      "Korchnoi": 2112,
      "ĠRgg": 2113,
      "bera": 2114,
      "so": 2115,
      "2400": 2116,
      "heim": 2117,
      "ksand": 2118,
      "apa": 2119,
      "orthodox": 2120,
      "UL": 2121,
      "aia": 2122,
      "ĠCAN": 2123,
      "2200": 2124,
      "2222": 2125,
      "640": 2126,
      "Ang": 2127,
      "280": 2128,
      "3410": 2129,
      "2438": 2130,
      "ĠHan": 2131,
      "ĠRhh": 2132,
      "eng": 2133,
      "2264": 2134,
      "osz": 2135,
      "four": 2136,
      "ĠRbf": 2137,
      "150": 2138,
      "ive": 2139,
      "ten": 2140,
      "2016": 2141,
      "Smith": 2142,
      "ado": 2143,
      "ava": 2144,
      "ger": 2145,
      "liga": 2146,
      "ran": 2147,
      "Ust": 2148,
      "gen": 2149,
      "Crist": 2150,
      "2315": 2151,
      "2277": 2152,
      "publ": 2153,
      "225": 2154,
      "ĠLa": 2155,
      "2305": 2156,
      "2447": 2157,
      "1450": 2158,
      "AE": 2159,
      "amb": 2160,
      "ĠUAE": 2161,
      "Tim": 2162,
      "och": 2163,
      "iaz": 2164,
      "GER": 2165,
      "Sil": 2166,
      "nica": 2167,
      "Li": 2168,
      "416": 2169,
      "Ustron": 2170,
      "Bal": 2171,
      "ĠNfg": 2172,
      "yk": 2173,
      "ĠRdh": 2174,
      "ĠMen": 2175,
      "Mikha": 2176,
      "din": 2177,
      "2261": 2178,
      "216": 2179,
      "ĠRhb": 2180,
      "213": 2181,
      "ĠPar": 2182,
      "Kirill": 2183,
      "onza": 2184,
      "SRB": 2185,
      "vi": 2186,
      "una": 2187,
      "2000": 2188,
      "Canad": 2189,
      "Pap": 2190,
      "We": 2191,
      "Ġ109": 2192,
      "964": 2193,
      "Serg": 2194,
      "Tan": 2195,
      "Rag": 2196,
      "Pi": 2197,
      "ullin": 2198,
      "400": 2199,
      "Red": 2200,
      "Semi": 2201,
      "ĠRaxd": 2202,
      "Konstantin": 2203,
      "2306": 2204,
      "2183": 2205,
      "ĠKAZ": 2206,
      "2151": 2207,
      "5029": 2208,
      "Petros": 2209,
      "AL": 2210,
      "ĠRaxc": 2211,
      "2135": 2212,
      "040": 2213,
      "sim": 2214,
      "2026": 2215,
      "sta": 2216,
      "Mon": 2217,
      "SA": 2218,
      "2077": 2219,
      "Aver": 2220,
      "emisch": 2221,
      "1341": 2222,
      "Lab": 2223,
      "jan": 2224,
      "ĠRca": 2225,
      "abriel": 2226,
      "ĠAb": 2227,
      "2104": 2228,
      "Py": 2229,
      "ĠECC": 2230,
      "Durres": 2231,
      "ĠALB": 2232,
      "2383": 2233,
      "Joh": 2234,
      "Si": 2235,
      "2333": 2236,
      "Lub": 2237,
      "abinsk": 2238,
      "onio": 2239,
      "elyabinsk": 2240,
      "Ġsh": 2241,
      "Pat": 2242,
      "ĠByrne": 2243,
      "2250": 2244,
      "2181": 2245,
      "many": 2246,
      "2242": 2247,
      "398": 2248,
      "Dom": 2249,
      "Han": 2250,
      "acin": 2251,
      "2468": 2252,
      "ĠMaster": 2253,
      "ON": 2254,
      "2223": 2255,
      "ĠSWE": 2256,
      "ĠLos": 2257,
      "2145": 2258,
      "rasov": 2259,
      "ĠRgd": 2260,
      "2107": 2261,
      "Ak": 2262,
      "2376": 2263,
      "2194": 2264,
      "lat": 2265,
      "eve": 2266,
      "zhou": 2267,
      "Ni": 2268,
      "Sard": 2269,
      "reb": 2270,
      "Bir": 2271,
      "Arco": 2272,
      "ĠArco": 2273,
      "ozin": 2274,
      "Hang": 2275,
      "2113": 2276,
      "Saemisch": 2277,
      "860": 2278,
      "Qu": 2279,
      "ĠAR": 2280,
      "ĠGEN": 2281,
      "ĠGames": 2282,
      "Hangzhou": 2283,
      "czy": 2284,
      "andro": 2285,
      "lom": 2286,
      "2494": 2287,
      "Anapa": 2288,
      "CLIK": 2289,
      "lit": 2290,
      "enz": 2291,
      "079": 2292,
      "ĠGENCLIK": 2293,
      "2362": 2294,
      "anti": 2295,
      "2170": 2296,
      "Nfd": 2297,
      "Francis": 2298,
      "bakh": 2299,
      "2279": 2300,
      "739": 2301,
      "rin": 2302,
      "ĠPerez": 2303,
      "2309": 2304,
      "amer": 2305,
      "Fili": 2306,
      "2327": 2307,
      "480": 2308,
      "ree": 2309,
      "045": 2310,
      "GRE": 2311,
      "Qatar": 2312,
      "ĠQAT": 2313,
      "Doha": 2314,
      "Averbakh": 2315,
      "2034": 2316,
      "aron": 2317,
      "Morra": 2318,
      "Cal": 2319,
      "080": 2320,
      "Pula": 2321,
      "205": 2322,
      "3506": 2323,
      "Sardinia": 2324,
      "Santos": 2325,
      "2283": 2326,
      "ĠAle": 2327,
      "Hungarian": 2328,
      "Mosk": 2329,
      "He": 2330,
      "Pytel": 2331,
      "2329": 2332,
      "2391": 2333,
      "Ġ110": 2334,
      "ĠFlores": 2335,
      "mi": 2336,
      "2354": 2337,
      "175": 2338,
      "Alek": 2339,
      "ĠSan": 2340,
      "vili": 2341,
      "2273": 2342,
      "109": 2343,
      "2252": 2344,
      "14108": 2345,
      "Jana": 2346,
      "Portoroz": 2347,
      "hi": 2348,
      "2233": 2349,
      "118": 2350,
      "2346": 2351,
      "xico": 2352,
      "2609": 2353,
      "ĠCity": 2354,
      "ShK": 2355,
      "Mexico": 2356,
      "are": 2357,
      "inc": 2358,
      "104": 2359,
      "Bra": 2360,
      "OS": 2361,
      "lona": 2362,
      "2109": 2363,
      "332": 2364,
      "lsen": 2365,
      "2345": 2366,
      "2030": 2367,
      "Rodriguez": 2368,
      "2040": 2369,
      "nov": 2370,
      "2441": 2371,
      "ĠMa": 2372,
      "ĠGu": 2373,
      "cal": 2374,
      "tur": 2375,
      "ĠBar": 2376,
      "2457": 2377,
      "ei": 2378,
      "iam": 2379,
      "2257": 2380,
      "2641": 2381,
      "2186": 2382,
      "UB": 2383,
      "Mate": 2384,
      "2371": 2385,
      "2289": 2386,
      "078": 2387,
      "Fag": 2388,
      "2324": 2389,
      "Rud": 2390,
      "onzalez": 2391,
      "Pin": 2392,
      "Pav": 2393,
      "2160": 2394,
      "alica": 2395,
      "270": 2396,
      "osa": 2397,
      "Mu": 2398,
      "2461": 2399,
      "048": 2400,
      "Francisco": 2401,
      "228": 2402,
      "2299": 2403,
      "Jas": 2404,
      "388": 2405,
      "Petrosian": 2406,
      "Sud": 2407,
      "2322": 2408,
      "tic": 2409,
      "ernes": 2410,
      "Fagernes": 2411,
      "Kol": 2412,
      "Wies": 2413,
      "2019": 2414,
      "2496": 2415,
      "2114": 2416,
      "969": 2417,
      "The": 2418,
      "zin": 2419,
      "Dmitry": 2420,
      "557": 2421,
      "IR": 2422,
      "rid": 2423,
      "ĠRodriguez": 2424,
      "ous": 2425,
      "241717": 2426,
      "Go": 2427,
      "ĠBEL": 2428,
      "ĠReg": 2429,
      "isz": 2430,
      "Vu": 2431,
      "Vas": 2432,
      "2035": 2433,
      "ndon": 2434,
      "2269": 2435,
      "Maksim": 2436,
      "ĠGir": 2437,
      "Shap": 2438,
      "Kuz": 2439,
      "2201": 2440,
      "Germany": 2441,
      "Lublin": 2442,
      "Koz": 2443,
      "orn": 2444,
      "baden": 2445,
      "Wiesbaden": 2446,
      "2217": 2447,
      "2270": 2448,
      "2255": 2449,
      "264": 2450,
      "ĠJuniors": 2451,
      "Kevin": 2452,
      "Bird": 2453,
      "Co": 2454,
      "Mer": 2455,
      "ster": 2456,
      "ĠPo": 2457,
      "Men": 2458,
      "Nar": 2459,
      "049": 2460,
      "2578": 2461,
      "ĠVeit": 2462,
      "park": 2463,
      "Ragozin": 2464,
      "2292": 2465,
      "165": 2466,
      "Tom": 2467,
      "2466": 2468,
      "lot": 2469,
      "2572": 2470,
      "ald": 2471,
      "2148": 2472,
      "til": 2473,
      "2210": 2474,
      "2523": 2475,
      "ayev": 2476,
      "Maria": 2477,
      "2110": 2478,
      "285": 2479,
      "310": 2480,
      "Kel": 2481,
      "295": 2482,
      "car": 2483,
      "2325": 2484,
      "ĠRfg": 2485,
      "Adam": 2486,
      "2458": 2487,
      "3805": 2488,
      "Pan": 2489,
      "2139": 2490,
      "Stan": 2491,
      "Gh": 2492,
      "lovac": 2493,
      "randje": 2494,
      "ĠPaul": 2495,
      "randjelovac": 2496,
      "Var": 2497,
      "340": 2498,
      "ĠGirls": 2499,
      "405": 2500,
      "Kle": 2501,
      "igal": 2502,
      "emann": 2503,
      "loss": 2504,
      "Filip": 2505,
      "eh": 2506,
      "shed": 2507,
      "2231": 2508,
      "ĠEduardo": 2509,
      "Alex": 2510,
      "Em": 2511,
      "263": 2512,
      "ych": 2513,
      "ĠRba": 2514,
      "2503": 2515,
      "ĠAut": 2516,
      "unez": 2517,
      "astian": 2518,
      "dvance": 2519,
      "Ġadvance": 2520,
      "Ara": 2521,
      "2260": 2522,
      "icano": 2523,
      "ĠMacie": 2524,
      "ĠMaciei": 2525,
      "IK": 2526,
      "Moham": 2527,
      "Ter": 2528,
      "Ġ111": 2529,
      "ĠSchloss": 2530,
      "ĠSchlosspark": 2531,
      "ose": 2532,
      "At": 2533,
      "Sun": 2534,
      "20200": 2535,
      "2195": 2536,
      "ĠClub": 2537,
      "akhmat": 2538,
      "Aj": 2539,
      "2073": 2540,
      "3509": 2541,
      "iewicz": 2542,
      "baum": 2543,
      "ĠAlc": 2544,
      "PP": 2545,
      "Ġ112": 2546,
      "London": 2547,
      "oa": 2548,
      "2469": 2549,
      "170": 2550,
      "ĠRda": 2551,
      "102": 2552,
      "ander": 2553,
      "Shapiro": 2554,
      "Ġ113": 2555,
      "tes": 2556,
      "144": 2557,
      "ĠCar": 2558,
      "Anna": 2559,
      "Dim": 2560,
      "ĠBiel": 2561,
      "Dj": 2562,
      "oulos": 2563,
      "2456": 2564,
      "zd": 2565,
      "2088": 2566,
      "ĠBer": 2567,
      "Maia": 2568,
      "rague": 2569,
      "Ver": 2570,
      "ĠLag": 2571,
      "460": 2572,
      "Pran": 2573,
      "509": 2574,
      "Ay": 2575,
      "Arad": 2576,
      "2240": 2577,
      "2268": 2578,
      "2423": 2579,
      "Col": 2580,
      "ulov": 2581,
      "259": 2582,
      "2075": 2583,
      "178": 2584,
      "396": 2585,
      "ĠKeres": 2586,
      "Kxc": 2587,
      "oss": 2588,
      "antara": 2589,
      "ĠAlcantara": 2590,
      "426": 2591,
      "2219": 2592,
      "2420": 2593,
      "2147": 2594,
      "by": 2595,
      "mak": 2596,
      "477": 2597,
      "Lopez": 2598,
      "Sad": 2599,
      "dan": 2600,
      "2295": 2601,
      "Yev": 2602,
      "ele": 2603,
      "yd": 2604,
      "2198": 2605,
      "if": 2606,
      "Nikaia": 2607,
      "americano": 2608,
      "Sudamericano": 2609,
      "507": 2610,
      "600": 2611,
      "zav": 2612,
      "irov": 2613,
      "Gul": 2614,
      "Nak": 2615,
      "nev": 2616,
      "zar": 2617,
      "12401": 2618,
      "Gor": 2619,
      "985": 2620,
      "Ca": 2621,
      "ĠPal": 2622,
      "leslav": 2623,
      "Alb": 2624,
      "ening": 2625,
      "Raf": 2626,
      "2206": 2627,
      "rdon": 2628,
      "2344": 2629,
      "iyev": 2630,
      "ĠMare": 2631,
      "leslavsky": 2632,
      "Ruben": 2633,
      "gary": 2634,
      "ente": 2635,
      "086": 2636,
      "Canadian": 2637,
      "Calgary": 2638,
      "Tab": 2639,
      "ĠBel": 2640,
      "erland": 2641,
      "ada": 2642,
      "Marc": 2643,
      "2389": 2644,
      "253": 2645,
      "Kov": 2646,
      "oy": 2647,
      "2091": 2648,
      "inian": 2649,
      "Marshall": 2650,
      "436": 2651,
      "mon": 2652,
      "ĠHanham": 2653,
      "Sav": 2654,
      "jevic": 2655,
      "2118": 2656,
      "ore": 2657,
      "ĠVE": 2658,
      "amura": 2659,
      "Kra": 2660,
      "ourdon": 2661,
      "asker": 2662,
      "nais": 2663,
      "Benidor": 2664,
      "Perez": 2665,
      "ourdonnais": 2666,
      "Benidorm": 2667,
      "omez": 2668,
      "2454": 2669,
      "050": 2670,
      "ĠDe": 2671,
      "Moskva": 2672,
      "Ġ114": 2673,
      "240": 2674,
      "24129": 2675,
      "Labourdonnais": 2676,
      "CA": 2677,
      "cion": 2678,
      "2693": 2679,
      "Alexandr": 2680,
      "Ġda": 2681,
      "635": 2682,
      "2375": 2683,
      "2525": 2684,
      "2547": 2685,
      "Abd": 2686,
      "2414": 2687,
      "Botvinnik": 2688,
      "970": 2689,
      "roved": 2690,
      "Kova": 2691,
      "den": 2692,
      "kara": 2693,
      "2348": 2694,
      "ali": 2695,
      "Bil": 2696,
      "2440": 2697,
      "160": 2698,
      "13504": 2699,
      "Imp": 2700,
      "ech": 2701,
      "hul": 2702,
      "reza": 2703,
      "ustin": 2704,
      "Kovalev": 2705,
      "Improved": 2706,
      "Hi": 2707,
      "jandro": 2708,
      "pur": 2709,
      "enthal": 2710,
      "Ġdeferr": 2711,
      "aba": 2712,
      "Ġdeferred": 2713,
      "2301": 2714,
      "Fior": 2715,
      "2296": 2716,
      "413": 2717,
      "Dimit": 2718,
      "Uf": 2719,
      "ai": 2720,
      "ĠNexd": 2721,
      "662": 2722,
      "ATO": 2723,
      "Bullet": 2724,
      "2016192": 2725,
      "Nakamura": 2726,
      "Mah": 2727,
      "Tomas": 2728,
      "20000": 2729,
      "2211": 2730,
      "akov": 2731,
      "olt": 2732,
      "MAN": 2733,
      "ablan": 2734,
      "561": 2735,
      "orge": 2736,
      "ablanca": 2737,
      "Bag": 2738,
      "2220": 2739,
      "2499": 2740,
      "Dmitri": 2741,
      "Andrey": 2742,
      "360": 2743,
      "En": 2744,
      "Je": 2745,
      "ide": 2746,
      "2057": 2747,
      "103": 2748,
      "2402": 2749,
      "2209": 2750,
      "Ankara": 2751,
      "425": 2752,
      "blas": 2753,
      "2356": 2754,
      "203": 2755,
      "4129": 2756,
      "Ġoblas": 2757,
      "2274": 2758,
      "276": 2759,
      "Ġdefense": 2760,
      "vale": 2761,
      "2321": 2762,
      "2427": 2763,
      "2197": 2764,
      "349": 2765,
      "068": 2766,
      "238": 2767,
      "ĠLu": 2768,
      "Anglo": 2769,
      "any": 2770,
      "orm": 2771,
      "2608": 2772,
      "2207": 2773,
      "Ef": 2774,
      "pat": 2775,
      "2224": 2776,
      "2187": 2777,
      "Nikita": 2778,
      "Mies": 2779,
      "Fiorito": 2780,
      "kova": 2781,
      "1400": 2782,
      "ĠMan": 2783,
      "427": 2784,
      "Di": 2785,
      "Kal": 2786,
      "lu": 2787,
      "syan": 2788,
      "ĠBotvinnik": 2789,
      "Peter": 2790,
      "rou": 2791,
      "2285": 2792,
      "2729": 2793,
      "opa": 2794,
      "ouza": 2795,
      "2143": 2796,
      "ikin": 2797,
      "Abu": 2798,
      "Loew": 2799,
      "ĠAbu": 2800,
      "iago": 2801,
      "Andrei": 2802,
      "ĠAdam": 2803,
      "DA": 2804,
      "2280": 2805,
      "erk": 2806,
      "379": 2807,
      "2158": 2808,
      "roclaw": 2809,
      "Loewenthal": 2810,
      "Grand": 2811,
      "ky": 2812,
      "Paulsen": 2813,
      "Jam": 2814,
      "quez": 2815,
      "yach": 2816,
      "idnica": 2817,
      "383": 2818,
      "Leba": 2819,
      "tier": 2820,
      "Alireza": 2821,
      "Kxb": 2822,
      "jin": 2823,
      "ĠRcg": 2824,
      "islav": 2825,
      "uyen": 2826,
      "Fe": 2827,
      "2435": 2828,
      "2188": 2829,
      "Luk": 2830,
      "cd": 2831,
      "chez": 2832,
      "2482": 2833,
      "ĠAdams": 2834,
      "KP": 2835,
      "2174": 2836,
      "Slovakia": 2837,
      "Tob": 2838,
      "2394": 2839,
      "341079": 2840,
      "2334": 2841,
      "Rosen": 2842,
      "ouis": 2843,
      "2475": 2844,
      "2164": 2845,
      "Aleksand": 2846,
      "ernheim": 2847,
      "East": 2848,
      "Ind": 2849,
      "XX": 2850,
      "2018": 2851,
      "329": 2852,
      "2099": 2853,
      "itsky": 2854,
      "2196": 2855,
      "2179": 2856,
      "2566": 2857,
      "194": 2858,
      "348": 2859,
      "2777": 2860,
      "tsov": 2861,
      "Panov": 2862,
      "2565": 2863,
      "167": 2864,
      "ĠChelyabinsk": 2865,
      "Sergey": 2866,
      "1500": 2867,
      "ĠNab": 2868,
      "Saint": 2869,
      "Kl": 2870,
      "Liu": 2871,
      "amir": 2872,
      "4128": 2873,
      "+\"]": 2874,
      "CS": 2875,
      "Moscow": 2876,
      "iner": 2877,
      "2146": 2878,
      "celona": 2879,
      "umar": 2880,
      "14110": 2881,
      "2232": 2882,
      "Barcelona": 2883,
      "ĠNimz": 2884,
      "4194": 2885,
      "ĠNimzovich": 2886,
      "zer": 2887,
      "Ġ115": 2888,
      "2265": 2889,
      "2238": 2890,
      "Kaz": 2891,
      "Golub": 2892,
      "3805662": 2893,
      "Svan": 2894,
      "235": 2895,
      "Doming": 2896,
      "Svane": 2897,
      "Will": 2898,
      "zja": 2899,
      "2044": 2900,
      "Firou": 2901,
      "ĠRah": 2902,
      "2463": 2903,
      "125739": 2904,
      "Firouzja": 2905,
      "12573981": 2906,
      "Kat": 2907,
      "SUI": 2908,
      "okh": 2909,
      "ĠNOR": 2910,
      "2316": 2911,
      "2298": 2912,
      "8814": 2913,
      "ĠHo": 2914,
      "esto": 2915,
      "Andreikin": 2916,
      "Stefan": 2917,
      "4158814": 2918,
      "Vik": 2919,
      "af": 2920,
      "2520": 2921,
      "166": 2922,
      "038": 2923,
      "2106": 2924,
      "429": 2925,
      "2294": 2926,
      "adze": 2927,
      "Shar": 2928,
      "ekhov": 2929,
      "ekhover": 2930,
      "Ku": 2931,
      "ile": 2932,
      "2358": 2933,
      "ĠNcxd": 2934,
      "2214": 2935,
      "15030": 2936,
      "Krzy": 2937,
      "CR": 2938,
      "val": 2939,
      "2403": 2940,
      "Carlsen": 2941,
      "skyi": 2942,
      "ĠZhul": 2943,
      "nyk": 2944,
      "ĠChekhover": 2945,
      "dyzd": 2946,
      "1503014": 2947,
      "ĠZhuldyzd": 2948,
      "ĠZhuldyzdary": 2949,
      "wa": 2950,
      "iano": 2951,
      "ĠAnt": 2952,
      "Wil": 2953,
      "1440": 2954,
      "187": 2955,
      "Andrew": 2956,
      "Olexa": 2957,
      "kina": 2958,
      "ĠOp": 2959,
      "Po": 2960,
      "Wade": 2961,
      "ales": 2962,
      "idov": 2963,
      "ĠNfxe": 2964,
      "2039": 2965,
      "2098": 2966,
      "ĠBoleslavsky": 2967,
      "Olexandr": 2968,
      "2339": 2969,
      "2336": 2970,
      "Anton": 2971,
      "Gabriel": 2972,
      "24126": 2973,
      "358": 2974,
      "Dani": 2975,
      "Thomas": 2976,
      "Kelly": 2977,
      "Yer": 2978,
      "2050": 2979,
      "ater": 2980,
      "2444": 2981,
      "Alexe": 2982,
      "opoulos": 2983,
      "248": 2984,
      "alta": 2985,
      "Yia": 2986,
      "2370": 2987,
      "2386": 2988,
      "2448": 2989,
      "2176": 2990,
      "ass": 2991,
      "EUR": 2992,
      "Mil": 2993,
      "Minsk": 2994,
      "Pop": 2995,
      "1454": 2996,
      "Swidnica": 2997,
      "Smir": 2998,
      "Seb": 2999,
      "ho": 3000,
      "2191": 3001,
      "Egor": 3002,
      "Vil": 3003,
      "nyvale": 3004,
      "2332": 3005,
      "2562": 3006,
      "eda": 3007,
      "Der": 3008,
      "2317": 3009,
      "2144": 3010,
      "ayan": 3011,
      "Ash": 3012,
      "Ed": 3013,
      "ĠRauzer": 3014,
      "097": 3015,
      "ĠWin": 3016,
      "ester": 3017,
      "iang": 3018,
      "Marco": 3019,
      "Charlot": 3020,
      "Charlotte": 3021,
      "Aug": 3022,
      "Ġmodern": 3023,
      "ton": 3024,
      "2326": 3025,
      "074": 3026,
      "anovic": 3027,
      "uston": 3028,
      "2588": 3029,
      "oross": 3030,
      "ĠLand": 3031,
      "iysk": 3032,
      "Small": 3033,
      "Novoross": 3034,
      "ffer": 3035,
      "Novorossiysk": 3036,
      "Fre": 3037,
      "OV": 3038,
      "ĠRdxd": 3039,
      "ĠLouis": 3040,
      "ĠNord": 3041,
      "ini": 3042,
      "ĠTech": 3043,
      "Grigor": 3044,
      "Tobias": 3045,
      "168": 3046,
      "ĠPri": 3047,
      "572": 3048,
      "2558": 3049,
      "1918": 3050,
      "1999": 3051,
      "ĠAnd": 3052,
      "1780": 3053,
      "odor": 3054,
      "anova": 3055,
      "jev": 3056,
      "2241": 3057,
      "257": 3058,
      "Christ": 3059,
      "lova": 3060,
      "Alexand": 3061,
      "2246": 3062,
      "084": 3063,
      "249": 3064,
      "1468": 3065,
      "453": 3066,
      "Yan": 3067,
      "New": 3068,
      "2236": 3069,
      "shedpur": 3070,
      "Jamshedpur": 3071,
      "Sent": 3072,
      "zan": 3073,
      "2395": 3074,
      "2193": 3075,
      "1370": 3076,
      "ĠPawn": 3077,
      "Bach": 3078,
      "ansa": 3079,
      "577": 3080,
      "Szansa": 3081,
      "reyer": 3082,
      "Vin": 3083,
      "2320": 3084,
      "2471": 3085,
      "2563": 3086,
      "agonov": 3087,
      "681": 3088,
      "Makagonov": 3089,
      "Sal": 3090,
      "eg": 3091,
      "ĠPAR": 3092,
      "Ju": 3093,
      "Roz": 3094,
      "ĠNov": 3095,
      "2364": 3096,
      "2017": 3097,
      "2137": 3098,
      "ĠMin": 3099,
      "Bort": 3100,
      "Ol": 3101,
      "gosz": 3102,
      "kra": 3103,
      "1113": 3104,
      "ĠMartin": 3105,
      "Pranav": 3106,
      "Hay": 3107,
      "IV": 3108,
      "Kis": 3109,
      "Yar": 3110,
      "nski": 3111,
      "itta": 3112,
      "hai": 3113,
      "Za": 3114,
      "1127": 3115,
      "Mark": 3116,
      "ydgosz": 3117,
      "Mieses": 3118,
      "ydgoszcz": 3119,
      "Sub": 3120,
      "239": 3121,
      "2385": 3122,
      "2212": 3123,
      "ĠIs": 3124,
      "2478": 3125,
      "217": 3126,
      "1418": 3127,
      "2140": 3128,
      "undes": 3129,
      "Harsh": 3130,
      "Romania": 3131,
      "141208": 3132,
      "Bortnyk": 3133,
      "ona": 3134,
      "Ġ116": 3135,
      "2184": 3136,
      "ourt": 3137,
      "556": 3138,
      "Respubl": 3139,
      "2407": 3140,
      "2464": 3141,
      "455": 3142,
      "ĠFer": 3143,
      "1240": 3144,
      "Maxim": 3145,
      "Respublika": 3146,
      "547": 3147,
      "ĠĠ": 3148,
      "ates": 3149,
      "2133": 3150,
      "elis": 3151,
      "owice": 3152,
      "Smirnov": 3153,
      "2429": 3154,
      "Oli": 3155,
      "dar": 3156,
      "2072": 3157,
      "2267": 3158,
      "2626": 3159,
      "lava": 3160,
      "William": 3161,
      "Mit": 3162,
      "Mus": 3163,
      "2442": 3164,
      "2483": 3165,
      "2234": 3166,
      "Finland": 3167,
      "Fab": 3168,
      "ves": 3169,
      "ushta": 3170,
      "Mol": 3171,
      "Nic": 3172,
      "057": 3173,
      "ĠDEN": 3174,
      "undesliga": 3175,
      "2397": 3176,
      "2405": 3177,
      "ĠJimenez": 3178,
      "955": 3179,
      "13306": 3180,
      "Joa": 3181,
      "Sat": 3182,
      "2319": 3183,
      "2384": 3184,
      "Hen": 3185,
      "Yalta": 3186,
      "4166": 3187,
      "idis": 3188,
      "ign": 3189,
      "2155": 3190,
      "Yialos": 3191,
      "Bastr": 3192,
      "Niteroi": 3193,
      "ĠNiteroi": 3194,
      "2313": 3195,
      "2380": 3196,
      "2467": 3197,
      "1160": 3198,
      "1470": 3199,
      "ĠAn": 3200,
      "Alf": 3201,
      "Aluston": 3202,
      "Alushta": 3203,
      "III": 3204,
      "Bastrikov": 3205,
      "AUT": 3206,
      "ci": 3207,
      "enov": 3208,
      "2175": 3209,
      "059": 3210,
      "uri": 3211,
      "Shu": 3212,
      "sson": 3213,
      "2338": 3214,
      "2507": 3215,
      "Denis": 3216,
      "2086": 3217,
      "095": 3218,
      "amar": 3219,
      "ĠSlovakia": 3220,
      "2640": 3221,
      "13800": 3222,
      "Shuva": 3223,
      "122": 3224,
      "Tur": 3225,
      "2495": 3226,
      "ĠGonzalez": 3227,
      "088": 3228,
      "1516": 3229,
      "isi": 3230,
      "Valer": 3231,
      "issa": 3232,
      "Gro": 3233,
      "2328": 3234,
      "2243": 3235,
      "1199": 3236,
      "2150": 3237,
      "Manuk": 3238,
      "Austria": 3239,
      "Alekse": 3240,
      "ĠKra": 3241,
      "2430": 3242,
      "ĠEs": 3243,
      "176": 3244,
      "Ow": 3245,
      "kovic": 3246,
      "pel": 3247,
      "2538": 3248,
      "assky": 3249,
      "anda": 3250,
      "Bat": 3251,
      "503": 3252,
      "2052": 3253,
      "2167": 3254,
      "iso": 3255,
      "Sank": 3256,
      "Aaron": 3257,
      "Aginc": 3258,
      "Sunnyvale": 3259,
      "Agincourt": 3260,
      "FS": 3261,
      "Fer": 3262,
      "ĠKUL": 3263,
      "4148": 3264,
      "avyan": 3265,
      "Paravyan": 3266,
      "4194985": 3267,
      "Dud": 3268,
      "Gra": 3269,
      "2604": 3270,
      "2235": 3271,
      "Viernheim": 3272,
      "gu": 3273,
      "ĠRfxf": 3274,
      "2618": 3275,
      "ĠAm": 3276,
      "berto": 3277,
      "Jar": 3278,
      "Lasker": 3279,
      "met": 3280,
      "2480": 3281,
      "574": 3282,
      "Mamed": 3283,
      "2412": 3284,
      "2476": 3285,
      "2122": 3286,
      "ĠSo": 3287,
      "464": 3288,
      "Bas": 3289,
      "Hernandez": 3290,
      "ond": 3291,
      "085": 3292,
      "2485": 3293,
      "188": 3294,
      "2753": 3295,
      "ĠPaulsen": 3296,
      "2117": 3297,
      "ĠSlovak": 3298,
      "565": 3299,
      "Skalica": 3300,
      "bella": 3301,
      "EO": 3302,
      "ios": 3303,
      "jun": 3304,
      "2382": 3305,
      "Ġshakhmat": 3306,
      "Ham": 3307,
      "Kras": 3308,
      "net": 3309,
      "ric": 3310,
      "art": 3311,
      "107": 3312,
      "Rcd": 3313,
      "2100": 3314,
      "1280": 3315,
      "IY": 3316,
      "Jac": 3317,
      "2059": 3318,
      "2598": 3319,
      "ĠLAT": 3320,
      "Vol": 3321,
      "aga": 3322,
      "Samuel": 3323,
      "Ek": 3324,
      "343": 3325,
      "tislava": 3326,
      "di": 3327,
      "ring": 3328,
      "2249": 3329,
      "075": 3330,
      "2589": 3331,
      "ĠGP": 3332,
      "Bogdan": 3333,
      "tierrez": 3334,
      "sive": 3335,
      "Ġdefensive": 3336,
      "406": 3337,
      "2180": 3338,
      "Citta": 3339,
      "2043": 3340,
      "2081": 3341,
      "2244": 3342,
      "2297": 3343,
      "2172": 3344,
      "uro": 3345,
      "8497": 3346,
      "Flo": 3347,
      "2373": 3348,
      "Luis": 3349,
      "2177": 3350,
      "2567": 3351,
      "2611": 3352,
      "457": 3353,
      "063": 3354,
      "2154": 3355,
      "Fed": 3356,
      "jic": 3357,
      "ĠBI": 3358,
      "thur": 3359,
      "edo": 3360,
      "Daniil": 3361,
      "Daw": 3362,
      "Yu": 3363,
      "2359": 3364,
      "2074": 3365,
      "ilim": 3366,
      "bergo": 3367,
      "uwe": 3368,
      "ilimbergo": 3369,
      "CRO": 3370,
      "2009": 3371,
      "ist": 3372,
      "ĠPol": 3373,
      "ĠPrague": 3374,
      "ĠSantander": 3375,
      "Jonas": 3376,
      "Velez": 3377,
      "czyk": 3378,
      "101": 3379,
      "2428": 3380,
      "Mo": 3381,
      "2388": 3382,
      "2007": 3383,
      "2087": 3384,
      "kow": 3385,
      "Marbella": 3386,
      "Rus": 3387,
      "Vasi": 3388,
      "2323": 3389,
      "2366": 3390,
      "2254": 3391,
      "iana": 3392,
      "4197": 3393,
      "Paris": 3394,
      "Gav": 3395,
      "2381": 3396,
      "2022": 3397,
      "247": 3398,
      "yslav": 3399,
      "enburg": 3400,
      "2310": 3401,
      "2128": 3402,
      "erd": 3403,
      "Vladyslav": 3404,
      "Zak": 3405,
      "Blue": 3406,
      "444": 3407,
      "rique": 3408,
      "Michael": 3409,
      "Bluebaum": 3410,
      "2531": 3411,
      "ĠSha": 3412,
      "ĠX": 3413,
      "ĠNunez": 3414,
      "2318": 3415,
      "2434": 3416,
      "2153": 3417,
      "czak": 3418,
      "Kamsky": 3419,
      "Bratislava": 3420,
      "igalko": 3421,
      "2000024": 3422,
      "Has": 3423,
      "ĠEuwe": 3424,
      "3795": 3425,
      "umin": 3426,
      "CI": 3427,
      "Ur": 3428,
      "ĠRexe": 3429,
      "2433": 3430,
      "ĠCruz": 3431,
      "580": 3432,
      "Sarana": 3433,
      "24133795": 3434,
      "kiewicz": 3435,
      "onch": 3436,
      "2248": 3437,
      "2129": 3438,
      "2112": 3439,
      "icka": 3440,
      "3427": 3441,
      "Sebastian": 3442,
      "Kav": 3443,
      "Lag": 3444,
      "dero": 3445,
      "13303": 3446,
      "Pas": 3447,
      "2281": 3448,
      "Aron": 3449,
      "barra": 3450,
      "Haj": 3451,
      "Igor": 3452,
      "2374": 3453,
      "Ġ118": 3454,
      "eller": 3455,
      "Bro": 3456,
      "JC": 3457,
      "ges": 3458,
      "sev": 3459,
      "wal": 3460,
      "2369": 3461,
      "2005": 3462,
      "4120": 3463,
      "197": 3464,
      "2182": 3465,
      "Rhe": 3466,
      "maz": 3467,
      "ners": 3468,
      "630": 3469,
      "mid": 3470,
      "ott": 3471,
      "2138": 3472,
      "ĠSz": 3473,
      "1331": 3474,
      "odn": 3475,
      "Sah": 3476,
      "Georg": 3477,
      "Du": 3478,
      "LA": 3479,
      "Ras": 3480,
      "2540": 3481,
      "560": 3482,
      "ec": 3483,
      "2008": 3484,
      "2053": 3485,
      "2085": 3486,
      "2247": 3487,
      "three": 3488,
      "iyeva": 3489,
      "Oscar": 3490,
      "agreb": 3491,
      "688": 3492,
      "ĠFall": 3493,
      "Novik": 3494,
      "13404148": 3495,
      "Hajiyev": 3496,
      "Gold": 3497,
      "ty": 3498,
      "lech": 3499,
      "2178": 3500,
      "Chern": 3501,
      "ĠVilla": 3502,
      "Herman": 3503,
      "Simon": 3504,
      "BM": 3505,
      "MA": 3506,
      "Nil": 3507,
      "2115": 3508,
      "2134": 3509,
      "1627": 3510,
      "2239": 3511,
      "Kazakh": 3512,
      "Pon": 3513,
      "yi": 3514,
      "see": 3515,
      "Franco": 3516,
      "24651516": 3517,
      "ien": 3518,
      "jina": 3519,
      "kad": 3520,
      "2056": 3521,
      "zewski": 3522,
      "Mikhail": 3523,
      "ET": 3524,
      "2341": 3525,
      "207": 3526,
      "2011": 3527,
      "Ġ117": 3528,
      "135029": 3529,
      "370": 3530,
      "443": 3531,
      "Zhigalko": 3532,
      "Keres": 3533,
      "13502956": 3534,
      "2352": 3535,
      "2032": 3536,
      "2501": 3537,
      "2694": 3538,
      "2205": 3539,
      "ĠGe": 3540,
      "eshnikov": 3541,
      "Sveshnikov": 3542,
      "Manaus": 3543,
      "hua": 3544,
      "Ġ119": 3545,
      "163": 3546,
      "ĠManaus": 3547,
      "sym": 3548,
      "Maksym": 3549,
      "2404": 3550,
      "2173": 3551,
      "Ly": 3552,
      "Veli": 3553,
      "hl": 3554,
      "2432": 3555,
      "hao": 3556,
      "141005": 3557,
      "Final": 3558,
      "KARA": 3559,
      "Katowice": 3560,
      "Jav": 3561,
      "Pal": 3562,
      "arl": 3563,
      "Pet": 3564,
      "au": 3565,
      "2582": 3566,
      "1971": 3567,
      "ĠMi": 3568,
      "PER": 3569,
      "Ġfour": 3570,
      "ĠLarsen": 3571,
      "927": 3572,
      "Un": 3573,
      "236": 3574,
      "dem": 3575,
      "140": 3576,
      "ĠCIT": 3577,
      "uncion": 3578,
      "Asuncion": 3579,
      "508": 3580,
      "Lad": 3581,
      "Melik": 3582,
      "To": 3583,
      "Villa": 3584,
      "2347": 3585,
      "2171": 3586,
      "980": 3587,
      "Ngf": 3588,
      "ĠARG": 3589,
      "ĠPrix": 3590,
      "CE": 3591,
      "Kur": 3592,
      "Ġ\"]": 3593,
      "2293": 3594,
      "4147": 3595,
      "ĠEl": 3596,
      "1750": 3597,
      "2230": 3598,
      "ĠAntonio": 3599,
      "Nce": 3600,
      "inj": 3601,
      "156": 3602,
      "1904": 3603,
      "Joshua": 3604,
      "Teg": 3605,
      "Austrian": 3606,
      "ĠLosinj": 3607,
      "Don": 3608,
      "IBM": 3609,
      "lem": 3610,
      "ĠOIBM": 3611,
      "ston": 3612,
      "iego": 3613,
      "ernsee": 3614,
      "Tegernsee": 3615,
      "1922": 3616,
      "ĠSpassky": 3617,
      "AM": 3618,
      "ĠSil": 3619,
      "Mas": 3620,
      "ĠBasta": 3621,
      "ela": 3622,
      "Bajina": 3623,
      "1124": 3624,
      "2518": 3625,
      "1944": 3626,
      "IND": 3627,
      "Ajka": 3628,
      "2290": 3629,
      "2258": 3630,
      "677": 3631,
      "141016": 3632,
      "Sou": 3633,
      "bo": 3634,
      "exe": 3635,
      "Vic": 3636,
      "rik": 3637,
      "enas": 3638,
      "2335": 3639,
      "aryan": 3640,
      "ĠSouza": 3641,
      "umi": 3642,
      "isoara": 3643,
      "409": 3644,
      "Gi": 3645,
      "Iv": 3646,
      "2351": 3647,
      "2446": 3648,
      "Rep": 3649,
      "Danila": 3650,
      "Matth": 3651,
      "ĠVelez": 3652,
      "ĠNATO": 3653,
      "orre": 3654,
      "ubov": 3655,
      "ĠSchach": 3656,
      "ues": 3657,
      "2015": 3658,
      "ĠRgc": 3659,
      "468": 3660,
      "eta": 3661,
      "ukov": 3662,
      "Pot": 3663,
      "243": 3664,
      "ĠSa": 3665,
      "iddin": 3666,
      "uzman": 3667,
      "Cent": 3668,
      "2028": 3669,
      "2051": 3670,
      "inski": 3671,
      "ante": 3672,
      "ĠOli": 3673,
      "lya": 3674,
      "lyan": 3675,
      "1778": 3676,
      "2041": 3677,
      "2425": 3678,
      "Kalash": 3679,
      "aterina": 3680,
      "Fa": 3681,
      "Ost": 3682,
      "hen": 3683,
      "Ġ120": 3684,
      "olog": 3685,
      "ĠBIH": 3686,
      "Vara": 3687,
      "dro": 3688,
      "2311": 3689,
      "2071": 3690,
      "ĠZdro": 3691,
      "14120828": 3692,
      "Varadero": 3693,
      "ĠZdroj": 3694,
      "Av": 3695,
      "jo": 3696,
      "lam": 3697,
      "tov": 3698,
      "2579": 3699,
      "2189": 3700,
      "Rde": 3701,
      "Upp": 3702,
      "2629": 3703,
      "Schlech": 3704,
      "Kalashnikov": 3705,
      "rev": 3706,
      "2357": 3707,
      "onika": 3708,
      "2168": 3709,
      "olm": 3710,
      "4108": 3711,
      "Kim": 3712,
      "2221": 3713,
      "2136": 3714,
      "Nas": 3715,
      "Wag": 3716,
      "22245": 3717,
      "0983": 3718,
      "ĠVI": 3719,
      "14100983": 3720,
      "rintsev": 3721,
      "Golubev": 3722,
      "14100541": 3723,
      "Reprintsev": 3724,
      "2445": 3725,
      "2620": 3726,
      "486": 3727,
      "Arsen": 3728,
      "Luc": 3729,
      "2089": 3730,
      "ĠRcxc": 3731,
      "2263": 3732,
      "2130": 3733,
      "1923": 3734,
      "1903": 3735,
      "1859": 3736,
      "kowski": 3737,
      "ĠShah": 3738,
      "Ġexchange": 3739,
      "arev": 3740,
      "2204": 3741,
      "ohumin": 3742,
      "SE": 3743,
      "ĠRami": 3744,
      "2131": 3745,
      "asa": 3746,
      "3098": 3747,
      "riv": 3748,
      "Leonardo": 3749,
      "ĠRamirez": 3750,
      "AK": 3751,
      "Diaz": 3752,
      "Flores": 3753,
      "Mac": 3754,
      "vares": 3755,
      "ene": 3756,
      "2031": 3757,
      "ĠRbg": 3758,
      "1185": 3759,
      "1967": 3760,
      "1380": 3761,
      "elj": 3762,
      "awa": 3763,
      "Ahmad": 3764,
      "jug": 3765,
      "2272": 3766,
      "2378": 3767,
      "ouc": 3768,
      "2162": 3769,
      "2586": 3770,
      "1390": 3771,
      "raliga": 3772,
      "AY": 3773,
      "Dry": 3774,
      "ĠIS": 3775,
      "2488": 3776,
      "2124": 3777,
      "1969": 3778,
      "3804": 3779,
      "676": 3780,
      "Sta": 3781,
      "2156": 3782,
      "Vila": 3783,
      "Wroclaw": 3784,
      "2029": 3785,
      "2076": 3786,
      "089": 3787,
      "114": 3788,
      "2521": 3789,
      "1853": 3790,
      "3500": 3791,
      "Paracin": 3792,
      "ĠParacin": 3793,
      "uana": 3794,
      "ĠRexd": 3795,
      "2406": 3796,
      "387": 3797,
      "3601": 3798,
      "2101": 3799,
      "Szy": 3800,
      "2331": 3801,
      "1017": 3802,
      "2473": 3803,
      "usa": 3804,
      "4404": 3805,
      "galov": 3806,
      "Drygalov": 3807,
      "3601234": 3808,
      "960": 3809,
      "GB": 3810,
      "rich": 3811,
      "lak": 3812,
      "689": 3813,
      "Korol": 3814,
      "Brasov": 3815,
      "Hvar": 3816,
      "ĠBrasov": 3817,
      "itida": 3818,
      "2262": 3819,
      "090": 3820,
      "ĠGomez": 3821,
      "576": 3822,
      "ukin": 3823,
      "kinitida": 3824,
      "Kerkinitida": 3825,
      "lomouc": 3826,
      "14108003": 3827,
      "Yevpat": 3828,
      "Yevpatoria": 3829,
      "Dun": 3830,
      "ban": 3831,
      "2350": 3832,
      "2474": 3833,
      "1534": 3834,
      "2123": 3835,
      "3503": 3836,
      "TT": 3837,
      "Timo": 3838,
      "nan": 3839,
      "2286": 3840,
      "ork": 3841,
      "2617": 3842,
      "ray": 3843,
      "Alejandro": 3844,
      "hammad": 3845,
      "ĠBarbera": 3846,
      "Domingo": 3847,
      "2437": 3848,
      "ille": 3849,
      "1945": 3850,
      "agen": 3851,
      "ays": 3852,
      "Barbera": 3853,
      "ĠValles": 3854,
      "Ekaterina": 3855,
      "430": 3856,
      "Hong": 3857,
      "itges": 3858,
      "ami": 3859,
      "2529": 3860,
      "2552": 3861,
      "13515": 3862,
      "Dar": 3863,
      "Nag": 3864,
      "Vo": 3865,
      "hr": 3866,
      "lek": 3867,
      "ĠGruenfeld": 3868,
      "Sof": 3869,
      "Viach": 3870,
      "Ġclosed": 3871,
      "2033": 3872,
      "ateur": 3873,
      "2607": 3874,
      "1415": 3875,
      "evening": 3876,
      "ĠValley": 3877,
      "ĠAmateur": 3878,
      "eveningen": 3879,
      "Ken": 3880,
      "2398": 3881,
      "2392": 3882,
      "2259": 3883,
      "1950": 3884,
      "Caruana": 3885,
      "ando": 3886,
      "randa": 3887,
      "Sarin": 3888,
      "letsky": 3889,
      "25092340": 3890,
      "Nihal": 3891,
      "2020009": 3892,
      "MCR": 3893,
      "2526": 3894,
      "1816": 3895,
      "3400": 3896,
      "John": 3897,
      "1006": 3898,
      "ilar": 3899,
      "44105": 3900,
      "Mamedov": 3901,
      "2096": 3902,
      "1005": 3903,
      "Sai": 3904,
      "uenster": 3905,
      "Vlass": 3906,
      "Wang": 3907,
      "Xu": 3908,
      "1995": 3909,
      "3360": 3910,
      "owa": 3911,
      "ryak": 3912,
      "4103360": 3913,
      "Vlassov": 3914,
      "Kush": 3915,
      "anu": 3916,
      "elli": 3917,
      "4657": 3918,
      "Mohammad": 3919,
      "alo": 3920,
      "ef": 3921,
      "gger": 3922,
      "ens": 3923,
      "224": 3924,
      "1373": 3925,
      "iman": 3926,
      "973": 3927,
      "Robert": 3928,
      "Valent": 3929,
      "Guzman": 3930,
      "Kxa": 3931,
      "iia": 3932,
      "oly": 3933,
      "itya": 3934,
      "2460": 3935,
      "2839": 3936,
      "1925": 3937,
      "00145": 3938,
      "ĠMoham": 3939,
      "378": 3940,
      "Hoff": 3941,
      "ĠWinners": 3942,
      "Valery": 3943,
      "919": 3944,
      "Afan": 3945,
      "Kac": 3946,
      "Tri": 3947,
      "2282": 3948,
      "670": 3949,
      "AP": 3950,
      "Pri": 3951,
      "2396": 3952,
      "ĠIR": 3953,
      "2472": 3954,
      "aksh": 3955,
      "2202": 3956,
      "Arjun": 3957,
      "obal": 3958,
      "iec": 3959,
      "2159": 3960,
      "ĠMarti": 3961,
      "ros": 3962,
      "enkov": 3963,
      "2387": 3964,
      "1930": 3965,
      "961": 3966,
      "7514": 3967,
      "2152": 3968,
      "Karol": 3969,
      "Pearl": 3970,
      "Dob": 3971,
      "Lj": 3972,
      "Yus": 3973,
      "ĠRgh": 3974,
      "2449": 3975,
      "ĠFIN": 3976,
      "Makarian": 3977,
      "Rudik": 3978,
      "oltz": 3979,
      "Schlechter": 3980,
      "44105681": 3981,
      "4657101": 3982,
      "603": 3983,
      "Tra": 3984,
      "158": 3985,
      "2513": 3986,
      "2786": 3987,
      "ĠMesto": 3988,
      "Raj": 3989,
      "agli": 3990,
      "Goth": 3991,
      "uf": 3992,
      "2095": 3993,
      "2542": 3994,
      "2559": 3995,
      "3409": 3996,
      "2001780": 3997,
      "Krish": 3998,
      "Gothenburg": 3999,
      "exa": 4000,
      "ĠRbxb": 4001,
      "2835": 4002,
      "alli": 4003,
      "395": 4004,
      "7400": 4005,
      "Matinian": 4006,
      "yslov": 4007,
      "24129100": 4008,
      "ggerated": 4009,
      "exaggerated": 4010,
      "Ġ121": 4011,
      "284": 4012,
      "ĠArad": 4013,
      "user": 4014,
      "etman": 4015,
      "Ism": 4016,
      "Vincent": 4017,
      "ider": 4018,
      "2342": 4019,
      "12967": 4020,
      "Janas": 4021,
      "ĠHotel": 4022,
      "Freder": 4023,
      "Victor": 4024,
      "len": 4025,
      "2633": 4026,
      "Stoltz": 4027,
      "Nguyen": 4028,
      "IYE": 4029,
      "926": 4030,
      "Bern": 4031,
      "Eduardo": 4032,
      "Isa": 4033,
      "2377": 4034,
      "Ġand": 4035,
      "ĠRaxa": 4036,
      "2603": 4037,
      "1460": 4038,
      "11707": 4039,
      "Augustin": 4040,
      "Ibarra": 4041,
      "UK": 4042,
      "2020": 4043,
      "Evan": 4044,
      "arez": 4045,
      "isha": 4046,
      "Ġpawns": 4047,
      "24161918": 4048,
      "Bilan": 4049,
      "Sem": 4050,
      "2436": 4051,
      "2484": 4052,
      "2190": 4053,
      "ĠNhg": 4054,
      "369": 4055,
      "Stare": 4056,
      "7429": 4057,
      "odrigo": 4058,
      "uenca": 4059,
      "uchava": 4060,
      "Gir": 4061,
      "Pak": 4062,
      "230": 4063,
      "2084": 4064,
      "ĠNdxc": 4065,
      "1979": 4066,
      "9002": 4067,
      "temov": 4068,
      "4119002": 4069,
      "UBU": 4070,
      "Rustemov": 4071,
      "Cor": 4072,
      "encia": 4073,
      "2048": 4074,
      "2169": 4075,
      "Chiga": 4076,
      "4611": 4077,
      "687": 4078,
      "1299": 4079,
      "4108116": 4080,
      "Chigaev": 4081,
      "SLO": 4082,
      "1588": 4083,
      "11175": 4084,
      "ĠPann": 4085,
      "4521": 4086,
      "angel": 4087,
      "887": 4088,
      "2157": 4089,
      "illar": 4090,
      "Sarg": 4091,
      "bekov": 4092,
      "1119206": 4093,
      "byl": 4094,
      "ĠKULUBU": 4095
    },
    "merges": [
      "Ġ \"",
      "\" ]",
      "Ġ R",
      "Ġ N",
      "Ġ B",
      "Ġ 1",
      "Ġ 2",
      "Ġ Q",
      "Ġ K",
      "Ġ 3",
      "t e",
      "Ġ 4",
      "i te",
      "a c",
      "x d",
      "e n",
      "ac k",
      "B l",
      "h ite",
      "W hite",
      "Bl ack",
      "Ġ d",
      "Ġ e",
      "Ġ 5",
      "Ġ c",
      "x e",
      "2 3",
      "ĠN f",
      "x c",
      "2 0",
      "x f",
      "Ġ a",
      "Ġ g",
      "ĠN c",
      "Ġ h",
      "Ġ b",
      "a te",
      "d e",
      "i t",
      "Ġ f",
      "l o",
      "l e",
      "Ġ 6",
      "en t",
      "E v",
      "Ev ent",
      "F i",
      "20 23",
      "D ate",
      "I d",
      "de Id",
      "Fi deId",
      "E lo",
      "Ġ O",
      "T it",
      "Tit le",
      "ĠB e",
      "a r",
      "e s",
      "i n",
      "ĠK f",
      "x b",
      "ĠN d",
      "ĠR e",
      "ĠN e",
      "ĠB d",
      "i a",
      "ĠR a",
      "x g",
      "ĠK g",
      "ĠR c",
      "ĠR d",
      "Ġ 7",
      "ĠB g",
      "ĠR f",
      "ĠQ d",
      "ĠK e",
      "n d",
      "Ġ2 0",
      "ĠQ e",
      "p en",
      "Ġ 8",
      "ĠR b",
      "ĠQ c",
      "o n",
      "ĠB f",
      "ĠB b",
      "in g",
      "u l",
      "o u",
      "pen ing",
      "t i",
      "ĠN b",
      "ĠK h",
      "Ġ1 0",
      "ĠB c",
      "Ġ1 1",
      "x a",
      "Ġ1 2",
      "ĠK d",
      "1 0",
      "ul t",
      "R es",
      "C O",
      "R ou",
      "S ite",
      "Event Date",
      "Res ult",
      "Rou nd",
      "White FideId",
      "Black FideId",
      "E CO",
      "O pening",
      "White Elo",
      "Black Elo",
      "Ġ1 3",
      "Ġ1 7",
      "Ġ1 8",
      "ar ia",
      "Ġ1 9",
      "Ġ1 4",
      "c h",
      "ti on",
      "aria tion",
      "Ġ 9",
      "Ġ2 4",
      "Ġ1 6",
      "Ġ2 5",
      "Ġ2 3",
      "Ġ2 6",
      "ĠQ f",
      "ĠQ b",
      "Ġ2 1",
      "Ġ2 7",
      "a n",
      "Ġ2 9",
      "ĠN g",
      "x h",
      "Ġ3 0",
      "Ġ3 1",
      "2 2",
      "Ġc xd",
      "0 8",
      "Ġ2 2",
      "ĠN xd",
      "White Title",
      "Ġ1 5",
      "Ġ3 2",
      "Black Title",
      "ĠR h",
      "ĠR g",
      "ĠK c",
      "Ġ3 3",
      "u e",
      "Ġ I",
      "0 7",
      "ĠN xe",
      "V ariation",
      "Ġ3 6",
      "Ġ2 8",
      "o m",
      "Ġ3 7",
      "ĠQ g",
      "0 9",
      "2 4",
      "1 5",
      "ĠR xd",
      "Ġ3 8",
      "es s",
      "Ġ3 5",
      "a m",
      "ĠQ xd",
      "Ġ3 4",
      "Ġ T",
      "Ġ3 9",
      "Ġe xd",
      "ĠB xf",
      "t h",
      "ĠK b",
      "ĠQ a",
      "F M",
      "ch ess",
      "ĠB xd",
      "c om",
      "ĠI N",
      "ĠB xc",
      "ĠIN T",
      "Ġ4 0",
      "ĠB xe",
      "2 1",
      "ĠR xe",
      "Title d",
      "ĠT ue",
      "ĠR xc",
      "Ġ4 2",
      "ia n",
      "Ġ4 3",
      "ĠQ h",
      "1 1",
      "Ġ4 4",
      "e r",
      "G M",
      "2 5",
      "Ġd xe",
      "i c",
      "Ġb xc",
      "Ġ4 5",
      "o v",
      "ĠQ xe",
      "ĠB a",
      "ĠB h",
      "ĠN xc",
      "Ġ4 1",
      "Ġa xb",
      "ĠN a",
      "Ġ20 23",
      "4 1",
      "2 8",
      "o r",
      "Ġ4 6",
      "Ġ S",
      "ĠR xf",
      "ĠN h",
      "ĠNb d",
      "Ġ 0",
      "I M",
      "Ġh xg",
      "Ġ E",
      "Ġd xc",
      "2 6",
      "Ġ L",
      "ĠR xa",
      "i l",
      "Ġf xe",
      "ĠQ xc",
      "1 9",
      "Ġ4 9",
      "Ġ v",
      "ĠQ xf",
      "ĠR xb",
      "Ġv ariation",
      "1 3",
      "Ġ4 8",
      "Ġ5 0",
      "Ġg xf",
      "ĠN xf",
      "l y",
      "a s",
      "1 4",
      "a l",
      "Ġ4 7",
      "Ġ5 1",
      "2 9",
      "Ġ A",
      "1 8",
      "Ġe xf",
      "Ġ5 2",
      "1 6",
      "3 4",
      "1 7",
      "i s",
      "ar ly",
      "ĠE arly",
      "e am",
      "0 0",
      "ĠQ xb",
      "ĠB xg",
      "ĠRa d",
      "T eam",
      "c e",
      "' s",
      "Ġ5 3",
      "Ġ5 5",
      "3 5",
      "ĠB xb",
      "e l",
      "Ġ5 6",
      "0 5",
      "i m",
      "0 4",
      "2 7",
      "il ian",
      "ic ilian",
      "S icilian",
      "Ġ5 7",
      "ĠK a",
      "ĠL ate",
      "Ġd e",
      "Ġ5 4",
      "ĠRf d",
      "ĠR xg",
      "o s",
      "ĠR ac",
      "Ġ5 8",
      "Ġ P",
      "ĠR xh",
      "0 3",
      "C h",
      "l a",
      "Ġ M",
      "Ġf xg",
      "ĠN xb",
      "Ġde f",
      "C M",
      "Ġdef en",
      "ĠQ xa",
      "ĠK xg",
      "R e",
      "ĠQ xg",
      "t t",
      "ĠRf e",
      "Ġ5 9",
      "u g",
      "4 0",
      "Ġdefen ce",
      "ĠO pen",
      "ĠK xf",
      "r a",
      "1 2",
      "s k",
      "Ġ (",
      "4 7",
      "ĠN xg",
      "Ġc xb",
      "0 1",
      "4 5",
      "ĠB xa",
      "a k",
      "Ġ J",
      "0 6",
      "Ġ6 2",
      "p e",
      "s t",
      "ĠA ug",
      "Ġ6 1",
      "Ġ G",
      "a t",
      "e v",
      "4 6",
      "Ġ6 0",
      "Ġg xh",
      "Ġ6 3",
      "e d",
      "tt ack",
      "o l",
      "i k",
      "B e",
      ". .",
      "Ġa ttack",
      "ĠB xh",
      "ĠQ xh",
      "R a",
      "i d",
      "Ġ6 4",
      "nd ian",
      "N e",
      "c t",
      "a w",
      "ĠO ct",
      "3 1",
      "Ġb xa",
      "Ġ C",
      "e p",
      "6 0",
      "4 8",
      "White Team",
      "Black Team",
      "Ġ6 5",
      "3 0",
      "Q ue",
      "r e",
      "is h",
      "Que en",
      "N f",
      "i g",
      "Ġ o",
      "ĠS ep",
      "N c",
      "u r",
      "ĠJ ul",
      "a d",
      "Ġg am",
      "ĠN xa",
      "ĠRa e",
      "Ġ p",
      "ĠK xe",
      "3 8",
      "ĠNg e",
      "3 9",
      "ĠK xd",
      "B d",
      "i ch",
      "i r",
      "Ġo pening",
      "Ġ6 6",
      "0 2",
      "a g",
      "ĠRf c",
      "aw n",
      "5 4",
      "n g",
      "ĠRa b",
      "5 0",
      "ĠI ndian",
      "K f",
      "Ġ6 8",
      "u b",
      "Ġp awn",
      "u s",
      "6 7",
      "R f",
      "R d",
      "e m",
      "ĠK xh",
      "N d",
      "3 7",
      "Ġ6 9",
      "U S",
      "R c",
      "te r",
      "K g",
      "Ġ6 7",
      ") \"]",
      "9 0",
      "Q G",
      "an n",
      "ĠN xh",
      "a v",
      "de r",
      "Ġ7 0",
      "5 3",
      "6 8",
      "Q d",
      "F r",
      "K ing",
      "im z",
      "3 3",
      "K e",
      "C ar",
      "QG D",
      "5 7",
      "e t",
      "u n",
      "4 4",
      "K h",
      "T y",
      "Ġ7 1",
      "E ng",
      "N imz",
      "Q c",
      "6 6",
      "l ish",
      "N b",
      "c o",
      "s y",
      "Ġgam e",
      "9 9",
      "Q e",
      "sk y",
      "R b",
      "Eng lish",
      "t s",
      "an g",
      "Event Ty",
      "EventTy pe",
      "3 6",
      "O L",
      "8 8",
      "ĠNf d",
      "Ġ W",
      "B g",
      ".. .",
      "a b",
      "s te",
      "Ġ7 2",
      "l in",
      "5 6",
      "B f",
      "4 2",
      "Re ti",
      "la v",
      "k o",
      "9 8",
      "B b",
      "Ġ D",
      "9 7",
      "ĠK xc",
      "en ch",
      "Car o",
      "K ann",
      "Fr ench",
      "lo s",
      "M ar",
      "T Ch",
      "2 20",
      "21 8",
      "ov ich",
      "2 10",
      "6 5",
      "A r",
      "a y",
      "p id",
      "E R",
      "e z",
      "S t",
      "ĠRa pid",
      "9 6",
      "s en",
      "Ġ7 5",
      "N a",
      "W FM",
      "Ġ7 4",
      "5 8",
      "7 7",
      "S h",
      "Ġ7 3",
      "r o",
      "B c",
      "l d",
      "K d",
      "R u",
      "l i",
      "it z",
      "7 8",
      "Nimz ovich",
      "Ġ H",
      "ĠNg f",
      "u k",
      "ĠRe d",
      "9 5",
      "l as",
      "Ġ7 6",
      "o b",
      "lo v",
      "A n",
      "7 0",
      "9 4",
      "ĠK xb",
      "N g",
      "N xd",
      "Q f",
      "ĠR US",
      "sk i",
      "v an",
      "Q b",
      "7 3",
      "o d",
      "7 6",
      "5 5",
      "ic al",
      "Ġ7 7",
      "3 09",
      "r d",
      "r i",
      "4 3",
      "ĠP OL",
      "o pe",
      "7 9",
      "Ch ess",
      "S P",
      "A le",
      "Ġ sy",
      "ste m",
      "Ġsy stem",
      "8 6",
      "a nd",
      "6 1",
      "R h",
      "ope z",
      "z e",
      "ar d",
      "S o",
      "ĠRh e",
      "R xd",
      "3 2",
      "s h",
      "or ld",
      "in a",
      "it h",
      "an ov",
      "N xe",
      "6 3",
      "u m",
      "Ġ7 8",
      "Ġ V",
      "R g",
      "d or",
      "h ang",
      "ĠRc d",
      "7 4",
      "Ġ k",
      "8 0",
      "an t",
      "Ġ F",
      "los ed",
      "ĠL opez",
      "Q xd",
      "c xd",
      "b it",
      "i e",
      "8 4",
      "6 4",
      "8 5",
      "o w",
      "u p",
      "9 3",
      "xc hang",
      "xchang e",
      "5 1",
      "n ig",
      "i v",
      "B xf",
      "dor f",
      "te am",
      "ov a",
      "nig h",
      "K c",
      "B xc",
      "e xd",
      "c losed",
      "5 9",
      "Ġk nigh",
      "Ġknigh ts",
      "1 41",
      "Ru y",
      "A l",
      "7 1",
      "ac h",
      "ĠL e",
      "ĠNc e",
      "i el",
      "der n",
      "ĠR de",
      "r u",
      "B xd",
      "7 2",
      "o p",
      "h a",
      "m an",
      "W IM",
      "e xchange",
      "9 1",
      "z a",
      "ĠK xa",
      "2 23",
      "er n",
      "Ġ7 9",
      "o dern",
      "et r",
      "e k",
      "R xe",
      "7 5",
      "4 9",
      "a p",
      "u t",
      "Ġ U",
      "ĠM em",
      "U R",
      "L e",
      "las s",
      "ĠG ER",
      "5 2",
      "B xe",
      "is s",
      "Q g",
      "2 15",
      "Ġ8 1",
      "1 29",
      "im o",
      "R xc",
      "Ġgam bit",
      "ter s",
      "ĠE SP",
      "o z",
      "B a",
      "T ar",
      "Ġ8 0",
      "M a",
      "14 10",
      "8 7",
      "I ndian",
      "Q a",
      "as t",
      "Ġ8 2",
      "en ko",
      "lass ical",
      ". \"]",
      "w ith",
      "o g",
      "6 9",
      "8 3",
      "an a",
      "8 9",
      "Nb d",
      "van ce",
      "u d",
      "n a",
      "i y",
      "ag ue",
      "r as",
      "9 2",
      "6 2",
      "R A",
      "Ġ8 3",
      "ĠB l",
      "b er",
      "R os",
      "k a",
      "B ar",
      "Na j",
      "le r",
      "o t",
      "at al",
      "Naj dorf",
      "ĠRh d",
      "k h",
      "ĠLe ague",
      "ch e",
      "ĠBl itz",
      "N xc",
      "8 1",
      "ĠRf b",
      "K b",
      "d xe",
      "y an",
      "m a",
      "b xc",
      "3 41",
      "ar a",
      "i or",
      "1 25",
      "C atal",
      "Ġ8 4",
      "B h",
      "Catal an",
      "D an",
      "R B",
      "ĠRd d",
      "Q xe",
      "A nd",
      "Q h",
      "ad vance",
      "a xb",
      "ĠM as",
      "8 2",
      "ou r",
      "Z E",
      "ĠRa f",
      "ur g",
      "S a",
      "i z",
      "z y",
      "tt o",
      "R xf",
      "T A",
      "ĠNd f",
      "Ġ Y",
      "ĠRd c",
      "ĠRe c",
      "m odern",
      "ian che",
      "ianche tto",
      "c lassical",
      "f el",
      "Ġ Chess",
      "lin e",
      "ĠRb c",
      "h xg",
      "ak h",
      "es t",
      "Ġ ...",
      "s ch",
      "v a",
      "fel d",
      "Ġ8 5",
      "d xc",
      "R xa",
      "Q xc",
      "ĠRh g",
      "on i",
      "13 3",
      "R ob",
      "Q xf",
      "n ik",
      "A T",
      "ĠM ar",
      "Ġ line",
      "R xb",
      "r y",
      "ĠRe e",
      "b urg",
      "f xe",
      "o h",
      "ov ic",
      "Ros s",
      "1 10",
      "t a",
      "ol imo",
      "Ross olimo",
      "W GM",
      "ch i",
      "t in",
      "Ġc h",
      "K a",
      "p ov",
      "i on",
      "i er",
      "ĠRb d",
      "W orld",
      "N h",
      "ĠRc c",
      "N xf",
      "C an",
      "ĠN de",
      "Nimz o",
      "24 17",
      "S ch",
      "ĠS lav",
      "ĠS RB",
      "u z",
      "i u",
      "D e",
      "D E",
      "r es",
      "r is",
      "ĠW orld",
      "S w",
      "3 20",
      "g xf",
      "Ġ8 6",
      "S K",
      "And re",
      "ĠT eam",
      "c a",
      "u st",
      "ĠRh f",
      "Ġ8 7",
      "Ġ8 8",
      "w o",
      "in d",
      "K S",
      "A s",
      "S te",
      "ĠC up",
      "ĠNb c",
      "w iss",
      "ig a",
      "Ra d",
      "as h",
      "s on",
      "s e",
      "ĠRc e",
      "in e",
      "Ġ8 9",
      "13 7",
      "13 5",
      "B en",
      "ig or",
      "ĠI TA",
      "F I",
      "c ia",
      "P etr",
      "35 0",
      "z h",
      "le s",
      "e xf",
      "4 15",
      "W CM",
      "ou t",
      "g a",
      "T a",
      "k ol",
      "Q xb",
      "ar sen",
      "en feld",
      "al l",
      "Ġ Z",
      "10 0",
      "ra nd",
      "V i",
      "14 11",
      "M or",
      "ĠNd b",
      "em i",
      "U N",
      "de z",
      "B xg",
      "e ters",
      "Ġ9 0",
      "ic a",
      "FI DE",
      "with out",
      "ru enfeld",
      "or t",
      "om en",
      "p in",
      "ras ch",
      "Tar rasch",
      "4 10",
      "1 28",
      "24 10",
      "ar s",
      "So chi",
      "E D",
      "P OL",
      "ĠC ZE",
      "h e",
      "R US",
      "ĠRd f",
      "1 24",
      "O R",
      "b ia",
      "ĠNe d",
      "A N",
      "at sch",
      "ĠP eters",
      "ĠPeters burg",
      "US A",
      "M at",
      "ra d",
      "Rob atsch",
      "n e",
      "ac ce",
      "ste in",
      "o c",
      "20 0",
      "m m",
      "K or",
      "la nd",
      "ra g",
      "ĠT UR",
      "S c",
      "N ik",
      "J os",
      "ĠS pe",
      "ĠSpe ed",
      "S m",
      "ĠNc d",
      "B er",
      "k e",
      "Ġ9 1",
      "Mar tin",
      "n y",
      "t o",
      "al a",
      "etr ical",
      "mm etrical",
      "B xb",
      "o co",
      "h am",
      "kol sky",
      "el g",
      "G iu",
      "L arsen",
      "Giu oco",
      "ĠRa a",
      "k ov",
      "ĠP ian",
      "ĠSpeed Chess",
      "R E",
      "R O",
      "ou n",
      "ish op",
      "M i",
      "P ar",
      "b a",
      "ĠNf e",
      "im anov",
      "m er",
      "G ruenfeld",
      "s a",
      "y a",
      "Ale xa",
      "ĠA l",
      "Dan iel",
      "ue z",
      "J an",
      "n er",
      "L u",
      "Ġ -",
      "in itz",
      "a h",
      "G ar",
      "A la",
      "M ak",
      "i us",
      "il l",
      "ĠMas ters",
      "Ġ w",
      "E N",
      "d a",
      "Ġc oun",
      "D en",
      "ev a",
      "ut ch",
      "So kolsky",
      "R ac",
      "R xg",
      "Ch igor",
      "Chigor in",
      "T r",
      "ub in",
      "r on",
      "ĠW omen",
      "la y",
      "ĠJ un",
      "A d",
      "in av",
      "te l",
      "on g",
      "14 5",
      "ic e",
      "ern an",
      "i o",
      "Rf d",
      "N ov",
      "S er",
      "ma in",
      "P r",
      "A b",
      "Ġ9 2",
      "ĠN ED",
      "S ar",
      "sy mmetrical",
      "ris t",
      "Ġ USA",
      "Ala pin",
      "and inav",
      "Sc andinav",
      "Scandinav ian",
      "R om",
      "j a",
      "t ch",
      "h ov",
      "ernan dez",
      "I n",
      "S e",
      "A R",
      "ĠRd g",
      "ĠRf f",
      "1 20",
      "c en",
      "ubin stein",
      "Ta imanov",
      "f f",
      "Ġb ishop",
      "ĠRb b",
      "R xh",
      "il a",
      "ast r",
      "f ianchetto",
      "ĠRb e",
      "Ġ9 4",
      "B elg",
      "ĠNh f",
      "ĠJun ior",
      "An der",
      "Q xg",
      "l an",
      "ĠRh c",
      "Ġcoun ter",
      "Ġ9 3",
      "Can al",
      "11 6",
      "14 6",
      "os co",
      "osco w",
      "P a",
      "o k",
      "ra de",
      "or a",
      "ber g",
      "Ne o",
      "Ġ9 5",
      "r ig",
      "ĠS en",
      "S lav",
      "D utch",
      "es h",
      "Ġ main",
      "P ir",
      "an o",
      "24 13",
      "sk a",
      "K ar",
      "T UR",
      "L I",
      "ĠSen ior",
      "f xg",
      "e y",
      "Q xa",
      "Ġ Ch",
      "13 40",
      "i b",
      "K xg",
      "N xb",
      "u ra",
      "P er",
      "S co",
      "ĠR O",
      "Ġf ianchetto",
      "5 10",
      "9 00",
      "K R",
      "24 6",
      "la d",
      "i ev",
      "E r",
      "us s",
      "T h",
      "i p",
      "od rig",
      "Sco tch",
      "or d",
      "ate d",
      "Fr an",
      "Belg rade",
      "ĠNe c",
      "le t",
      "ĠU KR",
      "Rf e",
      "4 41",
      "H ar",
      "M ik",
      "Ġ9 6",
      "B og",
      "m p",
      "ou th",
      "K r",
      "pov cen",
      "povcen sky",
      "ĠNb xd",
      "ĠS te",
      "U I",
      "ĠO povcensky",
      "ĠRO U",
      "or g",
      "c z",
      "te m",
      "Ander s",
      "n t",
      "ar y",
      "ol d",
      "B r",
      "ĠD iv",
      "or ia",
      "U T",
      "ic k",
      "Pir c",
      "10 5",
      "s emi",
      "K xf",
      "N xg",
      "en d",
      "W ars",
      "a j",
      "A m",
      "Wars aw",
      "V K",
      "Ġ GM",
      "ĠRe f",
      "us h",
      "E SP",
      "n o",
      "v in",
      "v er",
      "ard o",
      "00 0",
      "h an",
      "4 11",
      "k in",
      "K an",
      "i ra",
      "c za",
      "Anders sen",
      "el ik",
      "11 3",
      "ue l",
      "M e",
      "t ak",
      "ĠRe b",
      "13 4",
      "re m",
      "ĠT Ch",
      "Ġ9 7",
      "i es",
      "ĠS wiss",
      "os lav",
      "B o",
      "ay a",
      "y n",
      "t wo",
      "os it",
      "u an",
      "Petr ov",
      "c xb",
      "Ġp osit",
      "Ġposit ion",
      "B ud",
      "S k",
      "id or",
      "kh ine",
      "P e",
      "c lin",
      "Ġde clin",
      "Ġdeclin ed",
      "24 5",
      "o pen",
      "46 6",
      "L a",
      "M odern",
      "S am",
      "00 3",
      "ia s",
      "ic z",
      "le z",
      "41 7",
      "ĠH UN",
      "aria n",
      "S z",
      "V lad",
      "L o",
      "D av",
      "J ul",
      "ĠA r",
      "ow er",
      "T or",
      "B xa",
      "Bar cza",
      "L O",
      "ar es",
      "M ich",
      "S p",
      "m ann",
      "Ġposition al",
      "39 0",
      "ĠS ch",
      "I van",
      "13 6",
      "20 8",
      "ar ov",
      "ĠP lay",
      "g or",
      "ow ski",
      "h il",
      "k s",
      "b ek",
      "a de",
      "45 0",
      "er s",
      "F our",
      "J ak",
      "tak ower",
      "A g",
      "G er",
      "ler ated",
      "acce lerated",
      "Tar takower",
      "Ġ9 8",
      "Rom an",
      "I I",
      "u en",
      "23 40",
      "V a",
      "ir o",
      "ul a",
      "P ol",
      "S an",
      "lov ak",
      "D m",
      "I N",
      "As ian",
      "ĠRf a",
      "Ġ semi",
      "g xh",
      "ĠM oscow",
      "u ng",
      "ĠIN D",
      "B enko",
      "Z h",
      "ĠN ac",
      "im a",
      "d u",
      "Q xh",
      "ĠI M",
      "ap est",
      "up er",
      "Jos e",
      "ĠRc b",
      "Ġ without",
      "R ich",
      "s wiss",
      "Ber lin",
      "Ġ +",
      "ĠS VK",
      "23 7",
      "ze ch",
      "ch enko",
      "Ġd el",
      "I S",
      "38 0",
      "A S",
      "el dorf",
      "de s",
      "ts ev",
      "Tr om",
      "ia d",
      "11 7",
      "en na",
      "O s",
      "uz er",
      "Ġ9 9",
      "14 20",
      "Ru th",
      "ĠNd c",
      "Ale khine",
      "Den iz",
      "18 0",
      "1 15",
      "pov sky",
      "Trom povsky",
      "odrig uez",
      "p ar",
      "L in",
      "le v",
      "in sk",
      "Dm it",
      "o lo",
      "ĠV e",
      "m ad",
      "Bud apest",
      "K ir",
      "B xh",
      "ĠNe f",
      "ĠY outh",
      "D uss",
      "W in",
      "it a",
      "Duss eldorf",
      "23 02",
      "l s",
      "An t",
      "ĠRa g",
      "Ġ10 0",
      "Ġ10 1",
      "5 05",
      "rag on",
      "ĠRd b",
      "k i",
      "b xa",
      "B ak",
      "O ld",
      "b ar",
      "ou g",
      "ĠTeam s",
      "1 26",
      "D ub",
      "ĠS ant",
      "41 9",
      "C as",
      "j e",
      "on te",
      "om as",
      "z o",
      "23 08",
      "41 4",
      "Deniz li",
      "c ent",
      "y s",
      "10 6",
      "ĠNd xe",
      "14 9",
      "G r",
      "K am",
      "astr ze",
      "ĠB u",
      "m e",
      "il la",
      "Martin ez",
      "G u",
      "I s",
      "24 16",
      "ik a",
      "Ar tem",
      "Dav id",
      "V al",
      "T e",
      "q u",
      "Ġ10 2",
      "24 18",
      "P hil",
      "24 19",
      "S u",
      "ĠPian o",
      "N C",
      "er t",
      "L ima",
      "4 45",
      "20 6",
      "T wo",
      "U KS",
      "um mer",
      "F ernandez",
      "K D",
      "24 11",
      "ev ic",
      "o j",
      "23 03",
      "J astrze",
      "ĠG ar",
      "ĠG ora",
      "Jastrze bia",
      "en a",
      "ĠNc xe",
      "220 8",
      "f an",
      "22 28",
      "ĠP OR",
      "14 8",
      "ĠS ummer",
      "Ng e",
      "J o",
      "at a",
      "Ben oni",
      "w ski",
      "ue r",
      "r ian",
      "ĠG RE",
      "24 26",
      "A Z",
      "ug a",
      "V an",
      "b ad",
      "ĠI nt",
      "41 8",
      "el l",
      "re z",
      "E ind",
      "hov en",
      "Eind hoven",
      "26 0",
      "Kor ch",
      "e ly",
      "ĠS p",
      "Vi enna",
      "M an",
      "S ant",
      "g o",
      "Pa ul",
      "am p",
      "os h",
      "ug oslav",
      "ik ov",
      "d ragon",
      "Ste initz",
      "q ue",
      "ĠS uper",
      "iss imo",
      "aw er",
      "ab i",
      "A I",
      "as i",
      "nd r",
      "ĠRg f",
      "ĠS UI",
      "ĠPian issimo",
      "22 6",
      "er r",
      "4 20",
      "h al",
      "Ġ10 3",
      "ĠS AT",
      "RA NC",
      "ĠSAT RANC",
      "at ar",
      "Le on",
      "ly mp",
      "ot vin",
      "otvin nik",
      "L ev",
      "is ch",
      "Rich ter",
      "ĠO lymp",
      "ĠOlymp iad",
      "ic o",
      "it y",
      "13 8",
      "ĠGar cia",
      "R ubinstein",
      "K xe",
      "ĠA UT",
      "ski y",
      "n i",
      "p h",
      "24 21",
      "1 27",
      "Ra e",
      "Win awer",
      "A st",
      "03 6",
      "ĠD h",
      "oc zy",
      "y r",
      "Jul ius",
      "ĠRc f",
      "A li",
      "nik ov",
      "Ġ with",
      "29 0",
      "03 0",
      "22 26",
      "on ov",
      "m ar",
      "ĠDh abi",
      "K on",
      "St r",
      "ĠSte initz",
      "e in",
      "p p",
      "ĠMas on",
      "ĠM E",
      "D ur",
      "ĠE N",
      "ĠNe g",
      "N xa",
      "ĠB en",
      "or oz",
      "ĠMem oria",
      "ĠMemoria l",
      "er ez",
      "ĠY ugoslav",
      "or th",
      "iy a",
      "5 20",
      "lo res",
      "Ma x",
      "O r",
      "e b",
      "ĠB o",
      "22 7",
      "la w",
      "22 84",
      "Ġo pen",
      "ĠEN G",
      "G ol",
      "15 3",
      "ĠP ER",
      "ĠBa er",
      "13 0",
      "K xd",
      "11 9",
      "l ub",
      "22 56",
      "5 00",
      "te d",
      "e w",
      "de l",
      "Fi n",
      "ar i",
      "Ra b",
      "Tor re",
      "I l",
      "t or",
      "K re",
      "24 09",
      "ub ice",
      "ard ubice",
      "K A",
      "v ar",
      "Ast ana",
      "J a",
      "25 0",
      "n der",
      "03 7",
      "w icz",
      "im ir",
      "ĠC RO",
      "ĠC zech",
      "le y",
      "25 00",
      "I T",
      "22 15",
      "ĠM KD",
      "28 8",
      "17 3",
      "00 5",
      "E L",
      "G a",
      "p ted",
      "Ġ acce",
      "id a",
      "Ġacce pted",
      "k er",
      "ĠRe a",
      "25 09",
      "ĠNf xd",
      "ĠC H",
      "D zh",
      "23 90",
      "ĠV al",
      "J on",
      "P ardubice",
      "E s",
      "r ov",
      "ar b",
      "os t",
      "22 53",
      "25 6",
      "ro i",
      "O M",
      "d am",
      "Ch ar",
      "am bit",
      "24 65",
      "uk h",
      "oh am",
      "22 78",
      "Lin ares",
      "b e",
      "Ġ10 4",
      "26 19",
      "er a",
      "ĠG rand",
      "23 4",
      "23 04",
      "C es",
      "lovak ia",
      "ĠF RA",
      "Ġ CO",
      "V l",
      "ort oroz",
      "ĠB RA",
      "ĠME X",
      "22 16",
      "ik h",
      "19 2",
      "Fran c",
      "QG A",
      "04 7",
      "N I",
      "in o",
      "ub ga",
      "Dzh ubga",
      "m ed",
      "j ovic",
      "m at",
      "ĠRg e",
      "14 3",
      "ĠA ZE",
      "im en",
      "Bak u",
      "B ul",
      "i j",
      "KS z",
      "iv a",
      "du ardo",
      "r ia",
      "in ov",
      "ĠS LO",
      "E l",
      "od o",
      "4 40",
      "23 07",
      "20 9",
      "210 3",
      "am es",
      "25 8",
      "7 10",
      "C C",
      "K ev",
      "13 60",
      "ĠCH N",
      "i lov",
      "H a",
      "R am",
      "Ser bia",
      "A ust",
      "11 19",
      "ĠA L",
      "ĠMar oczy",
      "u ch",
      "1 23",
      "O le",
      "G e",
      "v e",
      "R o",
      "K o",
      "26 06",
      "M os",
      "46 5",
      "M al",
      "D oug",
      "ĠP rem",
      "ĠPrem ier",
      "H UN",
      "ch uk",
      "05 5",
      "22 27",
      "ite roi",
      "ĠNg xe",
      "Gar cia",
      "d y",
      "23 00",
      "22 9",
      "Doug las",
      "Jak ub",
      "W E",
      "z ak",
      "ĠNc b",
      "22 76",
      "u y",
      "ĠCO L",
      "4 90",
      "r am",
      "Ġb ind",
      "B or",
      "r al",
      "ĠR ubinstein",
      "odo x",
      "13 30",
      "ro c",
      "Phil idor",
      "Bog o",
      "S v",
      "ub l",
      "G al",
      "5 41",
      "Rf c",
      "24 15",
      "Alexa nder",
      "k ar",
      "il i",
      "O z",
      "ant in",
      "Vlad imir",
      "cent re",
      "B ur",
      "an i",
      "ĠI OM",
      "th an",
      "ze k",
      "B iel",
      "H ung",
      "K os",
      "g ar",
      "g ambit",
      "20 47",
      "Ġ10 5",
      "de jovic",
      "ĠBu dejovic",
      "Ces ke",
      "ĠBudejovic e",
      "H o",
      "ti s",
      "Ġ10 6",
      "10 8",
      "imen ez",
      "39 9",
      "21 63",
      "no i",
      "K er",
      "M am",
      "D a",
      "ĠP a",
      "Kre feld",
      "R iga",
      "t al",
      "14 7",
      "el i",
      "D em",
      "23 68",
      "19 0",
      "V e",
      "Ġ10 7",
      "o is",
      "22 87",
      "34 6",
      "st an",
      "sh all",
      "5 45",
      "22 18",
      "T s",
      "23 60",
      "27 8",
      "Mich al",
      "D o",
      "ub en",
      "ab ri",
      "er o",
      "218 5",
      "b el",
      "M ir",
      "23 99",
      "22 13",
      "22 25",
      "ac ie",
      "ru z",
      "u w",
      "st antin",
      "K xh",
      "22 66",
      "Str uga",
      "22 51",
      "13 9",
      "22 88",
      "Ra uzer",
      "elik an",
      "P elikan",
      "ol as",
      "id ze",
      "u a",
      "ĠS K",
      "J uan",
      "a el",
      "in t",
      "41 68",
      "00 47",
      "57 0",
      "220 3",
      "3 00",
      "E S",
      "23 93",
      "it o",
      "Ġ10 8",
      "21 99",
      "re y",
      "23 43",
      "LI K",
      "A h",
      "H er",
      "34 5",
      "10 00",
      "i et",
      "p er",
      "Ġc lassical",
      "210 8",
      "z i",
      "25 06",
      "ĠBen oni",
      "08 7",
      "29 9",
      "in ia",
      "25 05",
      "sk aya",
      "22 71",
      "4 47",
      "lo n",
      "ĠS t",
      "yr ne",
      "S im",
      "c u",
      "ana us",
      "N xh",
      "o la",
      "ĠRf xd",
      "M ag",
      "Korch noi",
      "ĠRg g",
      "ber a",
      "s o",
      "24 00",
      "he im",
      "ks and",
      "ap a",
      "orth odox",
      "U L",
      "a ia",
      "ĠC AN",
      "220 0",
      "22 22",
      "6 40",
      "A ng",
      "28 0",
      "34 10",
      "24 38",
      "ĠH an",
      "ĠRh h",
      "en g",
      "22 64",
      "os z",
      "f our",
      "ĠRb f",
      "15 0",
      "iv e",
      "te n",
      "20 16",
      "Sm ith",
      "ad o",
      "av a",
      "g er",
      "l iga",
      "r an",
      "U st",
      "g en",
      "C rist",
      "23 15",
      "22 77",
      "p ubl",
      "22 5",
      "ĠL a",
      "23 05",
      "24 47",
      "14 50",
      "A E",
      "am b",
      "ĠU AE",
      "T im",
      "o ch",
      "ia z",
      "G ER",
      "S il",
      "n ica",
      "L i",
      "41 6",
      "Ust ron",
      "B al",
      "ĠNf g",
      "y k",
      "ĠRd h",
      "ĠM en",
      "Mik ha",
      "d in",
      "22 61",
      "21 6",
      "ĠRh b",
      "21 3",
      "ĠP ar",
      "Kir ill",
      "on za",
      "S RB",
      "v i",
      "un a",
      "20 00",
      "Can ad",
      "P ap",
      "W e",
      "Ġ10 9",
      "96 4",
      "Ser g",
      "T an",
      "Ra g",
      "P i",
      "ul lin",
      "4 00",
      "Re d",
      "S emi",
      "ĠRa xd",
      "Kon stantin",
      "23 06",
      "218 3",
      "ĠK AZ",
      "215 1",
      "50 29",
      "Petr os",
      "A L",
      "ĠRa xc",
      "21 35",
      "04 0",
      "s im",
      "20 26",
      "st a",
      "M on",
      "S A",
      "20 77",
      "A ver",
      "em isch",
      "13 41",
      "L ab",
      "j an",
      "ĠRc a",
      "abri el",
      "ĠA b",
      "210 4",
      "P y",
      "ĠE CC",
      "Dur res",
      "ĠAL B",
      "23 83",
      "J oh",
      "S i",
      "23 33",
      "L ub",
      "ab insk",
      "oni o",
      "ely abinsk",
      "Ġ sh",
      "P at",
      "ĠB yrne",
      "22 50",
      "218 1",
      "man y",
      "22 42",
      "39 8",
      "D om",
      "H an",
      "ac in",
      "24 68",
      "ĠMas ter",
      "O N",
      "22 23",
      "ĠS WE",
      "ĠL os",
      "21 45",
      "ras ov",
      "ĠRg d",
      "210 7",
      "A k",
      "23 76",
      "21 94",
      "la t",
      "ev e",
      "zh ou",
      "N i",
      "S ard",
      "re b",
      "B ir",
      "Ar co",
      "ĠAr co",
      "oz in",
      "H ang",
      "21 13",
      "Sa emisch",
      "8 60",
      "Q u",
      "ĠA R",
      "ĠG EN",
      "ĠG ames",
      "Hang zhou",
      "c zy",
      "and ro",
      "lo m",
      "24 94",
      "An apa",
      "C LIK",
      "l it",
      "en z",
      "07 9",
      "ĠGEN CLIK",
      "23 62",
      "an ti",
      "21 70",
      "Nf d",
      "Franc is",
      "b akh",
      "22 79",
      "7 39",
      "r in",
      "ĠP erez",
      "23 09",
      "am er",
      "Fi li",
      "23 27",
      "48 0",
      "re e",
      "04 5",
      "G RE",
      "Q atar",
      "ĠQ AT",
      "Do ha",
      "Aver bakh",
      "20 34",
      "ar on",
      "Mor ra",
      "C al",
      "08 0",
      "P ula",
      "20 5",
      "35 06",
      "Sard inia",
      "Sant os",
      "22 83",
      "ĠA le",
      "Hung arian",
      "Mos k",
      "H e",
      "Py tel",
      "23 29",
      "23 91",
      "Ġ11 0",
      "ĠF lores",
      "m i",
      "23 54",
      "17 5",
      "Ale k",
      "ĠS an",
      "v ili",
      "22 73",
      "10 9",
      "22 52",
      "1410 8",
      "J ana",
      "P ortoroz",
      "h i",
      "223 3",
      "11 8",
      "23 46",
      "x ico",
      "26 09",
      "ĠC ity",
      "Sh K",
      "Me xico",
      "ar e",
      "in c",
      "10 4",
      "B ra",
      "O S",
      "lo na",
      "210 9",
      "33 2",
      "l sen",
      "23 45",
      "20 30",
      "R odriguez",
      "20 40",
      "n ov",
      "24 41",
      "ĠM a",
      "ĠG u",
      "c al",
      "t ur",
      "ĠB ar",
      "24 57",
      "e i",
      "ia m",
      "22 57",
      "26 41",
      "218 6",
      "U B",
      "M ate",
      "23 71",
      "22 89",
      "07 8",
      "F ag",
      "23 24",
      "Ru d",
      "onza lez",
      "P in",
      "P av",
      "21 60",
      "al ica",
      "27 0",
      "os a",
      "M u",
      "24 61",
      "04 8",
      "Francis co",
      "22 8",
      "22 99",
      "J as",
      "38 8",
      "Petros ian",
      "S ud",
      "23 22",
      "ti c",
      "ern es",
      "Fag ernes",
      "K ol",
      "W ies",
      "20 19",
      "24 96",
      "21 14",
      "96 9",
      "T he",
      "z in",
      "Dmit ry",
      "5 57",
      "I R",
      "r id",
      "ĠR odriguez",
      "ou s",
      "2417 17",
      "G o",
      "ĠB EL",
      "ĠRe g",
      "is z",
      "V u",
      "V as",
      "20 35",
      "nd on",
      "22 69",
      "Mak sim",
      "ĠG ir",
      "Sh ap",
      "K uz",
      "220 1",
      "Ger many",
      "Lub lin",
      "K oz",
      "or n",
      "bad en",
      "Wies baden",
      "22 17",
      "22 70",
      "22 55",
      "26 4",
      "ĠJunior s",
      "Kev in",
      "Bir d",
      "C o",
      "M er",
      "s ter",
      "ĠP o",
      "M en",
      "N ar",
      "04 9",
      "25 78",
      "ĠVe it",
      "par k",
      "Rag ozin",
      "22 92",
      "16 5",
      "T om",
      "24 66",
      "lo t",
      "25 72",
      "al d",
      "21 48",
      "ti l",
      "22 10",
      "25 23",
      "ay ev",
      "M aria",
      "21 10",
      "28 5",
      "3 10",
      "K el",
      "29 5",
      "c ar",
      "23 25",
      "ĠRf g",
      "Ad am",
      "24 58",
      "38 05",
      "P an",
      "21 39",
      "St an",
      "G h",
      "lov ac",
      "rand je",
      "ĠPa ul",
      "randje lovac",
      "V ar",
      "34 0",
      "ĠGir ls",
      "4 05",
      "K le",
      "ig al",
      "em ann",
      "los s",
      "Fili p",
      "e h",
      "sh ed",
      "223 1",
      "ĠE duardo",
      "Ale x",
      "E m",
      "26 3",
      "y ch",
      "ĠRb a",
      "25 03",
      "ĠA ut",
      "un ez",
      "ast ian",
      "d vance",
      "Ġa dvance",
      "A ra",
      "22 60",
      "ic ano",
      "ĠM acie",
      "ĠMacie i",
      "I K",
      "M oham",
      "T er",
      "Ġ11 1",
      "ĠSch loss",
      "ĠSchloss park",
      "os e",
      "A t",
      "S un",
      "20 200",
      "21 95",
      "ĠC lub",
      "akh mat",
      "A j",
      "20 73",
      "35 09",
      "ie wicz",
      "ba um",
      "ĠAl c",
      "P P",
      "Ġ11 2",
      "Lo ndon",
      "o a",
      "24 69",
      "17 0",
      "ĠRd a",
      "10 2",
      "an der",
      "Shap iro",
      "Ġ11 3",
      "te s",
      "14 4",
      "ĠC ar",
      "An na",
      "D im",
      "ĠB iel",
      "D j",
      "ou los",
      "24 56",
      "z d",
      "20 88",
      "ĠBe r",
      "Ma ia",
      "rag ue",
      "V er",
      "ĠL ag",
      "46 0",
      "Pr an",
      "5 09",
      "A y",
      "A rad",
      "22 40",
      "22 68",
      "24 23",
      "C ol",
      "u lov",
      "25 9",
      "20 75",
      "17 8",
      "39 6",
      "ĠKe res",
      "K xc",
      "os s",
      "ant ara",
      "ĠAlc antara",
      "4 26",
      "22 19",
      "24 20",
      "21 47",
      "b y",
      "m ak",
      "47 7",
      "L opez",
      "S ad",
      "d an",
      "22 95",
      "Y ev",
      "e le",
      "y d",
      "21 98",
      "i f",
      "Nik aia",
      "amer icano",
      "Sud americano",
      "5 07",
      "6 00",
      "z av",
      "ir ov",
      "G ul",
      "N ak",
      "n ev",
      "z ar",
      "124 01",
      "G or",
      "98 5",
      "C a",
      "ĠP al",
      "les lav",
      "Al b",
      "en ing",
      "Ra f",
      "220 6",
      "rd on",
      "23 44",
      "iy ev",
      "ĠMar e",
      "leslav sky",
      "R uben",
      "g ary",
      "en te",
      "08 6",
      "Canad ian",
      "Cal gary",
      "T ab",
      "ĠBe l",
      "er land",
      "ad a",
      "Mar c",
      "23 89",
      "25 3",
      "K ov",
      "o y",
      "20 91",
      "in ian",
      "Mar shall",
      "4 36",
      "m on",
      "ĠHan ham",
      "S av",
      "j evic",
      "21 18",
      "or e",
      "ĠV E",
      "am ura",
      "K ra",
      "ou rdon",
      "as ker",
      "na is",
      "Ben idor",
      "Per ez",
      "ourdon nais",
      "Benidor m",
      "om ez",
      "24 54",
      "05 0",
      "ĠD e",
      "Mosk va",
      "Ġ11 4",
      "24 0",
      "24 129",
      "Lab ourdonnais",
      "C A",
      "c ion",
      "26 93",
      "Alexa ndr",
      "Ġd a",
      "6 35",
      "23 75",
      "25 25",
      "25 47",
      "Ab d",
      "24 14",
      "B otvinnik",
      "97 0",
      "rov ed",
      "K ova",
      "d en",
      "k ara",
      "23 48",
      "al i",
      "B il",
      "24 40",
      "16 0",
      "135 04",
      "I mp",
      "e ch",
      "h ul",
      "re za",
      "ust in",
      "Kova lev",
      "Imp roved",
      "H i",
      "j andro",
      "p ur",
      "ent hal",
      "Ġdef err",
      "ab a",
      "Ġdeferr ed",
      "23 01",
      "Fi or",
      "22 96",
      "41 3",
      "Dim it",
      "U f",
      "a i",
      "ĠNe xd",
      "66 2",
      "AT O",
      "Bul let",
      "2016 192",
      "Nak amura",
      "Ma h",
      "T omas",
      "20 000",
      "22 11",
      "ak ov",
      "ol t",
      "M AN",
      "ab lan",
      "56 1",
      "org e",
      "ablan ca",
      "B ag",
      "22 20",
      "24 99",
      "Dmit ri",
      "Andre y",
      "3 60",
      "E n",
      "J e",
      "i de",
      "20 57",
      "10 3",
      "24 02",
      "220 9",
      "An kara",
      "4 25",
      "b las",
      "23 56",
      "20 3",
      "41 29",
      "Ġo blas",
      "22 74",
      "27 6",
      "Ġdefen se",
      "va le",
      "23 21",
      "24 27",
      "21 97",
      "34 9",
      "06 8",
      "23 8",
      "ĠL u",
      "Ang lo",
      "an y",
      "or m",
      "26 08",
      "220 7",
      "E f",
      "p at",
      "22 24",
      "218 7",
      "Nik ita",
      "Mi es",
      "Fior ito",
      "k ova",
      "14 00",
      "ĠM an",
      "4 27",
      "D i",
      "K al",
      "l u",
      "sy an",
      "ĠB otvinnik",
      "Pe ter",
      "r ou",
      "22 85",
      "27 29",
      "op a",
      "ou za",
      "21 43",
      "ik in",
      "Ab u",
      "Lo ew",
      "ĠAb u",
      "ia go",
      "Andre i",
      "ĠA dam",
      "D A",
      "22 80",
      "er k",
      "37 9",
      "215 8",
      "roc law",
      "Loew enthal",
      "G rand",
      "k y",
      "Paul sen",
      "J am",
      "q uez",
      "y ach",
      "id nica",
      "38 3",
      "Le ba",
      "ti er",
      "Ali reza",
      "K xb",
      "j in",
      "ĠRc g",
      "is lav",
      "uy en",
      "F e",
      "24 35",
      "21 88",
      "L uk",
      "c d",
      "ch ez",
      "24 82",
      "ĠAdam s",
      "K P",
      "21 74",
      "S lovakia",
      "T ob",
      "23 94",
      "3410 79",
      "23 34",
      "Ros en",
      "ou is",
      "24 75",
      "21 64",
      "Ale ksand",
      "ern heim",
      "E ast",
      "I nd",
      "X X",
      "20 18",
      "3 29",
      "20 99",
      "it sky",
      "21 96",
      "21 79",
      "25 66",
      "19 4",
      "34 8",
      "27 77",
      "ts ov",
      "P anov",
      "25 65",
      "16 7",
      "ĠCh elyabinsk",
      "Serg ey",
      "15 00",
      "ĠNa b",
      "Sa int",
      "K l",
      "L iu",
      "am ir",
      "41 28",
      "+ \"]",
      "C S",
      "M oscow",
      "in er",
      "21 46",
      "ce lona",
      "um ar",
      "141 10",
      "223 2",
      "Bar celona",
      "ĠN imz",
      "41 94",
      "ĠNimz ovich",
      "z er",
      "Ġ11 5",
      "22 65",
      "223 8",
      "Ka z",
      "Gol ub",
      "3805 662",
      "S van",
      "23 5",
      "Dom ing",
      "Svan e",
      "W ill",
      "z ja",
      "20 44",
      "Fi rou",
      "ĠRa h",
      "24 63",
      "125 739",
      "Firou zja",
      "125739 81",
      "K at",
      "S UI",
      "o kh",
      "ĠN OR",
      "23 16",
      "22 98",
      "88 14",
      "ĠH o",
      "est o",
      "Andre ikin",
      "Ste fan",
      "415 8814",
      "V ik",
      "a f",
      "25 20",
      "16 6",
      "03 8",
      "210 6",
      "4 29",
      "22 94",
      "ad ze",
      "Sh ar",
      "ek hov",
      "ekhov er",
      "K u",
      "i le",
      "23 58",
      "ĠNc xd",
      "22 14",
      "15 030",
      "Kr zy",
      "C R",
      "v al",
      "24 03",
      "Car lsen",
      "sky i",
      "ĠZ hul",
      "ny k",
      "ĠCh ekhover",
      "dy zd",
      "15030 14",
      "ĠZhul dyzd",
      "ĠZhuldyzd ary",
      "w a",
      "ian o",
      "ĠA nt",
      "W il",
      "14 40",
      "18 7",
      "Andre w",
      "Ole xa",
      "k ina",
      "ĠO p",
      "P o",
      "W ade",
      "a les",
      "id ov",
      "ĠNf xe",
      "20 39",
      "20 98",
      "ĠBo leslavsky",
      "Olexa ndr",
      "23 39",
      "23 36",
      "Ant on",
      "G abriel",
      "24 126",
      "35 8",
      "Dan i",
      "Th omas",
      "Kel ly",
      "Y er",
      "20 50",
      "ate r",
      "24 44",
      "Ale xe",
      "op oulos",
      "24 8",
      "al ta",
      "Y ia",
      "23 70",
      "23 86",
      "24 48",
      "21 76",
      "as s",
      "E UR",
      "M il",
      "M insk",
      "P op",
      "14 54",
      "Sw idnica",
      "Sm ir",
      "Se b",
      "h o",
      "21 91",
      "E gor",
      "V il",
      "ny vale",
      "23 32",
      "25 62",
      "ed a",
      "D er",
      "23 17",
      "21 44",
      "ay an",
      "A sh",
      "E d",
      "ĠRa uzer",
      "09 7",
      "ĠW in",
      "es ter",
      "ian g",
      "Mar co",
      "Char lot",
      "Charlot te",
      "A ug",
      "Ġ modern",
      "t on",
      "23 26",
      "07 4",
      "anov ic",
      "ust on",
      "25 88",
      "or oss",
      "ĠL and",
      "iy sk",
      "Sm all",
      "Nov oross",
      "ff er",
      "Novoross iysk",
      "F re",
      "O V",
      "ĠRd xd",
      "ĠL ouis",
      "ĠN ord",
      "in i",
      "ĠT ech",
      "Gr igor",
      "Tob ias",
      "16 8",
      "ĠP ri",
      "57 2",
      "25 58",
      "19 18",
      "19 99",
      "ĠA nd",
      "17 80",
      "od or",
      "anov a",
      "j ev",
      "22 41",
      "25 7",
      "Ch rist",
      "lov a",
      "Alexa nd",
      "22 46",
      "08 4",
      "24 9",
      "14 68",
      "45 3",
      "Y an",
      "Ne w",
      "223 6",
      "shed pur",
      "Jam shedpur",
      "S ent",
      "z an",
      "23 95",
      "21 93",
      "13 70",
      "ĠP awn",
      "B ach",
      "an sa",
      "57 7",
      "Sz ansa",
      "rey er",
      "V in",
      "23 20",
      "24 71",
      "25 63",
      "ag onov",
      "68 1",
      "Mak agonov",
      "S al",
      "e g",
      "ĠP AR",
      "J u",
      "R oz",
      "ĠN ov",
      "23 64",
      "20 17",
      "21 37",
      "ĠM in",
      "B ort",
      "O l",
      "g osz",
      "k ra",
      "11 13",
      "ĠMar tin",
      "Pran av",
      "H ay",
      "I V",
      "K is",
      "Y ar",
      "n ski",
      "it ta",
      "ha i",
      "Z a",
      "11 27",
      "Mar k",
      "yd gosz",
      "Mies es",
      "ydgosz cz",
      "S ub",
      "23 9",
      "23 85",
      "22 12",
      "ĠI s",
      "24 78",
      "21 7",
      "141 8",
      "21 40",
      "un des",
      "Har sh",
      "Roman ia",
      "141 208",
      "Bort nyk",
      "on a",
      "Ġ11 6",
      "218 4",
      "our t",
      "5 56",
      "Res publ",
      "24 07",
      "24 64",
      "45 5",
      "ĠF er",
      "124 0",
      "Max im",
      "Respubl ika",
      "5 47",
      "Ġ Ġ",
      "ate s",
      "21 33",
      "el is",
      "ow ice",
      "Smir nov",
      "24 29",
      "O li",
      "d ar",
      "20 72",
      "22 67",
      "26 26",
      "lav a",
      "Will iam",
      "M it",
      "M us",
      "24 42",
      "24 83",
      "223 4",
      "Fin land",
      "F ab",
      "v es",
      "ush ta",
      "M ol",
      "N ic",
      "05 7",
      "ĠD EN",
      "undes liga",
      "23 97",
      "24 05",
      "ĠJ imenez",
      "95 5",
      "133 06",
      "Jo a",
      "S at",
      "23 19",
      "23 84",
      "H en",
      "Y alta",
      "41 66",
      "id is",
      "ig n",
      "215 5",
      "Yia los",
      "B astr",
      "N iteroi",
      "ĠN iteroi",
      "23 13",
      "23 80",
      "24 67",
      "11 60",
      "14 70",
      "ĠA n",
      "Al f",
      "Al uston",
      "Al ushta",
      "II I",
      "Bastr ikov",
      "A UT",
      "c i",
      "en ov",
      "21 75",
      "05 9",
      "ur i",
      "Sh u",
      "s son",
      "23 38",
      "25 07",
      "Den is",
      "20 86",
      "09 5",
      "am ar",
      "ĠS lovakia",
      "26 40",
      "138 00",
      "Shu va",
      "1 22",
      "T ur",
      "24 95",
      "ĠG onzalez",
      "08 8",
      "15 16",
      "is i",
      "Va ler",
      "iss a",
      "G ro",
      "23 28",
      "22 43",
      "11 99",
      "215 0",
      "Man uk",
      "Aust ria",
      "Alek se",
      "ĠK ra",
      "24 30",
      "ĠE s",
      "17 6",
      "O w",
      "k ovic",
      "p el",
      "25 38",
      "as sky",
      "and a",
      "B at",
      "5 03",
      "20 52",
      "21 67",
      "is o",
      "San k",
      "A aron",
      "Ag inc",
      "Sun nyvale",
      "Aginc ourt",
      "F S",
      "F er",
      "ĠK UL",
      "41 48",
      "av yan",
      "Par avyan",
      "4194 985",
      "D ud",
      "G ra",
      "26 04",
      "223 5",
      "Vi ernheim",
      "g u",
      "ĠRf xf",
      "26 18",
      "ĠA m",
      "ber to",
      "J ar",
      "L asker",
      "m et",
      "24 80",
      "57 4",
      "Mam ed",
      "24 12",
      "24 76",
      "21 22",
      "ĠS o",
      "46 4",
      "B as",
      "H ernandez",
      "o nd",
      "08 5",
      "24 85",
      "18 8",
      "27 53",
      "ĠPaul sen",
      "21 17",
      "ĠS lovak",
      "56 5",
      "Sk alica",
      "bel la",
      "E O",
      "i os",
      "j un",
      "23 82",
      "Ġsh akhmat",
      "H am",
      "K ras",
      "n et",
      "r ic",
      "ar t",
      "10 7",
      "Rc d",
      "210 0",
      "128 0",
      "I Y",
      "J ac",
      "20 59",
      "25 98",
      "ĠL AT",
      "V ol",
      "ag a",
      "Sam uel",
      "E k",
      "34 3",
      "tis lava",
      "d i",
      "r ing",
      "22 49",
      "07 5",
      "25 89",
      "ĠG P",
      "Bog dan",
      "tier rez",
      "s ive",
      "Ġdefen sive",
      "40 6",
      "218 0",
      "C itta",
      "20 43",
      "20 81",
      "22 44",
      "22 97",
      "21 72",
      "ur o",
      "84 97",
      "F lo",
      "23 73",
      "Lu is",
      "21 77",
      "25 67",
      "26 11",
      "45 7",
      "06 3",
      "215 4",
      "F ed",
      "j ic",
      "ĠB I",
      "th ur",
      "ed o",
      "Dani il",
      "D aw",
      "Y u",
      "23 59",
      "20 74",
      "il im",
      "berg o",
      "uw e",
      "ilim bergo",
      "C RO",
      "20 09",
      "is t",
      "ĠP ol",
      "ĠP rague",
      "ĠSant ander",
      "Jon as",
      "Ve lez",
      "czy k",
      "10 1",
      "24 28",
      "M o",
      "23 88",
      "20 07",
      "20 87",
      "ko w",
      "Mar bella",
      "R us",
      "V asi",
      "23 23",
      "23 66",
      "22 54",
      "ian a",
      "41 97",
      "Par is",
      "G av",
      "23 81",
      "20 22",
      "24 7",
      "ys lav",
      "en burg",
      "23 10",
      "21 28",
      "er d",
      "Vlad yslav",
      "Z ak",
      "Bl ue",
      "44 4",
      "ri que",
      "Mich ael",
      "Blue baum",
      "25 31",
      "ĠS ha",
      "Ġ X",
      "ĠN unez",
      "23 18",
      "24 34",
      "215 3",
      "cz ak",
      "Kam sky",
      "Bra tislava",
      "igal ko",
      "20000 24",
      "H as",
      "ĠE uwe",
      "37 95",
      "um in",
      "C I",
      "U r",
      "ĠRe xe",
      "24 33",
      "ĠC ruz",
      "58 0",
      "Sar ana",
      "2413 3795",
      "k iewicz",
      "on ch",
      "22 48",
      "21 29",
      "21 12",
      "ic ka",
      "34 27",
      "Seb astian",
      "K av",
      "L ag",
      "der o",
      "133 03",
      "P as",
      "22 81",
      "Ar on",
      "bar ra",
      "H aj",
      "I gor",
      "23 74",
      "Ġ11 8",
      "el ler",
      "B ro",
      "J C",
      "g es",
      "s ev",
      "w al",
      "23 69",
      "20 05",
      "41 20",
      "19 7",
      "218 2",
      "Rh e",
      "ma z",
      "ner s",
      "6 30",
      "m id",
      "o tt",
      "21 38",
      "ĠS z",
      "13 31",
      "od n",
      "Sa h",
      "Ge org",
      "D u",
      "L A",
      "R as",
      "25 40",
      "5 60",
      "e c",
      "20 08",
      "20 53",
      "20 85",
      "22 47",
      "th ree",
      "iy eva",
      "Os car",
      "ag reb",
      "68 8",
      "ĠF all",
      "Nov ik",
      "1340 4148",
      "Haj iyev",
      "G old",
      "t y",
      "le ch",
      "21 78",
      "Ch ern",
      "ĠV illa",
      "Her man",
      "Sim on",
      "B M",
      "M A",
      "N il",
      "21 15",
      "21 34",
      "16 27",
      "223 9",
      "Kaz akh",
      "P on",
      "y i",
      "se e",
      "Fran co",
      "2465 1516",
      "i en",
      "j ina",
      "k ad",
      "20 56",
      "ze wski",
      "Mikha il",
      "E T",
      "23 41",
      "20 7",
      "20 11",
      "Ġ11 7",
      "13 5029",
      "37 0",
      "44 3",
      "Zh igalko",
      "Ker es",
      "135029 56",
      "23 52",
      "20 32",
      "25 01",
      "26 94",
      "220 5",
      "ĠG e",
      "esh nikov",
      "Sv eshnikov",
      "M anaus",
      "h ua",
      "Ġ11 9",
      "16 3",
      "ĠM anaus",
      "sy m",
      "Mak sym",
      "24 04",
      "21 73",
      "L y",
      "V eli",
      "h l",
      "24 32",
      "ha o",
      "1410 05",
      "Fin al",
      "KA RA",
      "Kat owice",
      "J av",
      "P al",
      "ar l",
      "P et",
      "a u",
      "25 82",
      "19 71",
      "ĠM i",
      "P ER",
      "Ġf our",
      "ĠL arsen",
      "9 27",
      "U n",
      "23 6",
      "de m",
      "14 0",
      "ĠC IT",
      "un cion",
      "As uncion",
      "5 08",
      "L ad",
      "M elik",
      "T o",
      "V illa",
      "23 47",
      "21 71",
      "98 0",
      "Ng f",
      "ĠAR G",
      "ĠPri x",
      "C E",
      "K ur",
      "Ġ\" ]",
      "22 93",
      "41 47",
      "ĠE l",
      "17 50",
      "223 0",
      "ĠAnt onio",
      "N ce",
      "in j",
      "15 6",
      "19 04",
      "Jos hua",
      "Te g",
      "Aust rian",
      "ĠLos inj",
      "D on",
      "I BM",
      "le m",
      "ĠO IBM",
      "st on",
      "ie go",
      "ern see",
      "Teg ernsee",
      "19 22",
      "ĠSp assky",
      "A M",
      "ĠS il",
      "M as",
      "ĠBa sta",
      "el a",
      "Ba jina",
      "11 24",
      "25 18",
      "19 44",
      "IN D",
      "Aj ka",
      "22 90",
      "22 58",
      "67 7",
      "1410 16",
      "S ou",
      "b o",
      "e xe",
      "V ic",
      "r ik",
      "en as",
      "23 35",
      "ar yan",
      "ĠS ouza",
      "um i",
      "iso ara",
      "4 09",
      "G i",
      "I v",
      "23 51",
      "24 46",
      "Re p",
      "Dan ila",
      "Mat th",
      "ĠVe lez",
      "ĠN ATO",
      "or re",
      "ub ov",
      "ĠSch ach",
      "u es",
      "20 15",
      "ĠRg c",
      "46 8",
      "et a",
      "uk ov",
      "P ot",
      "24 3",
      "ĠS a",
      "id din",
      "uz man",
      "C ent",
      "20 28",
      "20 51",
      "in ski",
      "an te",
      "ĠO li",
      "ly a",
      "ly an",
      "17 78",
      "20 41",
      "24 25",
      "Kal ash",
      "ater ina",
      "F a",
      "O st",
      "h en",
      "Ġ1 20",
      "olo g",
      "ĠBI H",
      "V ara",
      "d ro",
      "23 11",
      "20 71",
      "ĠZ dro",
      "141208 28",
      "Vara dero",
      "ĠZdro j",
      "A v",
      "j o",
      "l am",
      "t ov",
      "25 79",
      "218 9",
      "R de",
      "U pp",
      "26 29",
      "Sch lech",
      "Kalash nikov",
      "r ev",
      "23 57",
      "on ika",
      "21 68",
      "ol m",
      "410 8",
      "K im",
      "22 21",
      "21 36",
      "N as",
      "W ag",
      "22 245",
      "09 83",
      "ĠV I",
      "1410 0983",
      "rin tsev",
      "Golub ev",
      "141005 41",
      "Rep rintsev",
      "24 45",
      "26 20",
      "48 6",
      "Ar sen",
      "Lu c",
      "20 89",
      "ĠRc xc",
      "22 63",
      "21 30",
      "19 23",
      "19 03",
      "18 59",
      "ko wski",
      "ĠSha h",
      "Ġe xchange",
      "ar ev",
      "220 4",
      "oh umin",
      "S E",
      "ĠRa mi",
      "21 31",
      "as a",
      "309 8",
      "ri v",
      "Leon ardo",
      "ĠRami rez",
      "A K",
      "D iaz",
      "F lores",
      "M ac",
      "v ares",
      "en e",
      "20 31",
      "ĠRb g",
      "11 85",
      "19 67",
      "13 80",
      "el j",
      "aw a",
      "Ah mad",
      "j ug",
      "22 72",
      "23 78",
      "ou c",
      "21 62",
      "25 86",
      "13 90",
      "ral iga",
      "A Y",
      "D ry",
      "ĠI S",
      "24 88",
      "21 24",
      "19 69",
      "38 04",
      "67 6",
      "St a",
      "215 6",
      "V ila",
      "W roclaw",
      "20 29",
      "20 76",
      "08 9",
      "11 4",
      "25 21",
      "18 53",
      "35 00",
      "Par acin",
      "ĠPar acin",
      "u ana",
      "ĠRe xd",
      "24 06",
      "38 7",
      "36 01",
      "210 1",
      "S zy",
      "23 31",
      "10 17",
      "24 73",
      "us a",
      "44 04",
      "ga lov",
      "Dry galov",
      "3601 234",
      "9 60",
      "G B",
      "r ich",
      "la k",
      "68 9",
      "Kor ol",
      "B rasov",
      "H var",
      "ĠB rasov",
      "it ida",
      "22 62",
      "09 0",
      "ĠG omez",
      "57 6",
      "uk in",
      "kin itida",
      "Ker kinitida",
      "lom ouc",
      "14108 003",
      "Yev pat",
      "Yevpat oria",
      "D un",
      "b an",
      "23 50",
      "24 74",
      "15 34",
      "21 23",
      "35 03",
      "T T",
      "T imo",
      "n an",
      "22 86",
      "or k",
      "26 17",
      "ra y",
      "Ale jandro",
      "ham mad",
      "ĠBar bera",
      "Doming o",
      "24 37",
      "il le",
      "19 45",
      "ag en",
      "ay s",
      "Bar bera",
      "ĠVal les",
      "Ek aterina",
      "4 30",
      "H ong",
      "it ges",
      "am i",
      "25 29",
      "25 52",
      "135 15",
      "D ar",
      "N ag",
      "V o",
      "h r",
      "le k",
      "ĠG ruenfeld",
      "So f",
      "Vi ach",
      "Ġc losed",
      "20 33",
      "ate ur",
      "26 07",
      "14 15",
      "ev ening",
      "ĠVal ley",
      "ĠAm ateur",
      "evening en",
      "K en",
      "23 98",
      "23 92",
      "22 59",
      "19 50",
      "Car uana",
      "and o",
      "rand a",
      "Sar in",
      "let sky",
      "2509 2340",
      "Ni hal",
      "20200 09",
      "M CR",
      "25 26",
      "18 16",
      "34 00",
      "Joh n",
      "10 06",
      "il ar",
      "44 105",
      "Mamed ov",
      "20 96",
      "10 05",
      "Sa i",
      "uen ster",
      "V lass",
      "W ang",
      "X u",
      "19 95",
      "33 60",
      "ow a",
      "ry ak",
      "410 3360",
      "Vlass ov",
      "K ush",
      "an u",
      "el li",
      "46 57",
      "Moham mad",
      "a lo",
      "e f",
      "g ger",
      "en s",
      "22 4",
      "13 73",
      "im an",
      "97 3",
      "Rob ert",
      "Val ent",
      "G uzman",
      "K xa",
      "i ia",
      "o ly",
      "it ya",
      "24 60",
      "28 39",
      "19 25",
      "00 145",
      "ĠM oham",
      "37 8",
      "Ho ff",
      "ĠWin ners",
      "Valer y",
      "9 19",
      "A fan",
      "K ac",
      "T ri",
      "22 82",
      "67 0",
      "A P",
      "P ri",
      "23 96",
      "ĠI R",
      "24 72",
      "ak sh",
      "220 2",
      "Ar jun",
      "ob al",
      "ie c",
      "215 9",
      "ĠMar ti",
      "r os",
      "en kov",
      "23 87",
      "19 30",
      "96 1",
      "75 14",
      "215 2",
      "Kar ol",
      "Pe arl",
      "D ob",
      "L j",
      "Y us",
      "ĠRg h",
      "24 49",
      "ĠF IN",
      "Mak arian",
      "Rud ik",
      "olt z",
      "Schlech ter",
      "44105 681",
      "4657 101",
      "6 03",
      "T ra",
      "15 8",
      "25 13",
      "27 86",
      "ĠM esto",
      "Ra j",
      "ag li",
      "Go th",
      "u f",
      "20 95",
      "25 42",
      "25 59",
      "34 09",
      "200 1780",
      "Kr ish",
      "Goth enburg",
      "e xa",
      "ĠRb xb",
      "28 35",
      "al li",
      "39 5",
      "74 00",
      "Mat inian",
      "ys lov",
      "24129 100",
      "gger ated",
      "exa ggerated",
      "Ġ12 1",
      "28 4",
      "ĠA rad",
      "us er",
      "et man",
      "Is m",
      "Vin cent",
      "i der",
      "23 42",
      "129 67",
      "Jan as",
      "ĠHo tel",
      "Fre der",
      "Vic tor",
      "l en",
      "26 33",
      "St oltz",
      "Ng uyen",
      "IY E",
      "9 26",
      "B ern",
      "E duardo",
      "I sa",
      "23 77",
      "Ġa nd",
      "ĠRa xa",
      "26 03",
      "14 60",
      "117 07",
      "Aug ustin",
      "I barra",
      "U K",
      "20 20",
      "Ev an",
      "ar ez",
      "ish a",
      "Ġpawn s",
      "2416 1918",
      "Bil an",
      "S em",
      "24 36",
      "24 84",
      "21 90",
      "ĠNh g",
      "36 9",
      "St are",
      "74 29",
      "odrig o",
      "uen ca",
      "uch ava",
      "G ir",
      "P ak",
      "23 0",
      "20 84",
      "ĠNd xc",
      "19 79",
      "900 2",
      "tem ov",
      "411 9002",
      "UB U",
      "Rus temov",
      "C or",
      "en cia",
      "20 48",
      "21 69",
      "Ch iga",
      "46 11",
      "68 7",
      "129 9",
      "4108 116",
      "Chiga ev",
      "S LO",
      "15 88",
      "11 175",
      "ĠP ann",
      "45 21",
      "ang el",
      "88 7",
      "215 7",
      "ill ar",
      "Sar g",
      "bek ov",
      "1119 206",
      "by l",
      "ĠKUL UBU"
    ]
  }
}