{
  "version": "1.0",
  "truncation": null,
  "padding": null,
  "added_tokens": [],
  "normalizer": null,
  "pre_tokenizer": {
    "type": "ByteLevel",
    "add_prefix_space": false,
    "trim_offsets": true
  },
  "post_processor": {
    "type": "ByteLevel",
    "add_prefix_space": true,
    "trim_offsets": false
  },
  "decoder": {
    "type": "ByteLevel",
    "add_prefix_space": true,
    "trim_offsets": true
  },
  "model": {
    "type": "BPE",
    "dropout": null,
    "unk_token": null,
    "continuing_subword_prefix": null,
    "end_of_word_suffix": null,
    "fuse_unk": false,
    "vocab": {
      "!": 0,
      "\"": 1,
      "#": 2,
      "$": 3,
      "%": 4,
      "&": 5,
      "'": 6,
      "(": 7,
      ")": 8,
      "*": 9,
      "+": 10,
      ",": 11,
      "-": 12,
      ".": 13,
      "/": 14,
      "0": 15,
      "1": 16,
      "2": 17,
      "3": 18,
      "4": 19,
      "5": 20,
      "6": 21,
      "7": 22,
      "8": 23,
      "9": 24,
      ":": 25,
      ";": 26,
      "<": 27,
      "=": 28,
      ">": 29,
      "?": 30,
      "@": 31,
      "A": 32,
      "B": 33,
      "C": 34,
      "D": 35,
      "E": 36,
      "F": 37,
      "G": 38,
      "H": 39,
      "I": 40,
      "J": 41,
      "K": 42,
      "L": 43,
      "M": 44,
      "N": 45,
      "O": 46,
      "P": 47,
      "Q": 48,
      "R": 49,
      "S": 50,
      "T": 51,
      "U": 52,
      "V": 53,
      "W": 54,
      "X": 55,
      "Y": 56,
      "Z": 57,
      "[": 58,
      "\\": 59,
      "]": 60,
      "^": 61,
      "_": 62,
      "`": 63,
      "a": 64,
      "b": 65,
      "c": 66,
      "d": 67,
      "e": 68,
      "f": 69,
      "g": 70,
      "h": 71,
      "i": 72,
      "j": 73,
      "k": 74,
      "l": 75,
      "m": 76,
      "n": 77,
      "o": 78,
      "p": 79,
      "q": 80,
      "r": 81,
      "s": 82,
      "t": 83,
      "u": 84,
      "v": 85,
      "w": 86,
      "x": 87,
      "y": 88,
      "z": 89,
      "{": 90,
      "|": 91,
      "}": 92,
      "~": 93,
      "¡": 94,
      "¢": 95,
      "£": 96,
      "¤": 97,
      "¥": 98,
      "¦": 99,
      "§": 100,
      "¨": 101,
      "©": 102,
      "ª": 103,
      "«": 104,
      "¬": 105,
      "®": 106,
      "¯": 107,
      "°": 108,
      "±": 109,
      "²": 110,
      "³": 111,
      "´": 112,
      "µ": 113,
      "¶": 114,
      "·": 115,
      "¸": 116,
      "¹": 117,
      "º": 118,
      "»": 119,
      "¼": 120,
      "½": 121,
      "¾": 122,
      "¿": 123,
      "À": 124,
      "Á": 125,
      "Â": 126,
      "Ã": 127,
      "Ä": 128,
      "Å": 129,
      "Æ": 130,
      "Ç": 131,
      "È": 132,
      "É": 133,
      "Ê": 134,
      "Ë": 135,
      "Ì": 136,
      "Í": 137,
      "Î": 138,
      "Ï": 139,
      "Ð": 140,
      "Ñ": 141,
      "Ò": 142,
      "Ó": 143,
      "Ô": 144,
      "Õ": 145,
      "Ö": 146,
      "×": 147,
      "Ø": 148,
      "Ù": 149,
      "Ú": 150,
      "Û": 151,
      "Ü": 152,
      "Ý": 153,
      "Þ": 154,
      "ß": 155,
      "à": 156,
      "á": 157,
      "â": 158,
      "ã": 159,
      "ä": 160,
      "å": 161,
      "æ": 162,
      "ç": 163,
      "è": 164,
      "é": 165,
      "ê": 166,
      "ë": 167,
      "ì": 168,
      "í": 169,
      "î": 170,
      "ï": 171,
      "ð": 172,
      "ñ": 173,
      "ò": 174,
      "ó": 175,
      "ô": 176,
      "õ": 177,
      "ö": 178,
      "÷": 179,
      "ø": 180,
      "ù": 181,
      "ú": 182,
      "û": 183,
      "ü": 184,
      "ý": 185,
      "þ": 186,
      "ÿ": 187,
      "Ā": 188,
      "ā": 189,
      "Ă": 190,
      "ă": 191,
      "Ą": 192,
      "ą": 193,
      "Ć": 194,
      "ć": 195,
      "Ĉ": 196,
      "ĉ": 197,
      "Ċ": 198,
      "ċ": 199,
      "Č": 200,
      "č": 201,
      "Ď": 202,
      "ď": 203,
      "Đ": 204,
      "đ": 205,
      "Ē": 206,
      "ē": 207,
      "Ĕ": 208,
      "ĕ": 209,
      "Ė": 210,
      "ė": 211,
      "Ę": 212,
      "ę": 213,
      "Ě": 214,
      "ě": 215,
      "Ĝ": 216,
      "ĝ": 217,
      "Ğ": 218,
      "ğ": 219,
      "Ġ": 220,
      "ġ": 221,
      "Ģ": 222,
      "ģ": 223,
      "Ĥ": 224,
      "ĥ": 225,
      "Ħ": 226,
      "ħ": 227,
      "Ĩ": 228,
      "ĩ": 229,
      "Ī": 230,
      "ī": 231,
      "Ĭ": 232,
      "ĭ": 233,
      "Į": 234,
      "į": 235,
      "İ": 236,
      "ı": 237,
      "Ĳ": 238,
      "ĳ": 239,
      "Ĵ": 240,
      "ĵ": 241,
      "Ķ": 242,
      "ķ": 243,
      "ĸ": 244,
      "Ĺ": 245,
      "ĺ": 246,
      "Ļ": 247,
      "ļ": 248,
      "Ľ": 249,
      "ľ": 250,
      "Ŀ": 251,
      "ŀ": 252,
      "Ł": 253,
      "ł": 254,
      "Ń": 255,
      "Ġt": 256,
      "Ġa": 257,
      "he": 258,
      "in": 259,
      "re": 260,
      "on": 261,
      "Ġthe": 262,
      "er": 263,
      "ed": 264,
      "at": 265,
      "Ġo": 266,
      "Ġs": 267,
      "it": 268,
      "is": 269,
      "Ġc": 270,
      "es": 271,
      "or": 272,
      "Ġw": 273,
      "en": 274,
      "an": 275,
      "Ġp": 276,
      "al": 277,
      "Ġan": 278,
      "Ġb": 279,
      "Ġf": 280,
      "Ġin": 281,
      "Ġof": 282,
      "ar": 283,
      "ic": 284,
      "ing": 285,
      "ou": 286,
      "ion": 287,
      "Ġto": 288,
      "Ġm": 289,
      "Ġand": 290,
      "le": 291,
      "Ġd": 292,
      "as": 293,
      "om": 294,
      "Ġre": 295,
      "Ġh": 296,
      "Ġth": 297,
      "Ġn": 298,
      "ent": 299,
      "ly": 300,
      "us": 301,
      "ct": 302,
      "ro": 303,
      "Ġl": 304,
      "Ġbe": 305,
      "ĠI": 306,
      "il": 307,
      "ve": 308,
      "Ġe": 309,
      "ĠT": 310,
      "ot": 311,
      "Ġis": 312,
      "Ġ(": 313,
      "ation": 314,
      "ĠA": 315,
      "st": 316,
      "Ġfor": 317,
      "am": 318,
      "ut": 319,
      "ĠS": 320,
      "ce": 321,
      "Ġon": 322,
      "ag": 323,
      "ol": 324,
      "ch": 325,
      "im": 326,
      "id": 327,
      ".[": 328,
      "ĠC": 329,
      "ad": 330,
      "Ġas": 331,
      "Ġg": 332,
      "Ġ2": 333,
      "ow": 334,
      "Ġ1": 335,
      "ver": 336,
      "Ġthat": 337,
      "ig": 338,
      "et": 339,
      "ĠW": 340,
      "ur": 341,
      "ay": 342,
      "un": 343,
      "ĠM": 344,
      "Ġcon": 345,
      "ist": 346,
      "ia": 347,
      "ith": 348,
      "Ġit": 349,
      "el": 350,
      "Ġor": 351,
      "ir": 352,
      "Ġst": 353,
      "Ġwith": 354,
      "her": 355,
      "ik": 356,
      "ate": 357,
      "ul": 358,
      "Ġwh": 359,
      "Ġ20": 360,
      "em": 361,
      "Ġal": 362,
      "ĠThe": 363,
      "ers": 364,
      "ip": 365,
      "ĠB": 366,
      "se": 367,
      "Ġy": 368,
      "if": 369,
      "Ġare": 370,
      "Ġwas": 371,
      "Ġby": 372,
      "Ġpro": 373,
      "Ġsu": 374,
      "Ġar": 375,
      "ra": 376,
      "ere": 377,
      "Ġus": 378,
      "ter": 379,
      "op": 380,
      "ld": 381,
      "age": 382,
      "ĠP": 383,
      "'s": 384,
      "Ġnot": 385,
      "est": 386,
      "our": 387,
      "tic": 388,
      "and": 389,
      "Ġde": 390,
      "ies": 391,
      "Ġex": 392,
      "Ġcom": 393,
      "ĠE": 394,
      "Ġmo": 395,
      "Ġ\"": 396,
      "oun": 397,
      "th": 398,
      "ĠH": 399,
      "rom": 400,
      "Ġse": 401,
      "ĠF": 402,
      "ab": 403,
      "ĠR": 404,
      "ew": 405,
      "qu": 406,
      "ĠD": 407,
      "pe": 408,
      "ain": 409,
      "Ġat": 410,
      "ri": 411,
      "ment": 412,
      "ces": 413,
      "Ġv": 414,
      "edia": 415,
      "Ġha": 416,
      "ud": 417,
      "Ġhe": 418,
      "ive": 419,
      "ity": 420,
      "res": 421,
      "ĠL": 422,
      "ac": 423,
      "Ġfrom": 424,
      "ĠN": 425,
      "pl": 426,
      "um": 427,
      "oc": 428,
      "ĠG": 429,
      "ill": 430,
      "ial": 431,
      "Ġun": 432,
      "ould": 433,
      "iv": 434,
      "ort": 435,
      "Ġhave": 436,
      "Ġed": 437,
      "od": 438,
      "Ġyou": 439,
      "os": 440,
      "ich": 441,
      "Ġartic": 442,
      "ant": 443,
      "Ġad": 444,
      "ak": 445,
      "ther": 446,
      "ions": 447,
      "igh": 448,
      "ated": 449,
      "alk": 450,
      "cl": 451,
      "ĠJ": 452,
      "ikip": 453,
      "Ġthis": 454,
      "ĠIn": 455,
      "ect": 456,
      "Ġr": 457,
      "ber": 458,
      "ĠU": 459,
      "Ġedit": 460,
      "Ġcont": 461,
      "ary": 462,
      "ikipedia": 463,
      "Ġ19": 464,
      "pp": 465,
      "ang": 466,
      "Ġsh": 467,
      "Ġch": 468,
      "ome": 469,
      "ally": 470,
      "Ġcan": 471,
      "ard": 472,
      "Ġwhich": 473,
      "ĠO": 474,
      "Ġwor": 475,
      "Ġpage": 476,
      "og": 477,
      "end": 478,
      "ish": 479,
      "gh": 480,
      "Ġk": 481,
      "pt": 482,
      "The": 483,
      "ks": 484,
      "ian": 485,
      "art": 486,
      "ame": 487,
      "red": 488,
      "Ġle": 489,
      "ight": 490,
      "Ġhas": 491,
      "out": 492,
      "ĠWikipedia": 493,
      "ub": 494,
      "les": 495,
      "Ġdis": 496,
      "Ġbut": 497,
      "ust": 498,
      "Ġab": 499,
      "TC": 500,
      "so": 501,
      "UTC": 502,
      "der": 503,
      "Ġ202": 504,
      "Ġac": 505,
      "rit": 506,
      "Ġother": 507,
      "all": 508,
      "ong": 509,
      "Ġint": 510,
      "ough": 511,
      "Ġim": 512,
      "Ġarticle": 513,
      "][": 514,
      "Ġne": 515,
      "Ġpl": 516,
      "Ġwhe": 517,
      "ure": 518,
      "ors": 519,
      "Ġ201": 520,
      "for": 521,
      "Ġwere": 522,
      "ous": 523,
      "00": 524,
      "ast": 525,
      "ell": 526,
      "talk": 527,
      "ine": 528,
      "iz": 529,
      "ical": 530,
      "Ġall": 531,
      "ide": 532,
      "ations": 533,
      "ult": 534,
      "Ġdo": 535,
      "Ġalso": 536,
      "ire": 537,
      "ĠK": 538,
      "ge": 539,
      "ages": 540,
      "clud": 541,
      "ep": 542,
      "ess": 543,
      "Ġcomp": 544,
      "ĠTh": 545,
      "Ġtheir": 546,
      "up": 547,
      "ore": 548,
      "ound": 549,
      "Ġtr": 550,
      "Ġits": 551,
      "Ġres": 552,
      "ib": 553,
      "Ġbeen": 554,
      "ory": 555,
      "able": 556,
      "ĠCh": 557,
      "Ġhis": 558,
      "per": 559,
      "ount": 560,
      "ign": 561,
      "ĠSt": 562,
      "Ġen": 563,
      "ction": 564,
      "ase": 565,
      "vi": 566,
      "Ġone": 567,
      "Ġcl": 568,
      "ubl": 569,
      "Ġmay": 570,
      "Ġj": 571,
      "Ġte": 572,
      "Ġsome": 573,
      "Ġinclud": 574,
      "Ġgo": 575,
      "ates": 576,
      "Ġme": 577,
      "du": 578,
      "any": 579,
      "act": 580,
      "tern": 581,
      "Ġadd": 582,
      "cess": 583,
      "Ġfil": 584,
      "form": 585,
      "now": 586,
      "ject": 587,
      "ok": 588,
      "ue": 589,
      "ff": 590,
      "ost": 591,
      "Ġwho": 592,
      "ng": 593,
      "arch": 594,
      "Ġany": 595,
      "ence": 596,
      "Ġcomm": 597,
      "ans": 598,
      "ree": 599,
      "ack": 600,
      "Ġmore": 601,
      "one": 602,
      "Ġsuch": 603,
      "ap": 604,
      "ru": 605,
      "vers": 606,
      "Ġnew": 607,
      "Ġso": 608,
      "ice": 609,
      "nt": 610,
      "ie": 611,
      "Ġthey": 612,
      "ace": 613,
      "Ġper": 614,
      "ition": 615,
      "ry": 616,
      "irst": 617,
      "Ġbec": 618,
      "ĠIt": 619,
      "rib": 620,
      "are": 621,
      "ime": 622,
      "),": 623,
      "fere": 624,
      "Ġhad": 625,
      "Ġuse": 626,
      "Ġsub": 627,
      "ile": 628,
      "Ġabout": 629,
      "vel": 630,
      "Ġqu": 631,
      "oll": 632,
      "Ġthere": 633,
      "ict": 634,
      "ms": 635,
      "Ġwe": 636,
      "Ġwould": 637,
      "ft": 638,
      "ite": 639,
      "Ġif": 640,
      "ink": 641,
      "ance": 642,
      "ens": 643,
      "hed": 644,
      "ific": 645,
      "ass": 646,
      "ike": 647,
      "Ġfirst": 648,
      "Ġknow": 649,
      "port": 650,
      "ss": 651,
      "pec": 652,
      "Ġcre": 653,
      "Ġcons": 654,
      "Ġpubl": 655,
      "ngl": 656,
      "Ġrel": 657,
      "ord": 658,
      "Ġpar": 659,
      "let": 660,
      "ved": 661,
      "ced": 662,
      "con": 663,
      "In": 664,
      "Ġsc": 665,
      "ear": 666,
      "Ġag": 667,
      "ind": 668,
      "ph": 669,
      "Ġused": 670,
      "Ġout": 671,
      "Ġind": 672,
      "amp": 673,
      "ress": 674,
      "Ġser": 675,
      "ĠUn": 676,
      "uss": 677,
      "Ġpre": 678,
      "ose": 679,
      "ater": 680,
      "Ġev": 681,
      "ake": 682,
      "Ġwill": 683,
      "Ġsour": 684,
      "Ġyour": 685,
      "Ġshould": 686,
      "Ġrec": 687,
      "ach": 688,
      ").": 689,
      "Ġam": 690,
      "av": 691,
      "ĠEngl": 692,
      "Ġthan": 693,
      "fter": 694,
      "ited": 695,
      "wo": 696,
      "aw": 697,
      "ail": 698,
      "ational": 699,
      "ĠV": 700,
      "mer": 701,
      "Ġno": 702,
      "Ġup": 703,
      "Ġmost": 704,
      "Ġmy": 705,
      "ade": 706,
      "Ġwork": 707,
      "Ġapp": 708,
      "Ġreg": 709,
      "Ġdisc": 710,
      "use": 711,
      "Ġdes": 712,
      "ual": 713,
      "Ġ2023": 714,
      "19": 715,
      "Ġunder": 716,
      "ove": 717,
      "Ġ200": 718,
      "int": 719,
      "xt": 720,
      "Ġpol": 721,
      "Ġgr": 722,
      "Ġwhen": 723,
      "Ġpe": 724,
      "ative": 725,
      "Ġarticles": 726,
      "'t": 727,
      "Ġpart": 728,
      "Ġover": 729,
      "Ġrem": 730,
      "Ġonly": 731,
      "Ġsp": 732,
      "ons": 733,
      "Ġbo": 734,
      "Ġinto": 735,
      "lp": 736,
      "Ġacc": 737,
      "ten": 738,
      "Ġatt": 739,
      "Ġlike": 740,
      "ble": 741,
      "ied": 742,
      "Ġtime": 743,
      "ĠY": 744,
      "ased": 745,
      "ays": 746,
      "Ġrequ": 747,
      ",[": 748,
      "Ġact": 749,
      "ener": 750,
      "ular": 751,
      "Ġhow": 752,
      "Ġpages": 753,
      "very": 754,
      "we": 755,
      "ered": 756,
      "Ġhelp": 757,
      "Ġneed": 758,
      "Ġap": 759,
      "Ġoff": 760,
      "Ġform": 761,
      "ollow": 762,
      "ĠThis": 763,
      "wn": 764,
      "Ġfilm": 765,
      "Ġlist": 766,
      "ents": 767,
      "Ġsy": 768,
      "ings": 769,
      "ames": 770,
      "empl": 771,
      "Ġcount": 772,
      "ll": 773,
      "Ġnum": 774,
      "Ġtwo": 775,
      "ari": 776,
      "Ġpr": 777,
      "Ġthem": 778,
      "Ġmany": 779,
      "ments": 780,
      "irect": 781,
      "Ġyear": 782,
      "ics": 783,
      "Ġuser": 784,
      "Ġbet": 785,
      "ribut": 786,
      "gan": 787,
      "ever": 788,
      "Ġchang": 789,
      "ck": 790,
      "Ġbot": 791,
      "Ġcent": 792,
      "Ġaut": 793,
      "Ġfe": 794,
      "te": 795,
      "Ġinform": 796,
      "rough": 797,
      "ating": 798,
      "lect": 799,
      "iss": 800,
      "erm": 801,
      "feren": 802,
      "Ġ18": 803,
      "ĠEnglish": 804,
      "Ġ3": 805,
      "angu": 806,
      "Ġwrit": 807,
      "Ġspec": 808,
      "Ġro": 809,
      "uring": 810,
      "ause": 811,
      "ark": 812,
      "ĠDe": 813,
      "ince": 814,
      "Ġprov": 815,
      "Ġfollow": 816,
      "ne": 817,
      "mber": 818,
      "ople": 819,
      "ob": 820,
      "ines": 821,
      "ateg": 822,
      "Ġ0": 823,
      "Ġafter": 824,
      "ished": 825,
      "Ġbl": 826,
      "iki": 827,
      "..": 828,
      "olog": 829,
      "omm": 830,
      "old": 831,
      "ank": 832,
      "Ġthese": 833,
      "ĠAn": 834,
      "ick": 835,
      "vern": 836,
      "Ġdif": 837,
      "Ġimp": 838,
      "Ġwhere": 839,
      "ĠSe": 840,
      "ĠAr": 841,
      "Ġass": 842,
      "led": 843,
      "lease": 844,
      "Ġinv": 845,
      "ism": 846,
      "Ġhist": 847,
      "ah": 848,
      "ident": 849,
      "Ġprodu": 850,
      "view": 851,
      "Ġche": 852,
      "Ġco": 853,
      "Ġpos": 854,
      "Ġinformation": 855,
      "Ġpers": 856,
      "Ġdiscuss": 857,
      "Ġlangu": 858,
      "Ġtalk": 859,
      "cy": 860,
      "cept": 861,
      "Ġwhat": 862,
      "fore": 863,
      "ock": 864,
      "ply": 865,
      "ually": 866,
      "Ġpeople": 867,
      "yr": 868,
      "ful": 869,
      "Ġinst": 870,
      "inist": 871,
      "ible": 872,
      "Ġdef": 873,
      "10": 874,
      "Ġtempl": 875,
      "ities": 876,
      "Ġplay": 877,
      "oy": 878,
      "ise": 879,
      "ĠĊ": 880,
      "Ġgener": 881,
      "reat": 882,
      "ram": 883,
      "ond": 884,
      "Ġlar": 885,
      "Ġsee": 886,
      "Ġbeing": 887,
      "ix": 888,
      "Ġmade": 889,
      "velop": 890,
      "ween": 891,
      "pr": 892,
      "ample": 893,
      "ĠRe": 894,
      "Ġthrough": 895,
      "Ġph": 896,
      "stem": 897,
      "ward": 898,
      "Ġcol": 899,
      "Ġmain": 900,
      "20": 901,
      "ert": 902,
      "ĠHe": 903,
      "Ġsupp": 904,
      "ury": 905,
      "Ġcop": 906,
      "ving": 907,
      "ĠFor": 908,
      "arly": 909,
      "Ġcontent": 910,
      "Ġ2022": 911,
      "Ġinc": 912,
      "Ġpo": 913,
      "ild": 914,
      "ath": 915,
      "ility": 916,
      "Ġbetween": 917,
      "Ġent": 918,
      "Ġpres": 919,
      "ning": 920,
      "Ġinf": 921,
      "raft": 922,
      "11": 923,
      "Ġjust": 924,
      "Ġwell": 925,
      "Ġpublic": 926,
      "cc": 927,
      "oup": 928,
      "raph": 929,
      "Ġgu": 930,
      "Ġdelet": 931,
      "Ġvi": 932,
      "Ġpartic": 933,
      "Ġsim": 934,
      "Ġbel": 935,
      "ĠAl": 936,
      "Ġem": 937,
      "Ġthen": 938,
      "Ġpop": 939,
      "hen": 940,
      "ivers": 941,
      "Ġexample": 942,
      "Ġgovern": 943,
      "Ġagain": 944,
      "Ġname": 945,
      "ook": 946,
      "Th": 947,
      "Ġdevelop": 948,
      "Ġstud": 949,
      "Ġfound": 950,
      "Ġmem": 951,
      "ically": 952,
      "eb": 953,
      "anu": 954,
      "als": 955,
      "Ġra": 956,
      "ĠMay": 957,
      "Ġ16": 958,
      "elf": 959,
      "hip": 960,
      "land": 961,
      "Ġtop": 962,
      "Ġop": 963,
      "12": 964,
      "Ġbecause": 965,
      "ouse": 966,
      "other": 967,
      "Ġsources": 968,
      "pect": 969,
      "Ġsystem": 970,
      "ĠIf": 971,
      "aj": 972,
      "ars": 973,
      "ĠInd": 974,
      "Ġnumber": 975,
      "Ġeditors": 976,
      "Ġmake": 977,
      "eth": 978,
      "Ġworld": 979,
      "gest": 980,
      "Ġconsid": 981,
      "Ġ-": 982,
      "Ġlink": 983,
      "ican": 984,
      "uch": 985,
      "Ġcould": 986,
      "Ġsign": 987,
      "Ġincluding": 988,
      "ures": 989,
      "Ġset": 990,
      "Ġref": 991,
      "Ġread": 992,
      "\",": 993,
      "ren": 994,
      "att": 995,
      "Ġappro": 996,
      "ĠComm": 997,
      "Ġtrans": 998,
      "arl": 999,
      "Ġshow": 1000,
      "ient": 1001,
      "Ġperson": 1002,
      "Ġ5": 1003,
      "Ġdirect": 1004,
      "Ġend": 1005,
      "ood": 1006,
      "ann": 1007,
      "13": 1008,
      "ug": 1009,
      "Ġob": 1010,
      "Ġcall": 1011,
      "ral": 1012,
      "Ġown": 1013,
      "Ġchar": 1014,
      "rat": 1015,
      "ted": 1016,
      "ĠHow": 1017,
      "ĠUnited": 1018,
      "Ġdoes": 1019,
      "imes": 1020,
      "Ġinter": 1021,
      "Ġpolic": 1022,
      "ially": 1023,
      "ution": 1024,
      "ists": 1025,
      "inal": 1026,
      "ĠAmer": 1027,
      "Ġtext": 1028,
      "14": 1029,
      "Ġexp": 1030,
      "Ġty": 1031,
      "Ġcommun": 1032,
      "aid": 1033,
      "ined": 1034,
      "Ġappe": 1035,
      "Ġboth": 1036,
      "ts": 1037,
      "Ġrep": 1038,
      "ized": 1039,
      "Ġadm": 1040,
      "Ġsame": 1041,
      "Ġcor": 1042,
      "uro": 1043,
      "itation": 1044,
      "Ġconf": 1045,
      "eply": 1046,
      "Ġwhile": 1047,
      "Ġusing": 1048,
      "ision": 1049,
      ".\"": 1050,
      "15": 1051,
      "Ġav": 1052,
      "cond": 1053,
      "hes": 1054,
      "Ġdec": 1055,
      "Ġright": 1056,
      "Ġquest": 1057,
      "aking": 1058,
      "Ġyears": 1059,
      "ves": 1060,
      "Ġcontribut": 1061,
      "man": 1062,
      "Ġcur": 1063,
      "ĠNew": 1064,
      "Ġinclude": 1065,
      "Ġ17": 1066,
      "Ġstate": 1067,
      "Ġ4": 1068,
      "ĠAs": 1069,
      "Ġreferen": 1070,
      "Ġwant": 1071,
      "Ġeditor": 1072,
      "Ġsupport": 1073,
      "reply": 1074,
      "ser": 1075,
      "ork": 1076,
      "rent": 1077,
      "row": 1078,
      "ract": 1079,
      "Reply": 1080,
      "Ġbefore": 1081,
      "Ġdesc": 1082,
      "16": 1083,
      "oci": 1084,
      "Ġher": 1085,
      "}}": 1086,
      "hor": 1087,
      "Ġwar": 1088,
      "Ġoften": 1089,
      "Ġmon": 1090,
      "Ġduring": 1091,
      "'m": 1092,
      "Ġhere": 1093,
      "ious": 1094,
      "{{": 1095,
      "Ġlong": 1096,
      "000": 1097,
      "Ġorig": 1098,
      "bers": 1099,
      "uc": 1100,
      "Ġloc": 1101,
      "Ġreview": 1102,
      "Ġext": 1103,
      "ention": 1104,
      "ĠApr": 1105,
      "ues": 1106,
      "Ġnon": 1107,
      "ĠBrit": 1108,
      "18": 1109,
      "tt": 1110,
      "read": 1111,
      "Ġtemplate": 1112,
      "Ġsince": 1113,
      "ron": 1114,
      "Ġvari": 1115,
      "Ġgroup": 1116,
      "Ġest": 1117,
      "Ġcateg": 1118,
      "Ġadv": 1119,
      "Ġget": 1120,
      "ature": 1121,
      "Ġrequest": 1122,
      "17": 1123,
      "Ġsource": 1124,
      "ool": 1125,
      "ferent": 1126,
      "ĠApril": 1127,
      "Ġresult": 1128,
      "Ġprocess": 1129,
      "ĠMarch": 1130,
      "Ġeach": 1131,
      "ower": 1132,
      "orth": 1133,
      "Ġway": 1134,
      "Ġ199": 1135,
      "Ġlanguage": 1136,
      "Ġdist": 1137,
      "Ġproject": 1138,
      "urn": 1139,
      "rip": 1140,
      "Ġfollowing": 1141,
      "Ġthose": 1142,
      "ajor": 1143,
      "ĠWh": 1144,
      "ven": 1145,
      "Ġgovernment": 1146,
      "Ġ15": 1147,
      "urope": 1148,
      "ograph": 1149,
      "ier": 1150,
      "ians": 1151,
      "Ġdet": 1152,
      "ather": 1153,
      "ĠLe": 1154,
      "ries": 1155,
      "ĠIs": 1156,
      "anuary": 1157,
      "Ġiss": 1158,
      "ience": 1159,
      "Ġsom": 1160,
      "Ġlead": 1161,
      "Ġsubject": 1162,
      "Ġfl": 1163,
      "ĠJanuary": 1164,
      "pos": 1165,
      "ural": 1166,
      "Ġfind": 1167,
      "Ġdifferent": 1168,
      "inks": 1169,
      "Ġhim": 1170,
      "Ġeven": 1171,
      "ories": 1172,
      "Ġallow": 1173,
      "ds": 1174,
      "ised": 1175,
      "Ġ10": 1176,
      "Ġwithout": 1177,
      "io": 1178,
      "ives": 1179,
      "Ġusers": 1180,
      "Ġdon": 1181,
      "Ġback": 1182,
      "air": 1183,
      "Ġstart": 1184,
      "omin": 1185,
      "Ġcentury": 1186,
      "ruct": 1187,
      "ĠSh": 1188,
      "Ġ{{": 1189,
      "Ġknown": 1190,
      "23": 1191,
      "ense": 1192,
      "Ġeff": 1193,
      "Ġdid": 1194,
      "Ġorgan": 1195,
      "Ġexper": 1196,
      "Ġstr": 1197,
      "Ġnow": 1198,
      "Ġret": 1199,
      "ently": 1200,
      "Ġopen": 1201,
      "Ġ'": 1202,
      "Ġmajor": 1203,
      "Ġsever": 1204,
      "Ġediting": 1205,
      "Ġgood": 1206,
      "ting": 1207,
      "Ġtra": 1208,
      "ived": 1209,
      "ĠHowever": 1210,
      "chn": 1211,
      "Ġcrit": 1212,
      "Ġtit": 1213,
      "Ġsecond": 1214,
      "ices": 1215,
      "Ġseveral": 1216,
      "ex": 1217,
      "Ġdiscussion": 1218,
      "ina": 1219,
      "ys": 1220,
      "ĠEurope": 1221,
      "ĠSc": 1222,
      "Ġmark": 1223,
      "its": 1224,
      "get": 1225,
      "cember": 1226,
      "Ġ6": 1227,
      "Ġexpl": 1228,
      "Ġart": 1229,
      "Ġprot": 1230,
      "oh": 1231,
      "Ġarch": 1232,
      "ins": 1233,
      "Ġfilms": 1234,
      "the": 1235,
      "own": 1236,
      "yright": 1237,
      "ober": 1238,
      "Ġhistory": 1239,
      "err": 1240,
      "ĠDecember": 1241,
      "Ġsch": 1242,
      "Ġrele": 1243,
      "Ġweb": 1244,
      "Ġfact": 1245,
      "ired": 1246,
      "Ġcalled": 1247,
      "Ġbecame": 1248,
      "Ġcreated": 1249,
      "ov": 1250,
      "Ġthree": 1251,
      "ided": 1252,
      "Ġthough": 1253,
      "Ġvery": 1254,
      "Ġstand": 1255,
      "ology": 1256,
      "iversity": 1257,
      "Ġcommon": 1258,
      "Ġposs": 1259,
      "Ġreport": 1260,
      "ox": 1261,
      "outh": 1262,
      "ey": 1263,
      "iam": 1264,
      "ware": 1265,
      "Ġview": 1266,
      "par": 1267,
      "not": 1268,
      "Ġaccount": 1269,
      "though": 1270,
      "put": 1271,
      "\".[": 1272,
      "Ġman": 1273,
      "ĠTe": 1274,
      "abl": 1275,
      "ĠPro": 1276,
      "Ġimport": 1277,
      "Ġ|": 1278,
      "ases": 1279,
      "Ġhigh": 1280,
      "iel": 1281,
      "erest": 1282,
      "ional": 1283,
      "anc": 1284,
      "Ġsection": 1285,
      "ily": 1286,
      "Ġagainst": 1287,
      "Ġfun": 1288,
      "Ġcharact": 1289,
      "Ġmove": 1290,
      "ale": 1291,
      "ax": 1292,
      "ec": 1293,
      "ified": 1294,
      "Ġpoint": 1295,
      "Ġpost": 1296,
      "Ġlaw": 1297,
      "med": 1298,
      "iable": 1299,
      "Ġlarge": 1300,
      "Ġstill": 1301,
      "ained": 1302,
      "ric": 1303,
      "ended": 1304,
      "Ġanother": 1305,
      "Ġfree": 1306,
      "Ġprog": 1307,
      "24": 1308,
      "25": 1309,
      "ern": 1310,
      "ull": 1311,
      "ave": 1312,
      "ared": 1313,
      "ged": 1314,
      "Ġresp": 1315,
      "Ġ7": 1316,
      "Ġcontro": 1317,
      "ify": 1318,
      "ital": 1319,
      "Ġlater": 1320,
      "ĠWor": 1321,
      "ĠStates": 1322,
      "Ġcurrent": 1323,
      "Ġwithin": 1324,
      "line": 1325,
      "Ġval": 1326,
      "ĠFeb": 1327,
      "Ġmat": 1328,
      "Ġcult": 1329,
      "Ġcontin": 1330,
      "ata": 1331,
      "Ġadminist": 1332,
      "Ġ197": 1333,
      "Ġthink": 1334,
      "ĠAf": 1335,
      "ife": 1336,
      "Ġplace": 1337,
      "ovember": 1338,
      "Ġask": 1339,
      "Ġmuch": 1340,
      "Ġaccess": 1341,
      "Ġcopyright": 1342,
      "Ġpublished": 1343,
      "Ġinterest": 1344,
      "ission": 1345,
      "Ġrese": 1346,
      "ton": 1347,
      "Ġprom": 1348,
      "ĠNovember": 1349,
      "\".": 1350,
      "ruary": 1351,
      "Ġbu": 1352,
      "ternational": 1353,
      "ording": 1354,
      "Ġca": 1355,
      "anks": 1356,
      "Ġneeded": 1357,
      "Ġauthor": 1358,
      "Ġsm": 1359,
      "Ġproble": 1360,
      "Ġplease": 1361,
      "Ġbro": 1362,
      "ason": 1363,
      "Ġearly": 1364,
      "oks": 1365,
      "ĠCon": 1366,
      "Ġhum": 1367,
      "Ġconst": 1368,
      "28": 1369,
      "ization": 1370,
      "Ġpri": 1371,
      "Ġevery": 1372,
      "ĠAmerican": 1373,
      "Ġvers": 1374,
      "ĠFebruary": 1375,
      "Ġocc": 1376,
      "Ġnames": 1377,
      "Ġleg": 1378,
      "Ġcountry": 1379,
      "Ġchanges": 1380,
      "ize": 1381,
      "Ġsearch": 1382,
      "Ġserv": 1383,
      "com": 1384,
      "Ġoffic": 1385,
      "az": 1386,
      "aim": 1387,
      "Ġmust": 1388,
      "Ġedits": 1389,
      "Ġexist": 1390,
      "Ġpolit": 1391,
      "Ġlinks": 1392,
      "Ġsuc": 1393,
      "ately": 1394,
      "Ġbased": 1395,
      "Ġins": 1396,
      "ash": 1397,
      "ember": 1398,
      "Ġparticular": 1399,
      "Ġmod": 1400,
      "ants": 1401,
      "Ġ14": 1402,
      "ĠItal": 1403,
      "Ġred": 1404,
      "Ġdep": 1405,
      "ript": 1406,
      "Ġ9": 1407,
      "Ġlit": 1408,
      "Ġtechn": 1409,
      "Ġguid": 1410,
      "ty": 1411,
      "Ġfam": 1412,
      "arn": 1413,
      "ailable": 1414,
      "ured": 1415,
      "Ġsur": 1416,
      "ilit": 1417,
      "Ġmin": 1418,
      "ĠBritish": 1419,
      "Ġspe": 1420,
      "yle": 1421,
      "Ġseries": 1422,
      "ĠWorld": 1423,
      "Ġcity": 1424,
      "Ġann": 1425,
      "Ġ13": 1426,
      "iod": 1427,
      "epend": 1428,
      "Ġfew": 1429,
      "rab": 1430,
      "Ġ8": 1431,
      "oad": 1432,
      "ourn": 1433,
      "conom": 1434,
      "Ġ12": 1435,
      "Ġtyp": 1436,
      "Ġsaid": 1437,
      "aterial": 1438,
      "iven": 1439,
      "iving": 1440,
      "ledge": 1441,
      "ps": 1442,
      "illion": 1443,
      "Ġoper": 1444,
      "ĠThere": 1445,
      "my": 1446,
      "ode": 1447,
      "Ġunt": 1448,
      "Ġ196": 1449,
      "ĠRuss": 1450,
      "Ġestabl": 1451,
      "Ġlook": 1452,
      "Ġcreate": 1453,
      "Ġrece": 1454,
      "This": 1455,
      "lu": 1456,
      "Ġdescrib": 1457,
      "Ġelect": 1458,
      "Ġspecific": 1459,
      "ĠOn": 1460,
      "Ġconc": 1461,
      "If": 1462,
      "val": 1463,
      "akes": 1464,
      "ead": 1465,
      "ĠFr": 1466,
      "ains": 1467,
      "Ġimpro": 1468,
      "ien": 1469,
      "Ġmaterial": 1470,
      "stand": 1471,
      "Ġident": 1472,
      "Ġaddress": 1473,
      "ement": 1474,
      "ĠEd": 1475,
      "orn": 1476,
      "Ġavailable": 1477,
      "ides": 1478,
      "ulation": 1479,
      "50": 1480,
      "ĠGo": 1481,
      "ety": 1482,
      "Ġclass": 1483,
      "Ġdraft": 1484,
      "ĠKing": 1485,
      "oman": 1486,
      "Ġtrad": 1487,
      "Ġ198": 1488,
      "itional": 1489,
      "Ġincre": 1490,
      "ross": 1491,
      "Ġshe": 1492,
      "ef": 1493,
      "Ġchess": 1494,
      "Ġblock": 1495,
      "Ġbelie": 1496,
      "ctions": 1497,
      "Ġide": 1498,
      "Ġcase": 1499,
      "Ġpur": 1500,
      "ĠOct": 1501,
      "Ġpolicy": 1502,
      "30": 1503,
      "Ġuntil": 1504,
      "Ġcommunity": 1505,
      "Ġter": 1506,
      "ĠWP": 1507,
      "less": 1508,
      "Ġrest": 1509,
      "'ve": 1510,
      "por": 1511,
      "Ġperiod": 1512,
      "Ġcheck": 1513,
      "Ġbr": 1514,
      "Ġquestion": 1515,
      "27": 1516,
      "Ġhistor": 1517,
      "mit": 1518,
      "26": 1519,
      "Ġcountries": 1520,
      "...": 1521,
      "ote": 1522,
      "Ġopp": 1523,
      "ither": 1524,
      "ration": 1525,
      "Ġprogram": 1526,
      "Ġdem": 1527,
      "ĠZ": 1528,
      "used": 1529,
      "Ġele": 1530,
      "Ġfour": 1531,
      "Ġeng": 1532,
      "Ġchange": 1533,
      "resent": 1534,
      ".\"[": 1535,
      "cycl": 1536,
      "Ġgeneral": 1537,
      "Ġadded": 1538,
      "Ġconsidered": 1539,
      "Ġdesign": 1540,
      "Ġsuccess": 1541,
      "ĠYou": 1542,
      "Ġterm": 1543,
      "Ġmembers": 1544,
      "pace": 1545,
      "Ġ[": 1546,
      "inc": 1547,
      "ĠThey": 1548,
      "Ġstat": 1549,
      "ĠOctober": 1550,
      "alth": 1551,
      "Ġmess": 1552,
      "Ġresearch": 1553,
      "cyclop": 1554,
      "une": 1555,
      "vious": 1556,
      "itions": 1557,
      "ĠPr": 1558,
      "ality": 1559,
      "oot": 1560,
      "aced": 1561,
      "Ġlast": 1562,
      "Ġsug": 1563,
      "Ġfeat": 1564,
      "ĠArab": 1565,
      "Ġaround": 1566,
      "Ġshort": 1567,
      "ohn": 1568,
      "Ġlic": 1569,
      "pri": 1570,
      "Ġstandard": 1571,
      "Ġsmall": 1572,
      "Ġhead": 1573,
      "Ġwritten": 1574,
      "Ġothers": 1575,
      "Ġel": 1576,
      "ertain": 1577,
      "rodu": 1578,
      "Ġsing": 1579,
      "Ġpresent": 1580,
      "29": 1581,
      "ĠSy": 1582,
      "Ġappl": 1583,
      "Ġimportant": 1584,
      "Ġincluded": 1585,
      "Ġknowledge": 1586,
      "ger": 1587,
      "ĠAss": 1588,
      "ĠBl": 1589,
      "ibr": 1590,
      "Ġtake": 1591,
      "Ġtry": 1592,
      "Ġimage": 1593,
      "ivil": 1594,
      "Ġvis": 1595,
      "empt": 1596,
      "Ġdeletion": 1597,
      "Ġcle": 1598,
      "Ġsignific": 1599,
      "Ġprotect": 1600,
      "Ġworks": 1601,
      "Ġold": 1602,
      "urther": 1603,
      "ilar": 1604,
      "idd": 1605,
      "rist": 1606,
      ").[": 1607,
      "Ġsuggest": 1608,
      "ĠWar": 1609,
      "Ġbi": 1610,
      "Ġmight": 1611,
      "Ġcit": 1612,
      "Ġwon": 1613,
      "Ġamong": 1614,
      "ĠWik": 1615,
      "rect": 1616,
      "Ġclaim": 1617,
      "Ġinvol": 1618,
      "vision": 1619,
      "Ġmus": 1620,
      "Ġprof": 1621,
      "ocu": 1622,
      "day": 1623,
      "ĠAd": 1624,
      "rict": 1625,
      "Ġusually": 1626,
      "Ġeconom": 1627,
      "ivid": 1628,
      "Ġcomput": 1629,
      "sc": 1630,
      "ocial": 1631,
      "Ġbook": 1632,
      "Ġes": 1633,
      "ued": 1634,
      "Ġoriginal": 1635,
      "Ġremo": 1636,
      "Ġperform": 1637,
      "vent": 1638,
      "Ġbest": 1639,
      "Ġmed": 1640,
      "adem": 1641,
      "Ġpossible": 1642,
      "ĠNorth": 1643,
      "by": 1644,
      "Ġpopular": 1645,
      "Ġindepend": 1646,
      "Ġcour": 1647,
      "Ġ11": 1648,
      "Ġtitle": 1649,
      "ets": 1650,
      "Ġguidel": 1651,
      "40": 1652,
      "osed": 1653,
      "Ġinflu": 1654,
      "Ġsum": 1655,
      "ĠCl": 1656,
      "ĠUS": 1657,
      "ĠEngland": 1658,
      "Ġsomeone": 1659,
      "els": 1660,
      "ahouse": 1661,
      "Ġseem": 1662,
      "ability": 1663,
      "ai": 1664,
      "Ġsit": 1665,
      "Ġschool": 1666,
      "mp": 1667,
      "Ġcr": 1668,
      "orm": 1669,
      "eng": 1670,
      "Ġbegan": 1671,
      "ĠJohn": 1672,
      "omen": 1673,
      "ftware": 1674,
      "Ġgiven": 1675,
      "Ġtag": 1676,
      "Ġsimilar": 1677,
      "ternet": 1678,
      "au": 1679,
      "Ġi": 1680,
      "Ġcompany": 1681,
      "Ġcategory": 1682,
      "tle": 1683,
      "On": 1684,
      "Ġmoder": 1685,
      "33": 1686,
      "uly": 1687,
      "way": 1688,
      "ĠThese": 1689,
      "play": 1690,
      "Ġpract": 1691,
      "Ġmult": 1692,
      "Ġconsider": 1693,
      "ried": 1694,
      "Ġgame": 1695,
      "ondon": 1696,
      "An": 1697,
      "etw": 1698,
      "Ġbecome": 1699,
      "ptember": 1700,
      "Ġbeh": 1701,
      "Ġvarious": 1702,
      "dom": 1703,
      "Ġrul": 1704,
      "ĠQ": 1705,
      "Ġmilit": 1706,
      "Ġversion": 1707,
      "ird": 1708,
      "aries": 1709,
      "Ġhost": 1710,
      "ividual": 1711,
      "Ġlanguages": 1712,
      "Ġcap": 1713,
      "Ġsignificant": 1714,
      "Ġpower": 1715,
      "Ġunderstand": 1716,
      "ĠSeptember": 1717,
      "org": 1718,
      "amb": 1719,
      "Ġrepresent": 1720,
      "Ġprovide": 1721,
      "Ġeffect": 1722,
      "ony": 1723,
      "estern": 1724,
      "ange": 1725,
      "olution": 1726,
      "Ġ--": 1727,
      "ĠGerm": 1728,
      "Ġrecord": 1729,
      "Hi": 1730,
      "me": 1731,
      "Ġcomplet": 1732,
      "22": 1733,
      "Ġreliable": 1734,
      "here": 1735,
      "Ġeas": 1736,
      "gr": 1737,
      "Ġ21": 1738,
      "Ġfin": 1739,
      "Ġlim": 1740,
      "Ġaccept": 1741,
      "Ġrole": 1742,
      "Ġdecl": 1743,
      "Ġparticip": 1744,
      "Ġhuman": 1745,
      "ator": 1746,
      "ĠCan": 1747,
      "Ġprim": 1748,
      "Ġpie": 1749,
      "ley": 1750,
      "ably": 1751,
      "ĠUniversity": 1752,
      "Ġpolitical": 1753,
      "Ġput": 1754,
      "Ġgreat": 1755,
      "ĠLondon": 1756,
      "itut": 1757,
      "Ġlevel": 1758,
      "ĠSouth": 1759,
      "Ġver": 1760,
      "to": 1761,
      "Ġeither": 1762,
      "Ġhaving": 1763,
      "ĠCol": 1764,
      "ield": 1765,
      "Ġdata": 1766,
      "Ġmonth": 1767,
      "Ġaff": 1768,
      "ĠChe": 1769,
      "ales": 1770,
      "aud": 1771,
      "Ġpass": 1772,
      "ĠJune": 1773,
      "Ġrather": 1774,
      "34": 1775,
      "Ġindividual": 1776,
      "Ġnews": 1777,
      "ret": 1778,
      "Ġhand": 1779,
      "Ġour": 1780,
      "gin": 1781,
      "self": 1782,
      "oint": 1783,
      "Ġrepl": 1784,
      "Ġpropos": 1785,
      "Ġnational": 1786,
      "Ġregard": 1787,
      "ĠSo": 1788,
      "Ġspecial": 1789,
      "Ġorder": 1790,
      "ĠĠ": 1791,
      "Ġ2013": 1792,
      "Ġdown": 1793,
      "Ġwebs": 1794,
      "ĠSome": 1795,
      "eter": 1796,
      "mat": 1797,
      "Ġbas": 1798,
      "Ġmillion": 1799,
      "Ġmaking": 1800,
      "und": 1801,
      "Ġdue": 1802,
      "amed": 1803,
      "ively": 1804,
      "ways": 1805,
      "ĠScot": 1806,
      "imedia": 1807,
      "Ġappear": 1808,
      "Ġdocu": 1809,
      "ĠBe": 1810,
      "ello": 1811,
      "Ġerr": 1812,
      "iness": 1813,
      "Ġcharacter": 1814,
      "af": 1815,
      "Ġpopulation": 1816,
      "Ġleast": 1817,
      "Ġinit": 1818,
      "iple": 1819,
      "Ġautom": 1820,
      "Ġsl": 1821,
      "Ġsoftware": 1822,
      "ese": 1823,
      "ounc": 1824,
      "ensus": 1825,
      "Ġ2014": 1826,
      "ĠMar": 1827,
      "Ġarea": 1828,
      "Ġ2021": 1829,
      "Ġking": 1830,
      "Ġnomin": 1831,
      "urch": 1832,
      "ĠChrist": 1833,
      "iction": 1834,
      "Ġ22": 1835,
      "Ġmodern": 1836,
      "//": 1837,
      "ification": 1838,
      "Ġled": 1839,
      "ĠOr": 1840,
      "Ġsocial": 1841,
      "Ġreason": 1842,
      "Ġreleased": 1843,
      "andal": 1844,
      "ready": 1845,
      "Ġu": 1846,
      "Ġstates": 1847,
      "Ġfore": 1848,
      "Ġwhether": 1849,
      "Ġke": 1850,
      "ĠNational": 1851,
      "Ġencyclop": 1852,
      "leg": 1853,
      "Ġmedia": 1854,
      "priate": 1855,
      "35": 1856,
      "iqu": 1857,
      "ĠAug": 1858,
      "ĠWiki": 1859,
      "umb": 1860,
      "Ġwriting": 1861,
      "uation": 1862,
      "Ġtopic": 1863,
      "Ġattempt": 1864,
      "ĠAnd": 1865,
      "side": 1866,
      "Ġword": 1867,
      "rian": 1868,
      "ĠAt": 1869,
      "39": 1870,
      "reen": 1871,
      "Ġlocal": 1872,
      "Ġmean": 1873,
      "Ġbus": 1874,
      "Ġimages": 1875,
      "erc": 1876,
      "Ġsay": 1877,
      "://": 1878,
      "Ġmet": 1879,
      "Ġdeleted": 1880,
      "Ġfurther": 1881,
      "Ġadministrat": 1882,
      "Ġsingle": 1883,
      "ĠEn": 1884,
      "ĠJuly": 1885,
      "etimes": 1886,
      "ploy": 1887,
      "Ġmar": 1888,
      "Ġdone": 1889,
      "Ġalready": 1890,
      "Ġrun": 1891,
      "Ġrelated": 1892,
      "Ġcomment": 1893,
      "ogn": 1894,
      "Ġlog": 1895,
      "Ġhowever": 1896,
      "ĠEuropean": 1897,
      "Ġalong": 1898,
      "Ġopt": 1899,
      "pecially": 1900,
      "Wikipedia": 1901,
      "Ġleft": 1902,
      "ances": 1903,
      "wards": 1904,
      "Ġareas": 1905,
      "ody": 1906,
      "Ġless": 1907,
      "itch": 1908,
      "Ġland": 1909,
      "ĠCar": 1910,
      "Ġmilitary": 1911,
      "citation": 1912,
      "Ġnetw": 1913,
      "Ġestablished": 1914,
      "Ġcare": 1915,
      "Ġsepar": 1916,
      "Ġrelig": 1917,
      "44": 1918,
      "ethod": 1919,
      "tal": 1920,
      "pro": 1921,
      "Ġeduc": 1922,
      "Ġbroad": 1923,
      "back": 1924,
      "Ġ23": 1925,
      "Ġ2015": 1926,
      "Ġdeath": 1927,
      "Ġreference": 1928,
      "ford": 1929,
      "ney": 1930,
      "Ġbuild": 1931,
      "Ġmember": 1932,
      "ee": 1933,
      "Ġdevelopment": 1934,
      "Ġcases": 1935,
      "Ġ2020": 1936,
      "Ġviol": 1937,
      "ering": 1938,
      "Ġbelow": 1939,
      "avi": 1940,
      "ness": 1941,
      "rec": 1942,
      "Ġparam": 1943,
      "ĠIndia": 1944,
      "Ġpat": 1945,
      "ĠAll": 1946,
      "Ġchild": 1947,
      "yria": 1948,
      "Ġpolicies": 1949,
      "iament": 1950,
      "ouncil": 1951,
      "ĠAugust": 1952,
      "Ġdiff": 1953,
      "Ġgl": 1954,
      "36": 1955,
      "gy": 1956,
      "ery": 1957,
      "Ġ2016": 1958,
      "Ġdeveloped": 1959,
      "Pro": 1960,
      "irc": 1961,
      "Ġcertain": 1962,
      "Ġinstead": 1963,
      "ething": 1964,
      "Ġheld": 1965,
      "cent": 1966,
      "ublic": 1967,
      "Ġdetail": 1968,
      "Ġcorrect": 1969,
      "Ġreferences": 1970,
      "45": 1971,
      "aces": 1972,
      "Ġcivil": 1973,
      "ending": 1974,
      "ĠCom": 1975,
      "bo": 1976,
      "Ġmag": 1977,
      "ĠDis": 1978,
      "aining": 1979,
      "Ġsure": 1980,
      "Ġtemplates": 1981,
      "sy": 1982,
      "Ġprevious": 1983,
      "ope": 1984,
      "Ġport": 1985,
      "Ġindust": 1986,
      "Ġimprove": 1987,
      "abor": 1988,
      "Ġcontrol": 1989,
      "Ġreal": 1990,
      "Ġteam": 1991,
      "Hello": 1992,
      "37": 1993,
      "Ġdiv": 1994,
      "ĠIP": 1995,
      "Ġmusic": 1996,
      "Ġday": 1997,
      "Ġlife": 1998,
      "Ġbox": 1999,
      "Ġproper": 2000,
      "Ġarg": 2001,
      "Ġlargest": 2002,
      "ising": 2003,
      "Ġ2018": 2004,
      "Ġphot": 2005,
      "Ġrights": 2006,
      "Ġequ": 2007,
      "wh": 2008,
      "iver": 2009,
      "Ġsite": 2010,
      "Ġsumm": 2011,
      "ring": 2012,
      "ĠPh": 2013,
      "Ġsec": 2014,
      "46": 2015,
      "Ġfar": 2016,
      "acks": 2017,
      "Ġremoved": 2018,
      "Ġhig": 2019,
      "21": 2020,
      "38": 2021,
      "Ġmethod": 2022,
      "As": 2023,
      "Ġcar": 2024,
      "ica": 2025,
      "ĠRoman": 2026,
      "Ġissues": 2027,
      "ĠChina": 2028,
      "Ġofficial": 2029,
      "Ġtool": 2030,
      "Ġwide": 2031,
      "ĠWhen": 2032,
      "istic": 2033,
      "ched": 2034,
      "Ġjourn": 2035,
      "Ġet": 2036,
      "Ġfix": 2037,
      "vert": 2038,
      "Ġgenerally": 2039,
      "Ġintrodu": 2040,
      "BC": 2041,
      "itution": 2042,
      "Ġsomething": 2043,
      "ĠWikimedia": 2044,
      "ining": 2045,
      "Ġinternational": 2046,
      "ography": 2047,
      "Wh": 2048,
      "Ġquestions": 2049,
      "Ġsk": 2050,
      "Ġwik": 2051,
      "Ġdel": 2052,
      "Ġ2017": 2053,
      "Ġwords": 2054,
      "ternal": 2055,
      "ĠChar": 2056,
      "Ġable": 2057,
      "Ġep": 2058,
      "Ġsent": 2059,
      "aged": 2060,
      "lict": 2061,
      "ival": 2062,
      "Wiki": 2063,
      "ches": 2064,
      "pload": 2065,
      "Ġtele": 2066,
      "Ġevent": 2067,
      "Ġwhy": 2068,
      "Ġespecially": 2069,
      "ĠGr": 2070,
      "Ġissue": 2071,
      "ĠPl": 2072,
      "Ġredirect": 2073,
      "enn": 2074,
      "lex": 2075,
      "lege": 2076,
      "Ġrequire": 2077,
      "Ġpersonal": 2078,
      "ule": 2079,
      "Ġgen": 2080,
      "Ġspace": 2081,
      "ĠSch": 2082,
      "ĠSyria": 2083,
      "aken": 2084,
      "rew": 2085,
      "erred": 2086,
      "Ġalthough": 2087,
      "ĠInternet": 2088,
      "Ġ2012": 2089,
      "ĠThanks": 2090,
      "Ġabove": 2091,
      "Ġannoun": 2092,
      "rote": 2093,
      "erv": 2094,
      "itive": 2095,
      "ential": 2096,
      "Ġvandal": 2097,
      "ĠCent": 2098,
      "Ġregion": 2099,
      "47": 2100,
      "Ġconcern": 2101,
      "Ġrev": 2102,
      "Ġdays": 2103,
      "idence": 2104,
      "Ġbooks": 2105,
      "Ġrecent": 2106,
      "Ġguidelines": 2107,
      "ination": 2108,
      "Ġworking": 2109,
      "ĠBut": 2110,
      "ĠYork": 2111,
      "ming": 2112,
      "Ġproblem": 2113,
      "nect": 2114,
      "ĠII": 2115,
      "ĠTo": 2116,
      "Ġfre": 2117,
      "Ġbetter": 2118,
      "ner": 2119,
      "Ġtoo": 2120,
      "sw": 2121,
      "Ġdescribed": 2122,
      "aps": 2123,
      "Ġstudy": 2124,
      "Ġstyle": 2125,
      "cing": 2126,
      "ĠTeahouse": 2127,
      "ffic": 2128,
      "Ġ$": 2129,
      "Ġalways": 2130,
      "Ġupd": 2131,
      "Ġliter": 2132,
      "Ġlate": 2133,
      "clus": 2134,
      "Ġwiki": 2135,
      "Ġfile": 2136,
      "ĠTr": 2137,
      "Ġgames": 2138,
      "Ġpref": 2139,
      "oph": 2140,
      "ĠRep": 2141,
      "Ġconsensus": 2142,
      "ium": 2143,
      "Ġmessage": 2144,
      "oid": 2145,
      "ication": 2146,
      "oss": 2147,
      "ĠAust": 2148,
      "Ġdisplay": 2149,
      "Ġhome": 2150,
      "ops": 2151,
      "be": 2152,
      "Ġcomb": 2153,
      "ĠShe": 2154,
      "arily": 2155,
      "oth": 2156,
      "Ġforces": 2157,
      "Ġvol": 2158,
      "app": 2159,
      "ĠSp": 2160,
      "inese": 2161,
      "ttps": 2162,
      "Ar": 2163,
      "Ġlibr": 2164,
      "Ġreported": 2165,
      "Ġwrote": 2166,
      "Ġitself": 2167,
      "Ġindependent": 2168,
      "57": 2169,
      "yn": 2170,
      "most": 2171,
      "ĠEx": 2172,
      "Ġorigin": 2173,
      "Ġfull": 2174,
      "atch": 2175,
      "Ġproduction": 2176,
      "edy": 2177,
      "Ġren": 2178,
      "Ġassoci": 2179,
      "48": 2180,
      "ĠSaud": 2181,
      "acy": 2182,
      "Ġpast": 2183,
      "thing": 2184,
      "Ġenc": 2185,
      "Ġgroups": 2186,
      "Ġcoll": 2187,
      "Ġattack": 2188,
      "Ġaddition": 2189,
      "ĠPres": 2190,
      "Ġfoc": 2191,
      "Ġhapp": 2192,
      "Ġnever": 2193,
      "Ġthird": 2194,
      "ĠBy": 2195,
      "Ġtype": 2196,
      "Ġcomputer": 2197,
      "Ġservice": 2198,
      "ĠDo": 2199,
      "Ġrelations": 2200,
      "Ġplayed": 2201,
      "rop": 2202,
      "raw": 2203,
      "iate": 2204,
      "Ġbusiness": 2205,
      "ham": 2206,
      "Ġcover": 2207,
      "Ġsometimes": 2208,
      "Ġ30": 2209,
      "Ġappropriate": 2210,
      "Ġanim": 2211,
      "58": 2212,
      "ological": 2213,
      "aun": 2214,
      "Ġmeet": 2215,
      "Ġconflict": 2216,
      "ades": 2217,
      "ĠGu": 2218,
      "There": 2219,
      "Ġtook": 2220,
      "ishing": 2221,
      "Ġanyone": 2222,
      "Ġcamp": 2223,
      "Ġterms": 2224,
      "Ġline": 2225,
      "Ġformer": 2226,
      "49": 2227,
      "ane": 2228,
      "apt": 2229,
      "Ġfive": 2230,
      "Ġobject": 2231,
      "ogle": 2232,
      "bit": 2233,
      "son": 2234,
      "asing": 2235,
      "Ġformat": 2236,
      "Ġactiv": 2237,
      "oyal": 2238,
      "Ġoccur": 2239,
      "hest": 2240,
      "Ġdocument": 2241,
      "Ġmeans": 2242,
      "Ġcannot": 2243,
      "Ġtimes": 2244,
      "Ġseen": 2245,
      "kra": 2246,
      "59": 2247,
      "ĠWest": 2248,
      "ored": 2249,
      "olic": 2250,
      "ling": 2251,
      "atin": 2252,
      "Ġexcept": 2253,
      "rupt": 2254,
      "ency": 2255,
      "Ġfamily": 2256,
      "Ġtotal": 2257,
      "Ġrecogn": 2258,
      "Ġprofess": 2259,
      "Ġstrong": 2260,
      "ĠGerman": 2261,
      "60": 2262,
      "Ġreturn": 2263,
      "Ġreceived": 2264,
      "Ġcame": 2265,
      "lement": 2266,
      "Ġagre": 2267,
      "Ġupload": 2268,
      "For": 2269,
      "Ġanal": 2270,
      "Ġproduced": 2271,
      "ke": 2272,
      "oe": 2273,
      "Ġlet": 2274,
      "aster": 2275,
      "Ġacadem": 2276,
      "Ġincludes": 2277,
      "Ġ25": 2278,
      ".,": 2279,
      "ĠRussian": 2280,
      "32": 2281,
      "iber": 2282,
      "alf": 2283,
      "ones": 2284,
      "ĠSyrian": 2285,
      "ĠChinese": 2286,
      "Ġposition": 2287,
      "ĠAb": 2288,
      "vant": 2289,
      "Ġprovided": 2290,
      "Ġacross": 2291,
      "obal": 2292,
      "Ġ2011": 2293,
      "Ġdisput": 2294,
      "ccording": 2295,
      "Ġmultiple": 2296,
      "Ġdev": 2297,
      "Ġentire": 2298,
      "It": 2299,
      "rid": 2300,
      "reg": 2301,
      "Ġwomen": 2302,
      "Ġthings": 2303,
      "Ġgive": 2304,
      "ĠUkra": 2305,
      "Ġvalue": 2306,
      "Ġnovel": 2307,
      "Ġexam": 2308,
      "ples": 2309,
      "ĠCommons": 2310,
      "riend": 2311,
      "Ġdirectly": 2312,
      "Ġpriv": 2313,
      "box": 2314,
      "Ġ2007": 2315,
      "aut": 2316,
      "ites": 2317,
      "itor": 2318,
      "Ġdig": 2319,
      "ĠWe": 2320,
      "hers": 2321,
      "iddle": 2322,
      "Ġautomat": 2323,
      "Ġdom": 2324,
      "Ġmarket": 2325,
      "ots": 2326,
      "ĠPlease": 2327,
      "ĠWestern": 2328,
      "Ġnecess": 2329,
      "Ġfeel": 2330,
      "ference": 2331,
      "Ġstarted": 2332,
      "ĠX": 2333,
      "Ġmention": 2334,
      "Ġbegin": 2335,
      "ators": 2336,
      "ĠFound": 2337,
      "ĠAfter": 2338,
      "Ġetc": 2339,
      "ĠSaudi": 2340,
      "Ġprint": 2341,
      "31": 2342,
      "Ġsystems": 2343,
      "Ġscience": 2344,
      ".)": 2345,
      "56": 2346,
      "chie": 2347,
      "Ġ2019": 2348,
      "ĠIndian": 2349,
      "Ġexpress": 2350,
      "ĠMan": 2351,
      "Ġstruct": 2352,
      "Ġkeep": 2353,
      "Ġcomplete": 2354,
      "Ġwebsite": 2355,
      "ault": 2356,
      "Project": 2357,
      "ĠItaly": 2358,
      "Ġrequired": 2359,
      "like": 2360,
      "ont": 2361,
      "Ġ24": 2362,
      "Ġcategories": 2363,
      "Ġrules": 2364,
      "Ġconnect": 2365,
      "Ġcurrently": 2366,
      "Ġindic": 2367,
      "go": 2368,
      "ple": 2369,
      "Ġannounced": 2370,
      "ili": 2371,
      "Ġelse": 2372,
      "ĠItalian": 2373,
      "Ġrecently": 2374,
      "Ġtest": 2375,
      "ĠWill": 2376,
      "ociety": 2377,
      "ards": 2378,
      "ges": 2379,
      "Ġrespect": 2380,
      "Ġencyclopedia": 2381,
      "arent": 2382,
      "Ġrespons": 2383,
      "uses": 2384,
      "rench": 2385,
      "emb": 2386,
      "Ġcopy": 2387,
      "Ġidea": 2388,
      "Ġcond": 2389,
      "sequ": 2390,
      "Ġremove": 2391,
      "Ġonline": 2392,
      "Ġcitation": 2393,
      "eneral": 2394,
      "ĠDav": 2395,
      "Ġculture": 2396,
      "Ġlisted": 2397,
      "ctor": 2398,
      "Ġemploy": 2399,
      "Ġtrying": 2400,
      "42": 2401,
      "Ġnext": 2402,
      "Ġclose": 2403,
      "pose": 2404,
      "Ġcode": 2405,
      "Ġansw": 2406,
      "ensive": 2407,
      "ĠGe": 2408,
      "ague": 2409,
      "ison": 2410,
      "mission": 2411,
      "Ġgrow": 2412,
      "ĠAustral": 2413,
      "Ġaud": 2414,
      "isc": 2415,
      "ush": 2416,
      "ategory": 2417,
      "To": 2418,
      "itte": 2419,
      "Ġedited": 2420,
      "ask": 2421,
      "Ġmen": 2422,
      "ental": 2423,
      "Ġvandalism": 2424,
      "43": 2425,
      "ĠInternational": 2426,
      "Ġmaint": 2427,
      "arliament": 2428,
      "Ġcharacters": 2429,
      "sych": 2430,
      "wikipedia": 2431,
      "Al": 2432,
      "ĠAm": 2433,
      "Ġmoved": 2434,
      "eria": 2435,
      "Ġadding": 2436,
      "55": 2437,
      "Ġjo": 2438,
      "Ġcapt": 2439,
      "41": 2440,
      "ingu": 2441,
      "Ġresults": 2442,
      "Ġdate": 2443,
      "Ġnotable": 2444,
      "Ġthought": 2445,
      "Ġlegal": 2446,
      "Ġservices": 2447,
      "Ġstatus": 2448,
      "Ġcompet": 2449,
      "ĠFoundation": 2450,
      "uture": 2451,
      "ĠTalk": 2452,
      "ĠCor": 2453,
      "Ġproduct": 2454,
      "Ġrule": 2455,
      "ĠCouncil": 2456,
      "ĠThank": 2457,
      "iting": 2458,
      "ĠOther": 2459,
      "Ġtelevision": 2460,
      "aper": 2461,
      "ĠCal": 2462,
      "ĠParliament": 2463,
      "lands": 2464,
      "Ġmiss": 2465,
      "Ġnetwork": 2466,
      "Ġwrite": 2467,
      "Ġreally": 2468,
      "Ġscient": 2469,
      "Ġfoot": 2470,
      "Ġnamed": 2471,
      "ĠUN": 2472,
      "Ġchildren": 2473,
      "Ġearl": 2474,
      "Ġnotice": 2475,
      "Ġturn": 2476,
      "Ġhistorical": 2477,
      "ĠCharles": 2478,
      "Ġsix": 2479,
      "Ġtaken": 2480,
      "Ġexec": 2481,
      "ĠEl": 2482,
      "Ġpromot": 2483,
      "over": 2484,
      "ĠUser": 2485,
      "of": 2486,
      "Ġcho": 2487,
      "Ġforeign": 2488,
      "wiki": 2489,
      "Ġinvest": 2490,
      "rown": 2491,
      "ĠOne": 2492,
      "come": 2493,
      "Ġcirc": 2494,
      "ĠLatin": 2495,
      "eder": 2496,
      "apan": 2497,
      "Ġevents": 2498,
      "ID": 2499,
      "ĠKingdom": 2500,
      "Ġfair": 2501,
      "Ġparticularly": 2502,
      "ball": 2503,
      "Ġfollowed": 2504,
      "Ġcritic": 2505,
      "Ġhold": 2506,
      "Ġcome": 2507,
      "rel": 2508,
      "ĠHar": 2509,
      "Ġlicens": 2510,
      "Ġconcept": 2511,
      "Ġnear": 2512,
      "Ġvide": 2513,
      "Ġkill": 2514,
      "Ġdeterm": 2515,
      "Ġapprec": 2516,
      "Ġ2006": 2517,
      "eg": 2518,
      "elves": 2519,
      "Ġenough": 2520,
      "pecial": 2521,
      "Ġlikely": 2522,
      "Ġautomatically": 2523,
      "Ġfield": 2524,
      "lection": 2525,
      "Ġdeb": 2526,
      "Ġwee": 2527,
      "ĠGoogle": 2528,
      "Ġ2010": 2529,
      "Ġaccording": 2530,
      "Ġbar": 2531,
      "ights": 2532,
      "duct": 2533,
      "atic": 2534,
      "Ġproblems": 2535,
      "Ġfail": 2536,
      "asion": 2537,
      "Ġcontributions": 2538,
      "Ġpict": 2539,
      "Ġstated": 2540,
      "Ġexisting": 2541,
      "Ġeconomic": 2542,
      "ĠFrench": 2543,
      "sh": 2544,
      "ĠEast": 2545,
      "Ġclick": 2546,
      "Ġexpand": 2547,
      "Ġdistribut": 2548,
      "inister": 2549,
      "Ġeducation": 2550,
      "Ġside": 2551,
      "Ġtable": 2552,
      "Ġpot": 2553,
      "arm": 2554,
      "Ġsold": 2555,
      "Ġlow": 2556,
      "ilos": 2557,
      "Ġassist": 2558,
      "Ġsimply": 2559,
      "ĠMany": 2560,
      "attle": 2561,
      "54": 2562,
      "Ġdefin": 2563,
      "Ġprojects": 2564,
      "cast": 2565,
      "Ġlimited": 2566,
      "Ġkind": 2567,
      "Ġprimary": 2568,
      "Ġnumer": 2569,
      "Ġtransl": 2570,
      "urity": 2571,
      "Ġsuccessful": 2572,
      "Ġfac": 2573,
      "ront": 2574,
      "Ġbre": 2575,
      "ior": 2576,
      "ĠCong": 2577,
      "Ġengine": 2578,
      "51": 2579,
      "ream": 2580,
      "Ġexpect": 2581,
      "Ġschol": 2582,
      "ilt": 2583,
      "53": 2584,
      "RL": 2585,
      "Ġthems": 2586,
      "Ġfuture": 2587,
      "page": 2588,
      "Ġstory": 2589,
      "ĠJapan": 2590,
      "Ġsubst": 2591,
      "Ġallowed": 2592,
      "Ġseems": 2593,
      "Ġplaced": 2594,
      "Ġhor": 2595,
      "Ġ27": 2596,
      "ĠFil": 2597,
      "Ġboard": 2598,
      "Ġplayer": 2599,
      "ĠCo": 2600,
      "Ġfeatures": 2601,
      "atural": 2602,
      "52": 2603,
      "ĠChurch": 2604,
      "Ġprinc": 2605,
      "Ġavoid": 2606,
      "Ġ28": 2607,
      "Ġ&": 2608,
      "urb": 2609,
      "awn": 2610,
      "Ġfeed": 2611,
      "Ġlittle": 2612,
      "Ġmonths": 2613,
      "bar": 2614,
      "Ġonce": 2615,
      "Ġwater": 2616,
      "Ġlonger": 2617,
      "Ġlaun": 2618,
      "Ġbehavi": 2619,
      "Ġsubmit": 2620,
      "Ġthemselves": 2621,
      "Ġcitations": 2622,
      "isions": 2623,
      "Ġlo": 2624,
      "ĠMo": 2625,
      "Ġwikipedia": 2626,
      "augh": 2627,
      "Ġlearn": 2628,
      "arget": 2629,
      "Ġhard": 2630,
      "ĠMus": 2631,
      "Ġuses": 2632,
      "Ġhttps": 2633,
      "ĠEmp": 2634,
      "ĠRoyal": 2635,
      "Ġaffect": 2636,
      "Ġ26": 2637,
      "Ġlists": 2638,
      "Ġmer": 2639,
      "Ġliving": 2640,
      "ĠMedia": 2641,
      "Ġjud": 2642,
      "know": 2643,
      "ene": 2644,
      "Ġeffort": 2645,
      "ĠAfric": 2646,
      "ittee": 2647,
      "Ed": 2648,
      "'re": 2649,
      "Ġwin": 2650,
      "ĠMal": 2651,
      "Ġcreating": 2652,
      "You": 2653,
      "ĠMy": 2654,
      "Ġadditional": 2655,
      "Ġerror": 2656,
      "bl": 2657,
      "Ġfig": 2658,
      "Ġfunction": 2659,
      "Ġlicense": 2660,
      "ĠMe": 2661,
      "Ġfeature": 2662,
      "Ġdou": 2663,
      "ute": 2664,
      "Ġdoing": 2665,
      "ibility": 2666,
      "Ġminor": 2667,
      "ands": 2668,
      "Ġkey": 2669,
      "Ġopin": 2670,
      "ached": 2671,
      "Ġrank": 2672,
      "Ġfriend": 2673,
      "ror": 2674,
      "Ġhy": 2675,
      "ferences": 2676,
      "aith": 2677,
      "Ġpress": 2678,
      "Ġparts": 2679,
      "Ġregist": 2680,
      "Ġpieces": 2681,
      "'d": 2682,
      "ĠCour": 2683,
      "Ġforms": 2684,
      "Ġ2008": 2685,
      "rong": 2686,
      "Ġredu": 2687,
      "ĠBBC": 2688,
      "rial": 2689,
      "overed": 2690,
      "Ġachie": 2691,
      "Ġstar": 2692,
      "Ġinvolved": 2693,
      "ias": 2694,
      "lam": 2695,
      "ĠGree": 2696,
      "Ġupon": 2697,
      "ires": 2698,
      "Ġnorm": 2699,
      "ĠAct": 2700,
      "Ġvia": 2701,
      "When": 2702,
      "Ġstudents": 2703,
      "de": 2704,
      "Ġaction": 2705,
      "onse": 2706,
      "ĠWilliam": 2707,
      "iers": 2708,
      "Ġuseful": 2709,
      "Ġseparate": 2710,
      "ĠCity": 2711,
      "Ġplan": 2712,
      "Ġsaw": 2713,
      "icult": 2714,
      "itors": 2715,
      "ĠPart": 2716,
      "ĠUnion": 2717,
      "ĠAc": 2718,
      "ĠArmy": 2719,
      "ĠChess": 2720,
      "edic": 2721,
      "ource": 2722,
      "ĠHouse": 2723,
      "ĠWhile": 2724,
      "ĠRussia": 2725,
      "Ġacademic": 2726,
      "Ġprob": 2727,
      "Ġrelevant": 2728,
      "Ġblocked": 2729,
      "ext": 2730,
      "ada": 2731,
      "see": 2732,
      "Ġsong": 2733,
      "Ġvir": 2734,
      "ĠEmpire": 2735,
      "Ġrever": 2736,
      "ĠIS": 2737,
      "ĠEm": 2738,
      "Ġevidence": 2739,
      "Ġreligious": 2740,
      "elling": 2741,
      "Ġoutside": 2742,
      "Ġwanted": 2743,
      "Ch": 2744,
      "Ġepis": 2745,
      "AN": 2746,
      "Ġmakes": 2747,
      "iron": 2748,
      "Ġdifficult": 2749,
      "Ġvot": 2750,
      "ump": 2751,
      "Ġchanged": 2752,
      "Ġcapital": 2753,
      "ription": 2754,
      "Ġnamespace": 2755,
      "ikiped": 2756,
      "Ġblack": 2757,
      "omb": 2758,
      "Ġcomments": 2759,
      "Ġcompan": 2760,
      "ĠReg": 2761,
      "Ġlat": 2762,
      "Ġmob": 2763,
      "Ġexperien": 2764,
      "Ġpsych": 2765,
      "Ġtypes": 2766,
      "Ġtown": 2767,
      "Ġrelease": 2768,
      "Ġaltern": 2769,
      "Ġparty": 2770,
      "Ġfund": 2771,
      "off": 2772,
      "imately": 2773,
      "ĠDavid": 2774,
      "ocrat": 2775,
      "Ġactually": 2776,
      "Ġcontinued": 2777,
      "vention": 2778,
      "empor": 2779,
      "ĠInst": 2780,
      "Ġneg": 2781,
      "Ġthroughout": 2782,
      "Ġtypically": 2783,
      "Ġbecom": 2784,
      "Ġphys": 2785,
      "Ġpresident": 2786,
      "Ġens": 2787,
      "Ġjournal": 2788,
      "Ġintended": 2789,
      "Ġdest": 2790,
      "Ġregular": 2791,
      "Ġanc": 2792,
      "ĠUK": 2793,
      "cont": 2794,
      "hib": 2795,
      "Ġgot": 2796,
      "Ġyet": 2797,
      "lected": 2798,
      "ĠSee": 2799,
      "name": 2800,
      "Ġwhose": 2801,
      "na": 2802,
      "197": 2803,
      "Ġorganization": 2804,
      "Ġrestrict": 2805,
      "Ġclear": 2806,
      "Ġinfluence": 2807,
      "Ġpractice": 2808,
      "ceed": 2809,
      "Ġitem": 2810,
      "ume": 2811,
      "wood": 2812,
      "ĠDisney": 2813,
      "hemat": 2814,
      "Ġlack": 2815,
      "asons": 2816,
      "Ġemer": 2817,
      "Ġalmost": 2818,
      "ĠJames": 2819,
      "Ġconsist": 2820,
      "Ġoppos": 2821,
      "quest": 2822,
      "Ġsqu": 2823,
      "Ġleading": 2824,
      "ĠAfrica": 2825,
      "istics": 2826,
      "Re": 2827,
      "Ġrad": 2828,
      "Ġgoing": 2829,
      "ique": 2830,
      "Ġresponse": 2831,
      "Ġaward": 2832,
      "ĠBr": 2833,
      "ĠPresident": 2834,
      "Ġbody": 2835,
      "ler": 2836,
      "hern": 2837,
      "Ġsw": 2838,
      "ung": 2839,
      "ief": 2840,
      "ĠRich": 2841,
      "eters": 2842,
      "Ġtarget": 2843,
      "Ġactive": 2844,
      "Ġself": 2845,
      "Ġspeak": 2846,
      "rated": 2847,
      "Ġorganiz": 2848,
      "Ġbelieve": 2849,
      "ape": 2850,
      "Ġdeal": 2851,
      "Ġcommerc": 2852,
      "Ġprovides": 2853,
      "ened": 2854,
      "Ġcontains": 2855,
      "Ġreaders": 2856,
      "Ġfeatured": 2857,
      "St": 2858,
      "Ġmis": 2859,
      "aint": 2860,
      "Ġquality": 2861,
      "Ġtraditional": 2862,
      "board": 2863,
      "rap": 2864,
      "pre": 2865,
      "olved": 2866,
      "imate": 2867,
      "Ġtrade": 2868,
      "ports": 2869,
      "Ġindustry": 2870,
      "Ġant": 2871,
      "Ġmeaning": 2872,
      "Ġess": 2873,
      "Ġcreation": 2874,
      "pite": 2875,
      "ĠPe": 2876,
      "Ġair": 2877,
      "reet": 2878,
      "Ġtoget": 2879,
      "Ġ2005": 2880,
      "Ġglobal": 2881,
      "Ġtogether": 2882,
      "Ġphilos": 2883,
      "cut": 2884,
      "Ġlive": 2885,
      "ĠGeneral": 2886,
      "ĠSw": 2887,
      "Ġ29": 2888,
      "Ġord": 2889,
      "Ġneeds": 2890,
      "Ġsummary": 2891,
      "Ġincreasing": 2892,
      "Ġpurpose": 2893,
      "Ġcentral": 2894,
      "hors": 2895,
      "rative": 2896,
      "Ġ2009": 2897,
      "ours": 2898,
      "Ġcriteria": 2899,
      "80": 2900,
      "Ġquot": 2901,
      "Ġprevent": 2902,
      "Ġnumbers": 2903,
      "Ġsound": 2904,
      "Ġfiles": 2905,
      "Ġprivate": 2906,
      "Ġrange": 2907,
      "using": 2908,
      "Ġtw": 2909,
      "istan": 2910,
      "Ġuniversity": 2911,
      "Ġcommand": 2912,
      "Ġassociated": 2913,
      "ĠState": 2914,
      "ruction": 2915,
      "ĠCommon": 2916,
      "utral": 2917,
      "Ġtopics": 2918,
      "Ġvideo": 2919,
      "ĠHis": 2920,
      "Ġrap": 2921,
      "aring": 2922,
      "Ġcolon": 2923,
      "Ġcompanies": 2924,
      "How": 2925,
      "isation": 2926,
      "Ġcost": 2927,
      "ilities": 2928,
      "Ġnote": 2929,
      "Ġobser": 2930,
      "Ġappeared": 2931,
      "Ġsuper": 2932,
      "ze": 2933,
      "Ġdial": 2934,
      "Ġ<": 2935,
      "itect": 2936,
      "Ġfinal": 2937,
      "Ġpiece": 2938,
      "Ġprotection": 2939,
      "Ġwidely": 2940,
      "Ġmovement": 2941,
      "iced": 2942,
      "orthern": 2943,
      "ĠArabia": 2944,
      "Ġnecessary": 2945,
      "era": 2946,
      "Ġconduct": 2947,
      "free": 2948,
      "ats": 2949,
      "Ġmot": 2950,
      "ster": 2951,
      "igned": 2952,
      "Ġtreat": 2953,
      "Ġbrow": 2954,
      "list": 2955,
      "Ġsays": 2956,
      "ĠWales": 2957,
      "ĠPar": 2958,
      "based": 2959,
      "Ġtro": 2960,
      "olly": 2961,
      "ĠHer": 2962,
      "Ġcontain": 2963,
      "Ġparameter": 2964,
      "Ġforce": 2965,
      "Ġquick": 2966,
      "Ġadministrator": 2967,
      "Ġcollabor": 2968,
      "Ġage": 2969,
      "Ġwel": 2970,
      "iding": 2971,
      "Ġappears": 2972,
      "bor": 2973,
      "ĠMon": 2974,
      "Ġdeg": 2975,
      "Ġfrequ": 2976,
      "uck": 2977,
      "Ġtried": 2978,
      "Ġreject": 2979,
      "wise": 2980,
      "ĠSchool": 2981,
      "200": 2982,
      "ications": 2983,
      "Ġlot": 2984,
      "ĠGreat": 2985,
      "Ġcast": 2986,
      "Ġmajority": 2987,
      "ĠWikiProject": 2988,
      "ett": 2989,
      "ĠWikiped": 2990,
      "Ġexperience": 2991,
      "ĠCourt": 2992,
      "mb": 2993,
      "oper": 2994,
      "Ġimmed": 2995,
      "emplate": 2996,
      "RC": 2997,
      "Ġnorth": 2998,
      "Ġ100": 2999,
      "irmed": 3000,
      "Ġfav": 3001,
      "Ġsections": 3002,
      "Ġdefault": 3003,
      "Ġhigher": 3004,
      "ae": 3005,
      "atre": 3006,
      "Ġfight": 3007,
      "Ġmass": 3008,
      "TO": 3009,
      "Ġtheory": 3010,
      "Ġce": 3011,
      "Ġben": 3012,
      "Ġexecut": 3013,
      "Ġanything": 3014,
      "odes": 3015,
      "ĠAmerica": 3016,
      "ĠMod": 3017,
      "Ġcred": 3018,
      "Ġhalf": 3019,
      "Ġleave": 3020,
      "Ġder": 3021,
      "Ġlab": 3022,
      "Ġcontact": 3023,
      "atively": 3024,
      "ĠCollege": 3025,
      "ray": 3026,
      "Ġwrong": 3027,
      "olk": 3028,
      "elp": 3029,
      "ĠWhat": 3030,
      "Ġadministrators": 3031,
      "ources": 3032,
      "andid": 3033,
      "Ġunivers": 3034,
      "Ġcontrovers": 3035,
      "Ġfall": 3036,
      "ĠThat": 3037,
      "vie": 3038,
      "Ġplayers": 3039,
      "lim": 3040,
      "Ġtoday": 3041,
      "ĠBar": 3042,
      "ĠBlack": 3043,
      "Ġve": 3044,
      "ider": 3045,
      "Ġgrant": 3046,
      "head": 3047,
      "inem": 3048,
      "orks": 3049,
      "ipp": 3050,
      "Ġadop": 3051,
      "Ġspok": 3052,
      "Ġfounded": 3053,
      "Ġdistin": 3054,
      "Ġaccounts": 3055,
      "Ġprior": 3056,
      "aff": 3057,
      "mar": 3058,
      "cer": 3059,
      "ĠHist": 3060,
      "ĠMost": 3061,
      "ĠKh": 3062,
      "ĠChristian": 3063,
      "rast": 3064,
      "ampions": 3065,
      "Ġincor": 3066,
      "Ġshown": 3067,
      "Ġshows": 3068,
      "Ġproposed": 3069,
      "ML": 3070,
      "ĠNor": 3071,
      "Ġbuilt": 3072,
      "ĠMediaWiki": 3073,
      "OI": 3074,
      "ticle": 3075,
      "Ġhealth": 3076,
      "Ġfeedback": 3077,
      "ĠIr": 3078,
      "Ġmathemat": 3079,
      "Ġencour": 3080,
      "Ġ00": 3081,
      "aving": 3082,
      "Ġdomain": 3083,
      "viron": 3084,
      "atives": 3085,
      "Ġscientific": 3086,
      "ĠURL": 3087,
      "Ġimplement": 3088,
      "ences": 3089,
      "ĠWith": 3090,
      "ĠAlthough": 3091,
      "ĠAlso": 3092,
      "Ġsense": 3093,
      "ĠCre": 3094,
      "Ġcommercial": 3095,
      "Some": 3096,
      "ĠAng": 3097,
      "avy": 3098,
      "Ġcourt": 3099,
      "where": 3100,
      "Ġwatch": 3101,
      "Ġdomin": 3102,
      "Ġstop": 3103,
      "ĠFl": 3104,
      "ustom": 3105,
      "Ġelection": 3106,
      "Ġbad": 3107,
      "Ġfr": 3108,
      "ĠAccording": 3109,
      "ĠSpecial": 3110,
      "Ġchann": 3111,
      "Ġmobile": 3112,
      "--": 3113,
      "ara": 3114,
      "anda": 3115,
      "Ġoffice": 3116,
      "Ġever": 3117,
      "Ġthus": 3118,
      "Ġapply": 3119,
      "Ġreferred": 3120,
      "Ġcultural": 3121,
      "wide": 3122,
      "ows": 3123,
      "Ġpublication": 3124,
      "ridge": 3125,
      "rican": 3126,
      "Ġill": 3127,
      "iforn": 3128,
      "Ġtechnology": 3129,
      "ging": 3130,
      "ĠBro": 3131,
      "Ġnotability": 3132,
      "Ġmeas": 3133,
      "Ġgrad": 3134,
      "Ġallows": 3135,
      "iated": 3136,
      "Ġadvice": 3137,
      "Ġeth": 3138,
      "Ġarchitect": 3139,
      "Ġvolun": 3140,
      "Ġsol": 3141,
      "Ġterrit": 3142,
      "Ġbeginning": 3143,
      "inent": 3144,
      "Ġthreat": 3145,
      "Ġserious": 3146,
      "Ġreasons": 3147,
      "Ġexternal": 3148,
      "inian": 3149,
      "astern": 3150,
      "ael": 3151,
      "ergy": 3152,
      "Ġful": 3153,
      "Ġdraw": 3154,
      "Ġdisrupt": 3155,
      "dering": 3156,
      "Ġmatter": 3157,
      "User": 3158,
      "Ġri": 3159,
      "Ġge": 3160,
      "iab": 3161,
      "Ġattention": 3162,
      "Ġspecies": 3163,
      "Ġintroduced": 3164,
      "Ġmatch": 3165,
      "Ġfinanc": 3166,
      "aging": 3167,
      "Ġinitial": 3168,
      "90": 3169,
      "Ġwish": 3170,
      "Ġbig": 3171,
      "ĠFree": 3172,
      "Ġtrue": 3173,
      "Ġ1970": 3174,
      "Ġnewsp": 3175,
      "ris": 3176,
      "Ġwent": 3177,
      "Ġbit": 3178,
      "Ġhouse": 3179,
      "Ġschools": 3180,
      "Ġprobably": 3181,
      "bum": 3182,
      "upp": 3183,
      "Ġsize": 3184,
      "Ġarchive": 3185,
      "Ġdram": 3186,
      "isl": 3187,
      "Ġasked": 3188,
      "Ġhope": 3189,
      "ĠAp": 3190,
      "Ġcities": 3191,
      "itute": 3192,
      "Ġdetails": 3193,
      "OS": 3194,
      "iment": 3195,
      "Ġstub": 3196,
      "ĠNe": 3197,
      "ĠSte": 3198,
      "Ġcollect": 3199,
      "Ġaccepted": 3200,
      "ald": 3201,
      "asc": 3202,
      "ĠDraft": 3203,
      "ifornia": 3204,
      "face": 3205,
      "pen": 3206,
      "reme": 3207,
      "Ġnar": 3208,
      "Ġtea": 3209,
      "clusion": 3210,
      "Ġsouth": 3211,
      "agement": 3212,
      "ĠGl": 3213,
      "Ġliterature": 3214,
      "Ġexamples": 3215,
      "Ġpawn": 3216,
      "Ġcommonly": 3217,
      "Te": 3218,
      "aign": 3219,
      "oly": 3220,
      "writ": 3221,
      "Ġsupported": 3222,
      "Ġtechnical": 3223,
      "Ġbehavior": 3224,
      "Ġbor": 3225,
      "ticles": 3226,
      "Ġkn": 3227,
      "Ġmoves": 3228,
      "67": 3229,
      "edd": 3230,
      "ĠCath": 3231,
      "ĠLeague": 3232,
      "ĠCarol": 3233,
      "Ġmid": 3234,
      "ĠSince": 3235,
      "thern": 3236,
      "Ġvariety": 3237,
      "ĠIslam": 3238,
      "Ġlight": 3239,
      "Ġappoint": 3240,
      "vernment": 3241,
      "ww": 3242,
      "Ġnature": 3243,
      "ĠFrance": 3244,
      "ership": 3245,
      "Ġauthors": 3246,
      "oung": 3247,
      "useum": 3248,
      "66": 3249,
      "anned": 3250,
      "IS": 3251,
      "itan": 3252,
      "Ġsus": 3253,
      "anced": 3254,
      "Ġpred": 3255,
      "Ġscreen": 3256,
      "ĠSec": 3257,
      "atory": 3258,
      "ĠAg": 3259,
      "rought": 3260,
      "Ġrelationship": 3261,
      "Ġpay": 3262,
      "erson": 3263,
      "Ġuns": 3264,
      "Ġsimple": 3265,
      "Ġwitch": 3266,
      "Ġreach": 3267,
      "ĠSam": 3268,
      "Ġmodel": 3269,
      "Ġdied": 3270,
      "Ġpercent": 3271,
      "Ġdiscussions": 3272,
      "valu": 3273,
      "ĠScotland": 3274,
      "Ġsem": 3275,
      "Ġsort": 3276,
      "ĠHen": 3277,
      "link": 3278,
      "yl": 3279,
      "Ġstep": 3280,
      "Ġelements": 3281,
      "Ġdoesn": 3282,
      "Ġbuilding": 3283,
      "Ġpreviously": 3284,
      "uff": 3285,
      "ĠTu": 3286,
      "itz": 3287,
      "Ġdr": 3288,
      "Ġunc": 3289,
      "Ġcontext": 3290,
      "ought": 3291,
      "Ġtax": 3292,
      "orge": 3293,
      "Ġdat": 3294,
      "Ġstandards": 3295,
      "ĠRepublic": 3296,
      "Ġshare": 3297,
      "apers": 3298,
      "Ġdefined": 3299,
      "After": 3300,
      "Ġnatural": 3301,
      "Ġreceive": 3302,
      "do": 3303,
      "uries": 3304,
      "Ġcomplex": 3305,
      "Ġinterested": 3306,
      "Ġtools": 3307,
      "Ġlost": 3308,
      "ables": 3309,
      "Ġstructure": 3310,
      "ĠCalifornia": 3311,
      "Ġformed": 3312,
      "Ġways": 3313,
      "Ġlibrary": 3314,
      "outhern": 3315,
      "vey": 3316,
      "ĠCount": 3317,
      "ords": 3318,
      "Ġdirector": 3319,
      "Ġlooking": 3320,
      "ĠComp": 3321,
      "ampionship": 3322,
      "arth": 3323,
      "Ġremain": 3324,
      "Ġestim": 3325,
      "oney": 3326,
      ";[": 3327,
      "CC": 3328,
      "ole": 3329,
      "ortun": 3330,
      "Ġamount": 3331,
      "miss": 3332,
      "ĠNot": 3333,
      "Ġrecomm": 3334,
      "Ġcontributors": 3335,
      "fficient": 3336,
      "ĠMed": 3337,
      "Ġbenef": 3338,
      "Ġtre": 3339,
      "Ġten": 3340,
      "ĠPal": 3341,
      "aul": 3342,
      "Ġsociety": 3343,
      "ĠFilm": 3344,
      "arian": 3345,
      "iles": 3346,
      "izing": 3347,
      "Ġ04": 3348,
      "ĠBritain": 3349,
      "IP": 3350,
      "uk": 3351,
      "ipl": 3352,
      "ĠDes": 3353,
      "Ġadapt": 3354,
      "Ġaccur": 3355,
      "Ġarmy": 3356,
      "Ġregarding": 3357,
      "Ġexperienced": 3358,
      "70": 3359,
      "Ġcandid": 3360,
      "Ġaspect": 3361,
      "urg": 3362,
      "Ġideas": 3363,
      "Ġdesigned": 3364,
      "ounter": 3365,
      "Ġwhole": 3366,
      "ordin": 3367,
      "Ad": 3368,
      "min": 3369,
      "tect": 3370,
      "Ġz": 3371,
      "Ġnav": 3372,
      "ĠMag": 3373,
      "Ġmagaz": 3374,
      "ĠSim": 3375,
      "lled": 3376,
      "Ġlocated": 3377,
      "Ġelected": 3378,
      "Ġbrought": 3379,
      "Ġthing": 3380,
      "Ġargu": 3381,
      "Ġdigital": 3382,
      "Ġprincip": 3383,
      "een": 3384,
      "Ġden": 3385,
      "omp": 3386,
      "ĠCategory": 3387,
      "Ġalbum": 3388,
      "ĠAny": 3389,
      "Ġcompl": 3390,
      "ĠRober": 3391,
      "wealth": 3392,
      "Ġpoints": 3393,
      "iences": 3394,
      "Ġreplaced": 3395,
      "Ġacqu": 3396,
      "Ġbring": 3397,
      "che": 3398,
      "Ġpublis": 3399,
      "Ġentry": 3400,
      "ĠScott": 3401,
      "Ġmist": 3402,
      "Ġdyn": 3403,
      "ends": 3404,
      "Ġattacks": 3405,
      "Ġsett": 3406,
      "Ġtradition": 3407,
      "engal": 3408,
      "Ġcampaign": 3409,
      "vironment": 3410,
      "Ġvict": 3411,
      "osp": 3412,
      "Ġ1990": 3413,
      "Ġsat": 3414,
      "enced": 3415,
      "acing": 3416,
      "Ġneutral": 3417,
      "Ġclos": 3418,
      "Ġexplain": 3419,
      "Ġcited": 3420,
      "Ġcustom": 3421,
      "irth": 3422,
      "ips": 3423,
      "ĠKore": 3424,
      "formation": 3425,
      "ension": 3426,
      "Ġdecision": 3427,
      "Ġphilosoph": 3428,
      "Ġfaith": 3429,
      "Ġabs": 3430,
      "Ġ01": 3431,
      "Ġinstruct": 3432,
      "Ġscript": 3433,
      "Ġbroadcast": 3434,
      "Ġmentioned": 3435,
      "Ġpeace": 3436,
      "ronic": 3437,
      "ĠAfrican": 3438,
      "Ġcourse": 3439,
      "Ġfocus": 3440,
      "itle": 3441,
      "ĠPol": 3442,
      "Thank": 3443,
      "ĠCommittee": 3444,
      "Ġtell": 3445,
      "Ġcause": 3446,
      "Ġbasic": 3447,
      "rey": 3448,
      "ĠJew": 3449,
      "Ġmostly": 3450,
      "Ġdirected": 3451,
      "Ġcontinue": 3452,
      "Ġpaid": 3453,
      "Ġreb": 3454,
      "igation": 3455,
      "ĠOld": 3456,
      "Ġformal": 3457,
      "ecause": 3458,
      "IT": 3459,
      "Ġ2000": 3460,
      "ĠDuring": 3461,
      "haps": 3462,
      "Ġmind": 3463,
      "ĠDem": 3464,
      "ills": 3465,
      "Ġorganizations": 3466,
      "Ġchall": 3467,
      "ĠQu": 3468,
      "Ġearlier": 3469,
      "Ġgave": 3470,
      "resp": 3471,
      "cluded": 3472,
      "rug": 3473,
      "ysis": 3474,
      "Ġhighest": 3475,
      "ĠAustralia": 3476,
      "Ġstudies": 3477,
      "ifying": 3478,
      "Ġsites": 3479,
      "Ġtags": 3480,
      "Ġerrors": 3481,
      "ĠGreek": 3482,
      "61": 3483,
      "ĠPer": 3484,
      "Ġrespond": 3485,
      "ĠUkraine": 3486,
      "198": 3487,
      "Ġbelief": 3488,
      "EC": 3489,
      "Ġotherwise": 3490,
      "embly": 3491,
      "emporary": 3492,
      "ĠBengal": 3493,
      "Ġlaws": 3494,
      "known": 3495,
      "uge": 3496,
      "Ġbish": 3497,
      "Ġlower": 3498,
      "ĠNations": 3499,
      "Ġ1980": 3500,
      "Sh": 3501,
      "rest": 3502,
      "Ġtaking": 3503,
      "Ġasking": 3504,
      "Ġprimarily": 3505,
      "Please": 3506,
      "Ġvill": 3507,
      "ĠNo": 3508,
      "Ġapproach": 3509,
      "Ġparameters": 3510,
      "ĠParty": 3511,
      "ĠRichard": 3512,
      "Ġfront": 3513,
      "Ġattribut": 3514,
      "Ġmedical": 3515,
      "Ġprofessional": 3516,
      "ĠCommonwealth": 3517,
      "Ġwelcome": 3518,
      "63": 3519,
      "ĠMich": 3520,
      "ĠArt": 3521,
      "Ġhorror": 3522,
      "ĠBo": 3523,
      "Ġoffer": 3524,
      "Ġfem": 3525,
      "ude": 3526,
      "Ġstrateg": 3527,
      "ĠGeorge": 3528,
      "Ġaway": 3529,
      "Ġability": 3530,
      "ambig": 3531,
      "Ġdatab": 3532,
      "Ġaver": 3533,
      "racy": 3534,
      "Ġtitles": 3535,
      "Ġ1960": 3536,
      "Ġtroops": 3537,
      "iately": 3538,
      "such": 3539,
      "ollywood": 3540,
      "ĠDr": 3541,
      "Ġprotected": 3542,
      "Ġwikil": 3543,
      "andbox": 3544,
      "ĠLee": 3545,
      "ĠTuvalu": 3546,
      "65": 3547,
      "ĠSer": 3548,
      "Ġsuff": 3549,
      "Ġreflect": 3550,
      "Ġhighly": 3551,
      "ĠPhil": 3552,
      "sers": 3553,
      "Ġaim": 3554,
      "ises": 3555,
      "which": 3556,
      "ustic": 3557,
      "ĠAir": 3558,
      "Ġincrease": 3559,
      "well": 3560,
      "reater": 3561,
      "itable": 3562,
      "ĠSal": 3563,
      "Ġquite": 3564,
      "Ġtherefore": 3565,
      "Ġserved": 3566,
      "Ġinstitut": 3567,
      "Ġopinion": 3568,
      "Ġfinancial": 3569,
      "ana": 3570,
      "ĠCr": 3571,
      "Ġcinem": 3572,
      "Ġunless": 3573,
      "artment": 3574,
      "Ġimm": 3575,
      "Ġdispute": 3576,
      "tom": 3577,
      "ĠBC": 3578,
      "Ġsubsequ": 3579,
      "Ġnation": 3580,
      "Ġexact": 3581,
      "Ġmovie": 3582,
      "Ġground": 3583,
      "ocratic": 3584,
      "craft": 3585,
      "date": 3586,
      "ĠPage": 3587,
      "Ġsex": 3588,
      "alled": 3589,
      "anner": 3590,
      "Ġdeclined": 3591,
      "udget": 3592,
      "Ġ50": 3593,
      "ĠAssoci": 3594,
      "iest": 3595,
      "Ġremained": 3596,
      "Ġsynt": 3597,
      "ĠFranc": 3598,
      "'ll": 3599,
      "Ġdam": 3600,
      "ĠLibr": 3601,
      "Ġsoon": 3602,
      "Ġlevels": 3603,
      "Ġnumerous": 3604,
      "Ġsubstant": 3605,
      "69": 3606,
      "AS": 3607,
      "Ġchurch": 3608,
      "Ġcounty": 3609,
      "Ġoccup": 3610,
      "Ġconcerns": 3611,
      "Ġseven": 3612,
      "Ġhimself": 3613,
      "Ġestablish": 3614,
      "Ġanswer": 3615,
      "Ġancient": 3616,
      "includ": 3617,
      "Ġstage": 3618,
      "fact": 3619,
      "acific": 3620,
      "ellig": 3621,
      "Ġimmediately": 3622,
      "ĠAngel": 3623,
      "arning": 3624,
      "chan": 3625,
      "Ġmethods": 3626,
      "Ġidentif": 3627,
      "Ġpotential": 3628,
      "CO": 3629,
      "ma": 3630,
      "ĠOpen": 3631,
      "ĠAsia": 3632,
      "Ġlaunched": 3633,
      "Bot": 3634,
      "ius": 3635,
      "anger": 3636,
      "Ġwhom": 3637,
      "Ġregional": 3638,
      "gypt": 3639,
      "Ġcoverage": 3640,
      "co": 3641,
      "Ġtowards": 3642,
      "aspar": 3643,
      "Ġhon": 3644,
      "rain": 3645,
      "Ġnoted": 3646,
      "Ġimpact": 3647,
      "Thanks": 3648,
      "ĠWhite": 3649,
      "Ġsecurity": 3650,
      "Ġvolunte": 3651,
      "99": 3652,
      "rate": 3653,
      "Ġrepe": 3654,
      "ulated": 3655,
      "umn": 3656,
      "MF": 3657,
      "vere": 3658,
      "Ġcenturies": 3659,
      "Ġresources": 3660,
      "68": 3661,
      "Ġmor": 3662,
      "rief": 3663,
      "ĠCharl": 3664,
      "Ġdistrict": 3665,
      "Ġapplied": 3666,
      "ĠAngl": 3667,
      "Ġdefe": 3668,
      "ields": 3669,
      "Ġpun": 3670,
      "ĠCont": 3671,
      "Ġprograms": 3672,
      "alt": 3673,
      "Ġ2001": 3674,
      "Ġoriginally": 3675,
      "Ġensure": 3676,
      "Ġproduce": 3677,
      "Ġflood": 3678,
      "Ġunderstanding": 3679,
      "Ġappreciate": 3680,
      "Ġweek": 3681,
      "ĠCarolina": 3682,
      "Un": 3683,
      "Ġfood": 3684,
      "icit": 3685,
      "oud": 3686,
      "Ġapprox": 3687,
      "Ġdi": 3688,
      "ĠMiddle": 3689,
      "Ġupdated": 3690,
      "cies": 3691,
      "ĠMinister": 3692,
      "Ġsequ": 3693,
      "Ġlocation": 3694,
      "Ġincreased": 3695,
      "Ġson": 3696,
      "ĠThom": 3697,
      "Ġago": 3698,
      "Ġgetting": 3699,
      "Ġviews": 3700,
      "ournam": 3701,
      "Ġclaimed": 3702,
      "respond": 3703,
      ",\"": 3704,
      "lear": 3705,
      "ĠSan": 3706,
      "Ġrout": 3707,
      "ĠRobert": 3708,
      "ĠWeb": 3709,
      "Ġconstitution": 3710,
      "ength": 3711,
      "ĠAcadem": 3712,
      "lying": 3713,
      "Ġ(\"": 3714,
      "ĠLaw": 3715,
      "Ġrare": 3716,
      "Ġadvance": 3717,
      "asparov": 3718,
      "iff": 3719,
      "Ġnoticed": 3720,
      "ĠEgypt": 3721,
      "ĠGod": 3722,
      "Ġsaying": 3723,
      "Ġkilled": 3724,
      "ky": 3725,
      "ĠPark": 3726,
      "ĠCatholic": 3727,
      "idents": 3728,
      "Ġpeer": 3729,
      "Ġrecorded": 3730,
      "Ġfully": 3731,
      "den": 3732,
      "Ġtour": 3733,
      "Ġfell": 3734,
      "Ġnor": 3735,
      "rael": 3736,
      "Ġeventually": 3737,
      "Ġbreak": 3738,
      "lymp": 3739,
      "ĠMc": 3740,
      "Ġreading": 3741,
      "umbai": 3742,
      "Ġdefinition": 3743,
      "men": 3744,
      "Ġoption": 3745,
      "ĠPort": 3746,
      "Ġworked": 3747,
      "Ġcaused": 3748,
      "Ġconstruct": 3749,
      "Ġalternative": 3750,
      "Is": 3751,
      "Ġfather": 3752,
      "ĠTur": 3753,
      "ĠLou": 3754,
      "Ġresol": 3755,
      "anguage": 3756,
      "ees": 3757,
      "Ġlargely": 3758,
      "Ġlegisl": 3759,
      "elt": 3760,
      "ĠJim": 3761,
      "Ġ02": 3762,
      "Ġdecided": 3763,
      "ĠAssad": 3764,
      "ES": 3765,
      "Ġparent": 3766,
      "Ġlarger": 3767,
      "Ġlinked": 3768,
      "Ġinterview": 3769,
      "aves": 3770,
      "Ġeconomy": 3771,
      "Ġperformed": 3772,
      "Ġguideline": 3773,
      "Ġsentence": 3774,
      "Ġnomination": 3775,
      "owers": 3776,
      "Ġpoor": 3777,
      "AF": 3778,
      "estival": 3779,
      "ĠOlymp": 3780,
      "Ġinstance": 3781,
      "Ġrequests": 3782,
      "Ġdemon": 3783,
      "Ġpicture": 3784,
      "Ġstatement": 3785,
      "77": 3786,
      "Ġaware": 3787,
      "anch": 3788,
      "Ġgrowth": 3789,
      "tr": 3790,
      "Ġreform": 3791,
      "ĠSm": 3792,
      "Ġcontribute": 3793,
      "Ġdidn": 3794,
      "62": 3795,
      "inary": 3796,
      "ĠCS": 3797,
      "Ġhelpful": 3798,
      "Ġsymb": 3799,
      "Ġradio": 3800,
      ");": 3801,
      "64": 3802,
      "sp": 3803,
      "Ġlines": 3804,
      "nd": 3805,
      "oon": 3806,
      "ux": 3807,
      "ĠPacific": 3808,
      "Ġdiss": 3809,
      "Ġcolor": 3810,
      "ĠFrank": 3811,
      "phas": 3812,
      "Ġdead": 3813,
      "ĠRes": 3814,
      "Ġperman": 3815,
      "Ġactions": 3816,
      "Ġsecondary": 3817,
      "Ġsituation": 3818,
      "ĠHelp": 3819,
      "ollowing": 3820,
      "Ġ03": 3821,
      "Ġdescription": 3822,
      "Ġmessages": 3823,
      "Ġcitiz": 3824,
      "Ġindividuals": 3825,
      "ares": 3826,
      "Ġthous": 3827,
      "Ġpolice": 3828,
      "ĠLeg": 3829,
      "Ġexpert": 3830,
      "action": 3831,
      "Ġwhite": 3832,
      "tical": 3833,
      "ocracy": 3834,
      "ously": 3835,
      "Ġrequires": 3836,
      "Ġverb": 3837,
      "Ġanalysis": 3838,
      "89": 3839,
      "ĠCanada": 3840,
      "bre": 3841,
      "Ġcorrespond": 3842,
      "Ġbasis": 3843,
      "Ġrejected": 3844,
      "minist": 3845,
      "rang": 3846,
      "Ġprec": 3847,
      "no": 3848,
      "Ġfiction": 3849,
      "Ġlay": 3850,
      "Ġadvert": 3851,
      "airs": 3852,
      "ĠSovi": 3853,
      "Ġaverage": 3854,
      "OV": 3855,
      "]]": 3856,
      "Ġign": 3857,
      "ĠIm": 3858,
      "ĠGames": 3859,
      "Ġactual": 3860,
      "Ġbottom": 3861,
      "uman": 3862,
      "Ġ2004": 3863,
      "Ġlibraries": 3864,
      "lin": 3865,
      "etro": 3866,
      "ĠOx": 3867,
      "Ġauthority": 3868,
      "Ġconditions": 3869,
      "Ġmiddle": 3870,
      "ĠBer": 3871,
      "ios": 3872,
      "year": 3873,
      "icro": 3874,
      "Ġdri": 3875,
      "unt": 3876,
      "irm": 3877,
      "rack": 3878,
      "ender": 3879,
      "ibly": 3880,
      "Ġitems": 3881,
      "Ġbirth": 3882,
      "Ġbrief": 3883,
      "Ġmach": 3884,
      "Ġlingu": 3885,
      "ĠRed": 3886,
      "Ġseek": 3887,
      "75": 3888,
      "Ġreached": 3889,
      "Ġeight": 3890,
      "Ġwebsites": 3891,
      "Ġexpected": 3892,
      "nic": 3893,
      "antic": 3894,
      "star": 3895,
      "ocks": 3896,
      "Ġ06": 3897,
      "Ġbelong": 3898,
      "ĠStyle": 3899,
      "Ġcareer": 3900,
      "adesh": 3901,
      "light": 3902,
      "ned": 3903,
      "Ġ05": 3904,
      "ĠCommun": 3905,
      "Ġsurv": 3906,
      "Ġresponsible": 3907,
      "Ġscholars": 3908,
      "Ġlatter": 3909,
      "ĠTimes": 3910,
      "ĠPoe": 3911,
      "Ġemail": 3912,
      "bitration": 3913,
      "Ġmoving": 3914,
      "Ġpublishing": 3915,
      "Ġperformance": 3916,
      "ground": 3917,
      "Ġcal": 3918,
      "ĠHigh": 3919,
      "ĠMuslim": 3920,
      "edom": 3921,
      "Ġdivided": 3922,
      "Ġdisplayed": 3923,
      "Ġagreed": 3924,
      "andom": 3925,
      "Ġparties": 3926,
      "Ġusername": 3927,
      "Ġvalid": 3928,
      "ederal": 3929,
      "Ġ...": 3930,
      "Ġones": 3931,
      "etic": 3932,
      "Ġplays": 3933,
      "ression": 3934,
      "Ġmainly": 3935,
      "orial": 3936,
      "Ġrate": 3937,
      "Ġamb": 3938,
      "obox": 3939,
      "Ġopening": 3940,
      "Ġsuggested": 3941,
      "Ġcut": 3942,
      "Ġapproved": 3943,
      "98": 3944,
      "Ġedition": 3945,
      "Ġregions": 3946,
      "Ġinvasion": 3947,
      "fully": 3948,
      "Ġjournals": 3949,
      "ĠCentral": 3950,
      "Ġinstitutions": 3951,
      "with": 3952,
      "ĠDon": 3953,
      "ĠRec": 3954,
      "Ġmonarch": 3955,
      "hel": 3956,
      "Ġbillion": 3957,
      "Ġmoney": 3958,
      "ĠArch": 3959,
      "ĠIsrael": 3960,
      "Ġtravel": 3961,
      "Ġactivities": 3962,
      "leb": 3963,
      "Ġrise": 3964,
      "Ġthanks": 3965,
      "Ġformatt": 3966,
      "Ġrapid": 3967,
      "ĠLibrary": 3968,
      "By": 3969,
      "title": 3970,
      "Ġhous": 3971,
      "ĠAward": 3972,
      "ifications": 3973,
      "ĠPrice": 3974,
      "Ġwikilink": 3975,
      "ĠStud": 3976,
      "Ġenvironment": 3977,
      "Ġjob": 3978,
      "Ġsubjects": 3979,
      "Ġstarting": 3980,
      "Ġspoken": 3981,
      "NA": 3982,
      "Ġsil": 3983,
      "ĠGermany": 3984,
      "Ġreverted": 3985,
      "hold": 3986,
      "uth": 3987,
      "abeth": 3988,
      "Ġrefer": 3989,
      "Ġreader": 3990,
      "Ġminim": 3991,
      "01": 3992,
      "Ex": 3993,
      "Ġconv": 3994,
      "Ġemphas": 3995,
      "Ġmarked": 3996,
      "Ġdegree": 3997,
      "At": 3998,
      "atal": 3999,
      "roy": 4000,
      "ĠBest": 4001,
      "book": 4002,
      "Ġ@": 4003,
      "Ġinsert": 4004,
      "Ġbecoming": 4005,
      "76": 4006,
      "Ġlearning": 4007,
      "Ġgram": 4008,
      "ĠScottish": 4009,
      "ĠAngeles": 4010,
      "aur": 4011,
      "Ġnative": 4012,
      "ests": 4013,
      "ĠLos": 4014,
      "Ġqual": 4015,
      "Ġindex": 4016,
      "Ġbelieved": 4017,
      "Ġpaper": 4018,
      "arc": 4019,
      "Ġhom": 4020,
      "Ġpermission": 4021,
      "Ġclaims": 4022,
      "Ġreligion": 4023,
      "Ġsoldiers": 4024,
      "ĠAssociation": 4025,
      "78": 4026,
      "Ġvo": 4027,
      "ographic": 4028,
      "Ġhosts": 4029,
      "ĠMumbai": 4030,
      "Ġstories": 4031,
      "Ġactor": 4032,
      "Ġcoast": 4033,
      "~~": 4034,
      "Ġspread": 4035,
      "Ġstudio": 4036,
      "Ġapproximately": 4037,
      "79": 4038,
      "fect": 4039,
      "sub": 4040,
      "ister": 4041,
      "ĠFrom": 4042,
      "ĠLord": 4043,
      "Ġmechan": 4044,
      "undred": 4045,
      "ino": 4046,
      "Ġplaces": 4047,
      "izabeth": 4048,
      "Ġ31": 4049,
      "Ġversions": 4050,
      "Ġelections": 4051,
      "Ġpassed": 4052,
      "Ġwife": 4053,
      "Ġfrequently": 4054,
      "anish": 4055,
      "ĠServ": 4056,
      "Ġstre": 4057,
      "Ġflag": 4058,
      "Ġgenre": 4059,
      "06": 4060,
      "eed": 4061,
      "ula": 4062,
      "Ġdelete": 4063,
      "Ġspeedy": 4064,
      "What": 4065,
      "Ġprefix": 4066,
      "right": 4067,
      "ĠTemplate": 4068,
      "ĠRf": 4069,
      "Ġnearly": 4070,
      "poses": 4071,
      "Ġepisode": 4072,
      "fl": 4073,
      "Ġ/": 4074,
      "itted": 4075,
      "ĠCamb": 4076,
      "ĠJapanese": 4077,
      "Ġuniversities": 4078,
      "MD": 4079,
      "Ġtournam": 4080,
      "Ġcy": 4081,
      "Ġcounter": 4082,
      "Ġborn": 4083,
      "Ġlett": 4084,
      "Ġparticipation": 4085,
      "Ġkingdom": 4086,
      "ĠUkrainian": 4087,
      "Ġdemonst": 4088,
      "hire": 4089,
      "ama": 4090,
      "Ġproced": 4091,
      "top": 4092,
      "uate": 4093,
      "ĠIre": 4094,
      "ĠPri": 4095,
      "Ġseason": 4096,
      "Ġemb": 4097,
      "related": 4098,
      "Ġinstructions": 4099,
      "ĠBur": 4100,
      "ĠFirst": 4101,
      "icket": 4102,
      "Ġprogress": 4103,
      "Ġpurposes": 4104,
      "mitted": 4105,
      "Ġproposal": 4106,
      "Ġlicenses": 4107,
      "\")": 4108,
      "95": 4109,
      "Ġ07": 4110,
      "Ġidentified": 4111,
      "SE": 4112,
      "time": 4113,
      "Ġtend": 4114,
      "Ġconfirmed": 4115,
      "Ġopened": 4116,
      "Ġpositions": 4117,
      "Ġcollection": 4118,
      "Ġparticipate": 4119,
      "Ġhours": 4120,
      "Ġ1950": 4121,
      "Ġcollege": 4122,
      "Ġcircum": 4123,
      "Ġefforts": 4124,
      "Ġinput": 4125,
      "Ġsufficient": 4126,
      "ĠDay": 4127,
      "Ġbutton": 4128,
      "Ġdiscussed": 4129,
      "Ġexists": 4130,
      "ĠGold": 4131,
      "ĠKasparov": 4132,
      "Ġparl": 4133,
      "Ġtakes": 4134,
      "Ġmix": 4135,
      "ĠTV": 4136,
      "While": 4137,
      "Ġanti": 4138,
      "Ġsymbol": 4139,
      "ĠOxford": 4140,
      "100": 4141,
      "Ġsports": 4142,
      "Ġcite": 4143,
      "Ġsigned": 4144,
      "Ġmarkup": 4145,
      "ĠEdward": 4146,
      "mes": 4147,
      "Ġclearly": 4148,
      "Ġeasily": 4149,
      "Ġreplace": 4150,
      "Ġexpanded": 4151,
      "ĠMichael": 4152,
      "space": 4153,
      "inn": 4154,
      "Ġgang": 4155,
      "Ġwithd": 4156,
      "ultural": 4157,
      "ĠAcademy": 4158,
      "ih": 4159,
      "Ġ.": 4160,
      "ĠPeter": 4161,
      "acc": 4162,
      "iance": 4163,
      "ĠRev": 4164,
      "Ġspecifically": 4165,
      "Ġpresented": 4166,
      "Ġchannel": 4167,
      "Ġfire": 4168,
      "ĠStreet": 4169,
      "Ġattract": 4170,
      "Ġassess": 4171,
      "onym": 4172,
      "Ġadopted": 4173,
      "AR": 4174,
      "Ġgreater": 4175,
      "Ġcomes": 4176,
      "}},": 4177,
      "Ġwondering": 4178,
      "Ġarchitecture": 4179,
      "Ġrevision": 4180,
      "entially": 4181,
      "Ġarri": 4182,
      "Ġnetworks": 4183,
      "appro": 4184,
      "urban": 4185,
      "Ġachieve": 4186,
      "ĠSoviet": 4187,
      "ech": 4188,
      "hing": 4189,
      "ena": 4190,
      "ĠDep": 4191,
      "ĠSecond": 4192,
      "Ġagreement": 4193,
      "iability": 4194,
      "ambiguation": 4195,
      "eal": 4196,
      "mon": 4197,
      "Ġ#": 4198,
      "Ġsan": 4199,
      "Ġinn": 4200,
      "ĠOl": 4201,
      "Ġconsum": 4202,
      "Ġproviding": 4203,
      "Ġ09": 4204,
      "Ġprocesses": 4205,
      "Ġcompletely": 4206,
      "Ġjoined": 4207,
      "IDE": 4208,
      "pir": 4209,
      "Ġarts": 4210,
      "ĠEastern": 4211,
      "rie": 4212,
      "bert": 4213,
      "ĠThomas": 4214,
      "Ġexplan": 4215,
      "Ġbehind": 4216,
      "Ġeffects": 4217,
      "Ġquickly": 4218,
      "CS": 4219,
      "round": 4220,
      "Ġyoung": 4221,
      "Ġcomedy": 4222,
      "aker": 4223,
      "88": 4224,
      "ugh": 4225,
      "otte": 4226,
      "agraph": 4227,
      "ĠMain": 4228,
      "Ġsche": 4229,
      "Ġyourself": 4230,
      "Ġreviews": 4231,
      "ullen": 4232,
      "Ġreturned": 4233,
      "ĠSup": 4234,
      "ghan": 4235,
      "Ġremains": 4236,
      "Ġextended": 4237,
      "ĠElizabeth": 4238,
      "Ġawarded": 4239,
      "ĠIreland": 4240,
      "ading": 4241,
      "Ġprose": 4242,
      "Ġdoub": 4243,
      "ustice": 4244,
      "Ġcinema": 4245,
      "ĠLouis": 4246,
      "ĠCons": 4247,
      "ĠHT": 4248,
      "Ġvote": 4249,
      "Ġunique": 4250,
      "prof": 4251,
      "iliar": 4252,
      "ĠTurk": 4253,
      "ĠMac": 4254,
      "Ġchief": 4255,
      "Ġplaying": 4256,
      "Ġfixed": 4257,
      "Ġaudience": 4258,
      "Ġdouble": 4259,
      "Ġnorthern": 4260,
      "ĠSun": 4261,
      "Ġquant": 4262,
      "Ġgranted": 4263,
      "war": 4264,
      "utes": 4265,
      "ĠBel": 4266,
      "Ġinfluenced": 4267,
      "Ġphysical": 4268,
      "oring": 4269,
      "ington": 4270,
      "Ġmission": 4271,
      "Ġloss": 4272,
      "Ġ2003": 4273,
      "Ġband": 4274,
      "ander": 4275,
      "ĠGovernment": 4276,
      "Ġdistinct": 4277,
      "ements": 4278,
      "Ġobvious": 4279,
      "leges": 4280,
      "87": 4281,
      "agon": 4282,
      "ĠMr": 4283,
      "ĠRiver": 4284,
      "ĠIts": 4285,
      "Ġguide": 4286,
      "Ġnominated": 4287,
      "Cl": 4288,
      "bot": 4289,
      "Ġliber": 4290,
      "Ġresolution": 4291,
      "Ġmyself": 4292,
      "Ġassum": 4293,
      "Ġextra": 4294,
      "Ġredirects": 4295,
      ":[": 4296,
      "ha": 4297,
      "Ġcoup": 4298,
      "ĠBud": 4299,
      "Ġris": 4300,
      "Ġtrust": 4301,
      "Ġmeant": 4302,
      "Ġserve": 4303,
      "Ġposted": 4304,
      "Ġvalues": 4305,
      "Ġdialect": 4306,
      "85": 4307,
      "During": 4308,
      "Sc": 4309,
      "change": 4310,
      "Ġgives": 4311,
      "ulations": 4312,
      "Ġcontrast": 4313,
      "Ġneigh": 4314,
      "Ġobt": 4315,
      "Ġacceptable": 4316,
      "Ġceleb": 4317,
      "ĠHenry": 4318,
      "Be": 4319,
      "Ġbal": 4320,
      "ille": 4321,
      "irl": 4322,
      "Ġroy": 4323,
      "Ġaspects": 4324,
      "We": 4325,
      "more": 4326,
      "Ġwa": 4327,
      "ette": 4328,
      "Ġphr": 4329,
      "Ġextreme": 4330,
      "ĠConst": 4331,
      "Ġdescribe": 4332,
      "ĠOrgan": 4333,
      "Ġhundred": 4334,
      "ids": 4335,
      "ĠQue": 4336,
      "Ġcompleted": 4337,
      "Ġoccurred": 4338,
      "Ġappointed": 4339,
      "ĠMass": 4340,
      "Ġfamous": 4341,
      "Ġcontroversial": 4342,
      "Ġclean": 4343,
      "Ġinitially": 4344,
      "Ġletter": 4345,
      "72": 4346,
      "Ġtrack": 4347,
      "Ġfacts": 4348,
      "Ġprominent": 4349,
      "ĠPrince": 4350,
      "ĠTw": 4351,
      "ĠSociety": 4352,
      "Ġ08": 4353,
      "Ġentered": 4354,
      "Ġtraining": 4355,
      "Ass": 4356,
      "OC": 4357,
      "ĠSir": 4358,
      "Ġgiving": 4359,
      "Ġperhaps": 4360,
      "ĠAssembly": 4361,
      "Ġopposition": 4362,
      "92": 4363,
      "See": 4364,
      "Ġinterp": 4365,
      "ĠProt": 4366,
      "Ġmaintain": 4367,
      "uel": 4368,
      "onent": 4369,
      "ĠPre": 4370,
      "Ġjoin": 4371,
      "02": 4372,
      "atu": 4373,
      "Ġcross": 4374,
      "sex": 4375,
      "Ġusage": 4376,
      "Ġintellig": 4377,
      "Ġroles": 4378,
      "Ġcorpor": 4379,
      "Ġaddresses": 4380,
      "ening": 4381,
      "encies": 4382,
      "add": 4383,
      "ĠHall": 4384,
      "Ġund": 4385,
      "Ġphilosophy": 4386,
      "Ġchallen": 4387,
      "ij": 4388,
      "Ġisn": 4389,
      "Ġselect": 4390,
      "Ġremoving": 4391,
      "Ġregistered": 4392,
      "Ġfields": 4393,
      "phab": 4394,
      "ressed": 4395,
      "Ġcombined": 4396,
      "73": 4397,
      "94": 4398,
      "joy": 4399,
      "Ġreve": 4400,
      "Ġparagraph": 4401,
      "Ġcommunication": 4402,
      "protect": 4403,
      "Ġsquare": 4404,
      "81": 4405,
      "Many": 4406,
      "imin": 4407,
      "Ġsomew": 4408,
      "Ġdemand": 4409,
      "Arch": 4410,
      "ĠHistory": 4411,
      "ya": 4412,
      "Ġlength": 4413,
      "ĠSum": 4414,
      "claim": 4415,
      "fered": 4416,
      "Ġpron": 4417,
      "ĠCounty": 4418,
      "Ġcitizens": 4419,
      "93": 4420,
      "part": 4421,
      "Ġmere": 4422,
      "Ġcontents": 4423,
      "Ġpublish": 4424,
      "Ġcentre": 4425,
      "Ġreviewed": 4426,
      "Ġfigure": 4427,
      "According": 4428,
      "New": 4429,
      "Ġbur": 4430,
      "ĠBattle": 4431,
      "ackson": 4432,
      "block": 4433,
      "Ġincorpor": 4434,
      "82": 4435,
      "iation": 4436,
      "Ġera": 4437,
      "enth": 4438,
      "Ġexhib": 4439,
      "que": 4440,
      "ĠAfghan": 4441,
      "ĠIII": 4442,
      "onom": 4443,
      "ĠCivil": 4444,
      "ogue": 4445,
      "Ġcontinu": 4446,
      "ON": 4447,
      "bur": 4448,
      "Ġtold": 4449,
      "ĠDef": 4450,
      "Ġarchived": 4451,
      "Ġmagazine": 4452,
      "86": 4453,
      "Ġislands": 4454,
      "ĠBen": 4455,
      "ĠSea": 4456,
      "ĠAmeric": 4457,
      "esearch": 4458,
      "Ġentirely": 4459,
      "Ġnormally": 4460,
      "Ġestimated": 4461,
      "Ġsaf": 4462,
      "aled": 4463,
      "ĠBang": 4464,
      "ĠDist": 4465,
      "ĠKe": 4466,
      "note": 4467,
      "Ġimportance": 4468,
      "Ġdocuments": 4469,
      "Ġbase": 4470,
      "Ġpersons": 4471,
      "Ġpublications": 4472,
      "rators": 4473,
      "Ġeveryone": 4474,
      "Ġsubmitted": 4475,
      "ĠIslamic": 4476,
      "91": 4477,
      "Ġnothing": 4478,
      "abled": 4479,
      "ĠCenter": 4480,
      "Ġweeks": 4481,
      "Ġtask": 4482,
      "rol": 4483,
      "roll": 4484,
      "ĠFIDE": 4485,
      "ĠChampionship": 4486,
      "Ġsmaller": 4487,
      "Ġinvolve": 4488,
      "band": 4489,
      "ken": 4490,
      "Ġcouncil": 4491,
      "Ġhop": 4492,
      "utin": 4493,
      "Ġaccused": 4494,
      "Ġwarning": 4495,
      "Ġrequested": 4496,
      "Ġapplication": 4497,
      "Ġnormal": 4498,
      "Ġdatabase": 4499,
      "03": 4500,
      "PA": 4501,
      "ago": 4502,
      "Ġstudent": 4503,
      "Ġended": 4504,
      "Ġdistribution": 4505,
      "Ġbrowser": 4506,
      "One": 4507,
      "Ġfif": 4508,
      "ĠMore": 4509,
      "Ġimpl": 4510,
      "Ġdespite": 4511,
      "Ġfollows": 4512,
      "ologies": 4513,
      "ĠAnother": 4514,
      "hens": 4515,
      "ĠWikipedians": 4516,
      "71": 4517,
      "Since": 4518,
      "astic": 4519,
      "Ġconvers": 4520,
      "Ġweap": 4521,
      "ĠVal": 4522,
      "Ġadministrative": 4523,
      "Ġcircumst": 4524,
      "97": 4525,
      "DP": 4526,
      "Ġgold": 4527,
      "Ġstaff": 4528,
      "Ġreports": 4529,
      "Ġpictures": 4530,
      "language": 4531,
      "ties": 4532,
      "vation": 4533,
      "alse": 4534,
      "Ġgraph": 4535,
      "ĠBecause": 4536,
      "Ġ2002": 4537,
      "Ġworldwide": 4538,
      "Ġexplicit": 4539,
      "Ġopportun": 4540,
      "Ġeasier": 4541,
      "84": 4542,
      "pread": 4543,
      "Ġment": 4544,
      "url": 4545,
      "Ġworth": 4546,
      "aching": 4547,
      "Ġshowing": 4548,
      "Ġindependence": 4549,
      "Ġpattern": 4550,
      "83": 4551,
      "Ġspl": 4552,
      "isual": 4553,
      "Ġwides": 4554,
      "force": 4555,
      "Ġoperations": 4556,
      "Ġfailed": 4557,
      "96": 4558,
      "Can": 4559,
      "Se": 4560,
      "ĠAut": 4561,
      "cean": 4562,
      "Ġclub": 4563,
      "Ġspir": 4564,
      "anufact": 4565,
      "Ġallowing": 4566,
      "Ġparliament": 4567,
      "Ġbattle": 4568,
      "Ġvary": 4569,
      "Ġunits": 4570,
      "Ġbiography": 4571,
      "Ġrepresented": 4572,
      "Ġrunning": 4573,
      "Ġinterpret": 4574,
      "My": 4575,
      "eties": 4576,
      "Ġcompared": 4577,
      "Ġclosed": 4578,
      "Ġleaders": 4579,
      "Ġpractices": 4580,
      "Ġrecords": 4581,
      "Ġbuildings": 4582,
      "Ġethnic": 4583,
      "Ġprinciples": 4584,
      "Ġsandbox": 4585,
      "ĠLic": 4586,
      "izes": 4587,
      "Ġenergy": 4588,
      "ictor": 4589,
      "Ġprem": 4590,
      "everal": 4591,
      "Ġroyal": 4592,
      "Ġball": 4593,
      "Ġbeg": 4594,
      "ĠTheatre": 4595,
      "Ġgoal": 4596,
      "ĠAustralian": 4597,
      "ĠCharlotte": 4598,
      "Ġtheat": 4599,
      "Ġhar": 4600,
      "ĠFin": 4601,
      "Ġcompos": 4602,
      "Ġbrother": 4603,
      "Ġupdate": 4604,
      "ĠMalays": 4605,
      "Ġsemi": 4606,
      "Do": 4607,
      "cle": 4608,
      "Ġlove": 4609,
      "ulf": 4610,
      "Ġdispl": 4611,
      "Ġraised": 4612,
      "Ġsettle": 4613,
      "Ġleader": 4614,
      "Ġidentify": 4615,
      "Ġeasy": 4616,
      "ĠEncyclop": 4617,
      "ĠCongress": 4618,
      "aughter": 4619,
      "Ġrepeated": 4620,
      "Not": 4621,
      "So": 4622,
      "hab": 4623,
      "icate": 4624,
      "uris": 4625,
      "Ġaffected": 4626,
      "04": 4627,
      "atters": 4628,
      "Ġmaterials": 4629,
      "ĠSystem": 4630,
      "Ġolder": 4631,
      "Although": 4632,
      "ĠSuch": 4633,
      "quart": 4634,
      "ibl": 4635,
      "Ġrelatively": 4636,
      "Ġagree": 4637,
      "uclear": 4638,
      "Ġcritical": 4639,
      "Ġresearc": 4640,
      "Ġactivity": 4641,
      "Ġassistance": 4642,
      "AT": 4643,
      "Ġinternet": 4644,
      "Ġrevert": 4645,
      "Ġshared": 4646,
      "Ġsole": 4647,
      "ĠYear": 4648,
      "idden": 4649,
      "Ġesc": 4650,
      "Ġproperty": 4651,
      "Ġillust": 4652,
      "Ġcovered": 4653,
      "Ġthread": 4654,
      "ĠAre": 4655,
      "Ġresulted": 4656,
      "Ġmanagement": 4657,
      "Ġphoto": 4658,
      "74": 4659,
      "Ġbey": 4660,
      "ouns": 4661,
      "Ġadj": 4662,
      "anges": 4663,
      "Ġdecades": 4664,
      "Ġarchives": 4665,
      "Ġdisag": 4666,
      "lete": 4667,
      "Ġactors": 4668,
      "Cont": 4669,
      "Note": 4670,
      "atform": 4671,
      "ĠMor": 4672,
      "Ġinfobox": 4673,
      "Ġmeeting": 4674,
      "Ġbeyond": 4675,
      "ped": 4676,
      "ref": 4677,
      "Ġinternal": 4678,
      "Ġmanufact": 4679,
      "Ġagric": 4680,
      "Ġinstitution": 4681,
      "Ġtransf": 4682,
      "ographical": 4683,
      "ĠIsland": 4684,
      "operation": 4685,
      "hood": 4686,
      "load": 4687,
      "ico": 4688,
      "ĠAlex": 4689,
      "ĠFore": 4690,
      "Ġclar": 4691,
      "atty": 4692,
      "Ġreput": 4693,
      "Ġadministration": 4694,
      "Ġdestroy": 4695,
      "Ġthousands": 4696,
      "SF": 4697,
      "ĠPublic": 4698,
      "Ġpositive": 4699,
      "Ġdeveloping": 4700,
      "Ġvisible": 4701,
      "ĠAdd": 4702,
      "Ġresolve": 4703,
      "pages": 4704,
      "sing": 4705,
      "Ġdates": 4706,
      "illed": 4707,
      "Ġunit": 4708,
      "Ġengineering": 4709,
      "Ġlooks": 4710,
      "Ġterritory": 4711,
      "Ġoffered": 4712,
      "ĠRom": 4713,
      "Ġvoc": 4714,
      "akistan": 4715,
      "Ġscen": 4716,
      "Ġprinted": 4717,
      "Ġfigures": 4718,
      "ĠHTML": 4719,
      "Ġcell": 4720,
      "Ġenjoy": 4721,
      "Ġofficially": 4722,
      "He": 4723,
      "Ġir": 4724,
      "Ġult": 4725,
      "Ġprop": 4726,
      "Ġrandom": 4727,
      "Ġfunctions": 4728,
      "Ġdepict": 4729,
      "Ġlimit": 4730,
      "ĠMuseum": 4731,
      "Ġsup": 4732,
      "Ġmov": 4733,
      "Ġselected": 4734,
      "),[": 4735,
      "Ġsubsc": 4736,
      "ĠArticle": 4737,
      "Ġartist": 4738,
      "Ġwidespread": 4739,
      "Ġbudget": 4740,
      "elled": 4741,
      "ĠCommission": 4742,
      "Ġvisual": 4743,
      "Ġnewspaper": 4744,
      "Ġfemale": 4745,
      "Ġpermanent": 4746,
      "names": 4747,
      "Ġbold": 4748,
      "Ġmill": 4749,
      "Ġsty": 4750,
      "Ġdeploy": 4751,
      "Ġeval": 4752,
      "Ġapparent": 4753,
      "Ġdetect": 4754,
      "Ġchoose": 4755,
      "Ġformatting": 4756,
      "igr": 4757,
      "ocol": 4758,
      "ulture": 4759,
      "Ġapproval": 4760,
      "Ġstatements": 4761,
      "Ġearliest": 4762,
      "Ġincreasingly": 4763,
      "05": 4764,
      "07": 4765,
      "ladesh": 4766,
      "Ġforced": 4767,
      "ĠSur": 4768,
      "asty": 4769,
      "Ġconstruction": 4770,
      "Ġannual": 4771,
      "Ġhyp": 4772,
      "ĠCompany": 4773,
      "Ġdance": 4774,
      "Ġeast": 4775,
      "etry": 4776,
      "ĠHam": 4777,
      "ĠHollywood": 4778,
      "Ġcontract": 4779,
      "Ġsurround": 4780,
      "Ġoptions": 4781,
      "ushing": 4782,
      "Ġfighting": 4783,
      "Ġletters": 4784,
      "08": 4785,
      "II": 4786,
      "lar": 4787,
      "oo": 4788,
      "yp": 4789,
      "Ġwoman": 4790,
      "Ġhol": 4791,
      "ĠAnt": 4792,
      "antly": 4793,
      "akers": 4794,
      "ĠJackson": 4795,
      "ava": 4796,
      "Ġdiscovered": 4797,
      "Ġentries": 4798,
      "Ġbishop": 4799,
      "Ġcircumstances": 4800,
      "Ġtri": 4801,
      "Ġaid": 4802,
      "oday": 4803,
      "}}.": 4804,
      "Ġverif": 4805,
      "cial": 4806,
      "mark": 4807,
      "Ġwestern": 4808,
      "ĠHaw": 4809,
      "ĠAnn": 4810,
      "Ġfootball": 4811,
      "Ġexecutive": 4812,
      "Ġpowers": 4813,
      "Ġminister": 4814,
      "asks": 4815,
      "ĠInter": 4816,
      "oke": 4817,
      "Ġthank": 4818,
      "ripts": 4819,
      "Ġrequirements": 4820,
      "ĠInstitute": 4821,
      "ĠCambridge": 4822,
      "IC": 4823,
      "ship": 4824,
      "ĠĠĊ": 4825,
      "Ġmanner": 4826,
      "Ġreply": 4827,
      "ented": 4828,
      "ift": 4829,
      "ĠEs": 4830,
      "osen": 4831,
      "Ġchanging": 4832,
      "ographies": 4833,
      "Ġdemocracy": 4834,
      "Ġmagic": 4835,
      "ĠGermanic": 4836,
      "Ġdetermine": 4837,
      "Ġurban": 4838,
      "ĠJo": 4839,
      "Ġleaving": 4840,
      "ieval": 4841,
      "Ġrail": 4842,
      "Ġcritics": 4843,
      "Ġ[[": 4844,
      "including": 4845,
      "field": 4846,
      "ini": 4847,
      "Ġoil": 4848,
      "Ġwind": 4849,
      "stream": 4850,
      "class": 4851,
      "Ġconsult": 4852,
      "Ġoutput": 4853,
      "Ġvirt": 4854,
      "zz": 4855,
      "Ġtrib": 4856,
      "Ġsens": 4857,
      "Ġcouple": 4858,
      "Ġsouthern": 4859,
      "Ġbomb": 4860,
      "ĠBook": 4861,
      "Ġshot": 4862,
      "Ġassigned": 4863,
      "Ġextensive": 4864,
      "Ġanaly": 4865,
      "ores": 4866,
      "ĠEven": 4867,
      "Ġdesk": 4868,
      "Ġhelping": 4869,
      "anuatu": 4870,
      "Ġmusical": 4871,
      "Ġeastern": 4872,
      "ĠRfC": 4873,
      "All": 4874,
      "Ġforward": 4875,
      "ounder": 4876,
      "aches": 4877,
      "Ġspeech": 4878,
      "Ġbound": 4879,
      "Ġbank": 4880,
      "ĠPakistan": 4881,
      "Ġinte": 4882,
      "Ġ40": 4883,
      "Ġindustrial": 4884,
      "Ġteams": 4885,
      "ĠDoctor": 4886,
      "Teahouse": 4887,
      "set": 4888,
      "spe": 4889,
      "Ġwit": 4890,
      "Ġfalse": 4891,
      "Ġalphab": 4892,
      "Ġenter": 4893,
      "Ġcommunities": 4894,
      "Ġresulting": 4895,
      "ĠPrime": 4896,
      "Ġexpressed": 4897,
      "Ġrespectively": 4898,
      "Ġspeakers": 4899,
      "ĠKorea": 4900,
      "],": 4901,
      "iography": 4902,
      "Ġnations": 4903,
      "cell": 4904,
      "ĠDan": 4905,
      "ĠUg": 4906,
      "Ġdisambiguation": 4907,
      "Ġ1999": 4908,
      "Ġeverything": 4909,
      "century": 4910,
      "Ġproducts": 4911,
      "Ġranked": 4912,
      "Ġpen": 4913,
      "ĠBas": 4914,
      "ĠPaul": 4915,
      "ĠHuman": 4916,
      "ĠLa": 4917,
      "active": 4918,
      "Ġcommission": 4919,
      "aval": 4920,
      "Ġcopyrighted": 4921,
      "Ġoldest": 4922,
      "Ġgreatly": 4923,
      "Ġuploaded": 4924,
      "Ġdisputes": 4925,
      "Talk": 4926,
      "Ġbatt": 4927,
      "aming": 4928,
      "osing": 4929,
      "Ġsen": 4930,
      "orry": 4931,
      "Ġmother": 4932,
      "level": 4933,
      "ste": 4934,
      "ĠVir": 4935,
      "Ġacting": 4936,
      "Ġrefers": 4937,
      "Ġcontributed": 4938,
      "gram": 4939,
      "oul": 4940,
      "urrent": 4941,
      "ĠMary": 4942,
      "Ġcompar": 4943,
      "itionally": 4944,
      "Ġdistingu": 4945,
      "Ġapplies": 4946,
      "RE": 4947,
      "ulate": 4948,
      "Ġqueen": 4949,
      "ollo": 4950,
      "Ġhelped": 4951,
      "Ġengines": 4952,
      "iverse": 4953,
      "FA": 4954,
      "OT": 4955,
      "aily": 4956,
      "Ġfelt": 4957,
      "ĠCullen": 4958,
      "berg": 4959,
      "Ġcenter": 4960,
      "Ġcoordin": 4961,
      "Ġfourth": 4962,
      "Ġdeclared": 4963,
      "Ġargued": 4964,
      "Ġfreedom": 4965,
      "Ġmissing": 4966,
      "Ġepisodes": 4967,
      "Ġpsychology": 4968,
      "Ġmathematics": 4969,
      "ĠService": 4970,
      "Engl": 4971,
      "Ġarrang": 4972,
      "Ġheavi": 4973,
      "Ġjuris": 4974,
      "Ġprep": 4975,
      "Ġremov": 4976,
      "Ġfamiliar": 4977,
      "Ġut": 4978,
      "itude": 4979,
      "ĠSom": 4980,
      "ĠResearch": 4981,
      "Ġplatform": 4982,
      "Ġdiscour": 4983,
      "Ġremaining": 4984,
      "Ġroad": 4985,
      "Ġsitu": 4986,
      "Ġprefer": 4987,
      "Ġbecomes": 4988,
      "Ġsyntax": 4989,
      "ĠBangladesh": 4990,
      "pass": 4991,
      "Ġface": 4992,
      "pped": 4993,
      "Ġconsists": 4994,
      "ĠEncyclopedia": 4995,
      "Ġwest": 4996,
      "Ġpreser": 4997,
      "Ġsecret": 4998,
      "Ġcarry": 4999,
      "going": 5000,
      "Ġcriticism": 5001,
      "Ġvoice": 5002,
      "ĠDistrict": 5003,
      "Ġsoci": 5004,
      "ĠSl": 5005,
      "Ġstation": 5006,
      "iller": 5007,
      "Ġrock": 5008,
      "Ġpresence": 5009,
      "Ġsignificantly": 5010,
      "ĠPeople": 5011,
      "body": 5012,
      "gment": 5013,
      "onents": 5014,
      "usion": 5015,
      "Ġoccasion": 5016,
      "Ġlogged": 5017,
      "Ġmovies": 5018,
      "SA": 5019,
      "iring": 5020,
      "ĠGreen": 5021,
      "ograp": 5022,
      "Ġsubmission": 5023,
      "ĠVictor": 5024,
      "Ġdifferences": 5025,
      "Ġadvoc": 5026,
      "Ġadvant": 5027,
      "Ġbackground": 5028,
      "Ġsuggestions": 5029,
      "hester": 5030,
      "ĠSecret": 5031,
      "Ġsplit": 5032,
      "):": 5033,
      "kins": 5034,
      "igration": 5035,
      "ĠMark": 5036,
      "Ġvar": 5037,
      "ĠJe": 5038,
      "alls": 5039,
      "Ġtransport": 5040,
      "Ġguidance": 5041,
      "Ġdetailed": 5042,
      "ĠTwo": 5043,
      "ĠEach": 5044,
      "ĠRome": 5045,
      "Ġsupporting": 5046,
      "Ġcategor": 5047,
      "Ġheadquart": 5048,
      "Ġinvestig": 5049,
      "Ġaccurate": 5050,
      "ĠRevolution": 5051,
      "With": 5052,
      "auc": 5053,
      "Ġtasks": 5054,
      "ansion": 5055,
      "Ġblank": 5056,
      "ĠForce": 5057,
      "Ġpurch": 5058,
      "author": 5059,
      "Ġappreciated": 5060,
      "09": 5061,
      "ero": 5062,
      "Ġwriters": 5063,
      "Ġmarried": 5064,
      "Ġcarried": 5065,
      "missions": 5066,
      "Ġstreng": 5067,
      "Ġhit": 5068,
      "Ġrat": 5069,
      "Ġbias": 5070,
      "Ġalone": 5071,
      "ĠJul": 5072,
      "Ġhosted": 5073,
      "Ġattempts": 5074,
      "Ġdrama": 5075,
      "Ġmatters": 5076,
      "Ġcontaining": 5077,
      "Ġminutes": 5078,
      "Ġimproved": 5079,
      "ĠSpanish": 5080,
      "Ġdevices": 5081,
      "Ġnegot": 5082,
      "Ġsexual": 5083,
      "Draft": 5084,
      "pired": 5085,
      "Ġdedic": 5086,
      "ĠPur": 5087,
      "Ġopposed": 5088,
      "ĠGroup": 5089,
      "Ġfavor": 5090,
      "ba": 5091,
      "unc": 5092,
      "Ġste": 5093,
      "ĠFestival": 5094,
      "Ġoverall": 5095,
      "ĠĠĠĠ": 5096,
      "Ġliterary": 5097,
      "Ġrecognized": 5098,
      "Ġindicate": 5099,
      "https": 5100,
      "raq": 5101,
      "ampion": 5102,
      "Ġwriter": 5103,
      "ĠArticles": 5104,
      "error": 5105,
      "Ġequival": 5106,
      "Ġclosely": 5107,
      "isco": 5108,
      "Ġnegative": 5109,
      "mad": 5110,
      "inite": 5111,
      "icon": 5112,
      "ĠTim": 5113,
      "amples": 5114,
      "Ġcrew": 5115,
      "ĠTrans": 5116,
      "Ġfederal": 5117,
      "irds": 5118,
      "ĠPers": 5119,
      "ĠGra": 5120,
      "Ġplant": 5121,
      "Ġoperating": 5122,
      "Ġrestrictions": 5123,
      "eddah": 5124,
      "yes": 5125,
      "Ġsport": 5126,
      "Ġpoll": 5127,
      "Ġstay": 5128,
      "ivity": 5129,
      "Ġpolitics": 5130,
      "Editor": 5131,
      "ĠAmericans": 5132,
      "ĠLicense": 5133,
      "IN": 5134,
      "gor": 5135,
      "rad": 5136,
      "xi": 5137,
      "Ġpain": 5138,
      "Ġmom": 5139,
      "ott": 5140,
      "Ġstating": 5141,
      "ĠThus": 5142,
      "itext": 5143,
      "ĠNews": 5144,
      "Ġachieved": 5145,
      "iling": 5146,
      "Ġisland": 5147,
      "ston": 5148,
      "Ġproceed": 5149,
      "ĠEarth": 5150,
      "ĠGood": 5151,
      "Ġrape": 5152,
      "Ġtitled": 5153,
      "Ġcomputers": 5154,
      "Ġchoice": 5155,
      "Ġsusp": 5156,
      "328": 5157,
      "icated": 5158,
      "icians": 5159,
      "Ġgrew": 5160,
      "Ġscene": 5161,
      "Ġfinding": 5162,
      "Ġlabel": 5163,
      "AC": 5164,
      "gen": 5165,
      "hat": 5166,
      "Ġban": 5167,
      "Ġreven": 5168,
      "ether": 5169,
      "Ġcontemporary": 5170,
      "Ġgoes": 5171,
      "duc": 5172,
      "Ġwilling": 5173,
      "Ġchem": 5174,
      "Ġmainspace": 5175,
      "Ġsimpl": 5176,
      "ĠAsian": 5177,
      "Ġartists": 5178,
      "Ġinside": 5179,
      "iplom": 5180,
      "BM": 5181,
      "ters": 5182,
      "work": 5183,
      "Ġil": 5184,
      "Ġearn": 5185,
      "ĠCOI": 5186,
      "Ġenem": 5187,
      "Ġcontribution": 5188,
      "Ġanimation": 5189,
      "Ġwitchcraft": 5190,
      "Ġexactly": 5191,
      "Ġtheatre": 5192,
      "abul": 5193,
      "ĠRo": 5194,
      "ĠOff": 5195,
      "ME": 5196,
      "greg": 5197,
      "hetic": 5198,
      "oned": 5199,
      "utch": 5200,
      "Ġsuitable": 5201,
      "ĠEU": 5202,
      "Ġdise": 5203,
      "ĠYour": 5204,
      "Ġinterface": 5205,
      "ĠModern": 5206,
      "Ġcere": 5207,
      "oms": 5208,
      "ilarly": 5209,
      "ĠSen": 5210,
      "Ġchosen": 5211,
      "ession": 5212,
      "Ġprison": 5213,
      "Ġappearance": 5214,
      "Ġconcerned": 5215,
      "\"[": 5216,
      "yth": 5217,
      "iter": 5218,
      "road": 5219,
      "Ġconver": 5220,
      "ela": 5221,
      "riage": 5222,
      "ĠOb": 5223,
      "Ġintention": 5224,
      "dule": 5225,
      "Ġsets": 5226,
      "Ġissued": 5227,
      "Ġinterests": 5228,
      "Ġproperly": 5229,
      "Ġthr": 5230,
      "emic": 5231,
      "ĠHere": 5232,
      "Ġadmin": 5233,
      "Ġdepending": 5234,
      "Ġemerged": 5235,
      "From": 5236,
      "Ġpil": 5237,
      "Ġmur": 5238,
      "usc": 5239,
      "ĠBank": 5240,
      "Ġdeep": 5241,
      "Ġunf": 5242,
      "ĠJud": 5243,
      "Ġclassical": 5244,
      "ĠClass": 5245,
      "Ġconducted": 5246,
      "Ġilleg": 5247,
      "bury": 5248,
      "ĠIraq": 5249,
      "ĠCop": 5250,
      "uration": 5251,
      "pper": 5252,
      "Ġweight": 5253,
      "Ġdifference": 5254,
      "Ġauthorities": 5255,
      "iques": 5256,
      "Ġpreferred": 5257,
      "Ġremoval": 5258,
      "Ġnuclear": 5259,
      "ĠSud": 5260,
      "ĠMad": 5261,
      "ĠMet": 5262,
      "ĠRob": 5263,
      "Ġspaces": 5264,
      "ederation": 5265,
      "ĠDepartment": 5266,
      "Ġjurisd": 5267,
      "DF": 5268,
      "hand": 5269,
      "Ġtim": 5270,
      "Ġhot": 5271,
      "ĠCC": 5272,
      "ĠPict": 5273,
      "ĠHor": 5274,
      "romwell": 5275,
      "ĠFollowing": 5276,
      "Ġgrand": 5277,
      "rend": 5278,
      "Ġphotograph": 5279,
      "Ġheavily": 5280,
      "amer": 5281,
      "ĠSub": 5282,
      "ceived": 5283,
      "ĠMex": 5284,
      "Ġarm": 5285,
      "ĠFe": 5286,
      "ĠLas": 5287,
      "Ġfilter": 5288,
      "Ġcrime": 5289,
      "quests": 5290,
      "Ġtab": 5291,
      "Ġround": 5292,
      "Ġproducer": 5293,
      "Ġspeed": 5294,
      "Ġobjects": 5295,
      "Ġgrowing": 5296,
      "Ġlicensed": 5297,
      "ĠIrish": 5298,
      "ministrators": 5299,
      "publ": 5300,
      "icial": 5301,
      "Ġalt": 5302,
      "ĠPat": 5303,
      "These": 5304,
      "Ġperfect": 5305,
      "ĠVisual": 5306,
      "Ġslow": 5307,
      "Ġviolence": 5308,
      "Ġcaptured": 5309,
      "ĠMalaysia": 5310,
      "ĠSing": 5311,
      "iminal": 5312,
      "ĠList": 5313,
      "ĠJust": 5314,
      "Ġcontrolled": 5315,
      "DC": 5316,
      "source": 5317,
      "uit": 5318,
      "itage": 5319,
      "Ġdaughter": 5320,
      "Ġgain": 5321,
      "Ġremember": 5322,
      "Ġroll": 5323,
      "pective": 5324,
      "Ġdebate": 5325,
      "Ġminority": 5326,
      "ĠJewish": 5327,
      "Ġvillage": 5328,
      "Ġintelligence": 5329,
      "isms": 5330,
      "tenance": 5331,
      "Ġcopies": 5332,
      "Ġ1998": 5333,
      "Ġpossibly": 5334,
      "Ġofficers": 5335,
      "Ġexistence": 5336,
      "Ġapplications": 5337,
      "Ġdecline": 5338,
      "Ġdivision": 5339,
      "Ġdisruptive": 5340,
      "Ġcandidates": 5341,
      "Ġmachine": 5342,
      "itt": 5343,
      "olf": 5344,
      "ĠTheir": 5345,
      "irection": 5346,
      "Ġsetting": 5347,
      "Ġrefuge": 5348,
      "ĠZeal": 5349,
      "Ġregarded": 5350,
      "Ġkept": 5351,
      "Ġalongside": 5352,
      "ĠAbd": 5353,
      "ĠCongo": 5354,
      "ĠParis": 5355,
      "appropriate": 5356,
      "Assad": 5357,
      "ĠMu": 5358,
      "ĠNorthern": 5359,
      "ube": 5360,
      "arsh": 5361,
      "Ġtexts": 5362,
      "Ġsucceed": 5363,
      "Ġvisit": 5364,
      "Ġciting": 5365,
      "Ġreduce": 5366,
      "Ġencouraged": 5367,
      "Ġmeasure": 5368,
      "ĠSmith": 5369,
      "ĠQueen": 5370,
      "ĠZealand": 5371,
      "ĠASE": 5372,
      "ĠMart": 5373,
      "ĠFurther": 5374,
      "ption": 5375,
      "Ġspecified": 5376,
      "Ġblocks": 5377,
      "ĠCreative": 5378,
      "Ġexplanation": 5379,
      "ĠASEAN": 5380,
      "gl": 5381,
      "Ġer": 5382,
      "ĠCap": 5383,
      "ĠWil": 5384,
      "oking": 5385,
      "Ġpartn": 5386,
      "ashion": 5387,
      "byter": 5388,
      "ropol": 5389,
      "Ġnewspapers": 5390,
      "ĠApollo": 5391,
      "Ġintegr": 5392,
      "',": 5393,
      "rees": 5394,
      "leged": 5395,
      "ĠApp": 5396,
      "iments": 5397,
      "Ġchance": 5398,
      "Ġemp": 5399,
      "Ġviolation": 5400,
      "Ġturned": 5401,
      "arry": 5402,
      "Ġdu": 5403,
      "urs": 5404,
      "ĠBra": 5405,
      "Ġheavy": 5406,
      "Ġcontained": 5407,
      "Ġresist": 5408,
      "ĠUnder": 5409,
      "Ġcolumn": 5410,
      "Ġgovernments": 5411,
      "Ġfinally": 5412,
      "burgh": 5413,
      "stein": 5414,
      "No": 5415,
      "rical": 5416,
      "sen": 5417,
      "peare": 5418,
      "101": 5419,
      "velopment": 5420,
      "Ġdepart": 5421,
      "ĠEditors": 5422,
      "Ġreduced": 5423,
      "Ġsubsequent": 5424,
      "ishes": 5425,
      "ani": 5426,
      "Ġlived": 5427,
      "ĠTom": 5428,
      "Ġexclus": 5429,
      "Ġnewcom": 5430,
      "ĠProject": 5431,
      "Ġpromote": 5432,
      "akespeare": 5433,
      "Ġpopularity": 5434,
      "Ġeducational": 5435,
      "Ġconnected": 5436,
      "Ġopinions": 5437,
      "Ġrecommend": 5438,
      "ĠAfghanistan": 5439,
      "English": 5440,
      "col": 5441,
      "nce": 5442,
      "Ġpra": 5443,
      "Ġfine": 5444,
      "Ġrelative": 5445,
      "Ġ500": 5446,
      "ĠScience": 5447,
      "Ġ60": 5448,
      "Ġfactors": 5449,
      "Ġelement": 5450,
      "Ġstatistics": 5451,
      "Ġconnection": 5452,
      "www": 5453,
      "ĠDemocratic": 5454,
      "Ġspirit": 5455,
      "inet": 5456,
      "Ġsister": 5457,
      "orter": 5458,
      "Ġnight": 5459,
      "term": 5460,
      "index": 5461,
      "comm": 5462,
      "ĠCarl": 5463,
      "Ġgained": 5464,
      "Ġconvention": 5465,
      "rawn": 5466,
      "obot": 5467,
      "Ġexpansion": 5468,
      "Ġorganized": 5469,
      "Ġofficer": 5470,
      "Ġclasses": 5471,
      "Ġcourts": 5472,
      "Ġexception": 5473,
      "Ġelsewhere": 5474,
      "ĠCorman": 5475,
      "Ġfundam": 5476,
      "Ġincorrect": 5477,
      "FD": 5478,
      "ients": 5479,
      "rs": 5480,
      "inter": 5481,
      "only": 5482,
      "ĠEconom": 5483,
      "ĠHill": 5484,
      "ĠRad": 5485,
      "ĠNavy": 5486,
      "Ġplans": 5487,
      "Ġeditorial": 5488,
      "Ġdescribes": 5489,
      "Ġcompetition": 5490,
      "gress": 5491,
      "za": 5492,
      "oted": 5493,
      "ola": 5494,
      "ĠCromwell": 5495,
      "ĠMinist": 5496,
      "ested": 5497,
      "php": 5498,
      "Ġextent": 5499,
      "ĠTechn": 5500,
      "Ġportray": 5501,
      "Ġpublisher": 5502,
      "Ġhouses": 5503,
      "Qu": 5504,
      "point": 5505,
      "ĠTra": 5506,
      "odies": 5507,
      "Ġpreced": 5508,
      "Ġcontinues": 5509,
      "Ġeffective": 5510,
      "Ġwikitext": 5511,
      "Ġbenefit": 5512,
      "Ġrisk": 5513,
      "Ġresearchers": 5514,
      "Ġalphabet": 5515,
      "gorith": 5516,
      "'.": 5517,
      "itu": 5518,
      "ancy": 5519,
      "Ġnotation": 5520,
      "ĠInt": 5521,
      "ogs": 5522,
      "standing": 5523,
      "WikiProject": 5524,
      "Ġformats": 5525,
      "Ġdomest": 5526,
      "Ġdetermined": 5527,
      "Ġemerg": 5528,
      "iary": 5529,
      "adian": 5530,
      "ĠMos": 5531,
      "Ġvow": 5532,
      "Ġunlike": 5533,
      "Ġinfo": 5534,
      "Ġinvolves": 5535,
      "Ġmarketing": 5536,
      "</": 5537,
      "gar": 5538,
      "nel": 5539,
      "heast": 5540,
      "stood": 5541,
      "ĠMel": 5542,
      "riptions": 5543,
      "ictionary": 5544,
      "Ġtranslation": 5545,
      "Ġprinciple": 5546,
      "Bl": 5547,
      "De": 5548,
      "Im": 5549,
      "Ġcert": 5550,
      "Ġharm": 5551,
      "ĠCast": 5552,
      "ĠDu": 5553,
      "issance": 5554,
      "Ġdecide": 5555,
      "Ġdedicated": 5556,
      "CA": 5557,
      "gu": 5558,
      "hist": 5559,
      "Ġovers": 5560,
      "ĠSat": 5561,
      "ules": 5562,
      "ĠBoth": 5563,
      "ĠRel": 5564,
      "ĠLu": 5565,
      "orship": 5566,
      "Ġentertain": 5567,
      "Ġexplained": 5568,
      "Ġmodels": 5569,
      "Ġpowerful": 5570,
      "Ġslight": 5571,
      "Ġlaunch": 5572,
      "ospital": 5573,
      "lers": 5574,
      "Ġmale": 5575,
      "ims": 5576,
      "Ġarrest": 5577,
      "throp": 5578,
      "ĠLy": 5579,
      "Ġwealth": 5580,
      "ategories": 5581,
      "Ġinspired": 5582,
      "Ġdigit": 5583,
      "Ġpromoted": 5584,
      "Ġstrategy": 5585,
      "Ġcorresponding": 5586,
      "profit": 5587,
      "bed": 5588,
      "iet": 5589,
      "Ġinline": 5590,
      "unic": 5591,
      "ellect": 5592,
      "Ġrating": 5593,
      "ensions": 5594,
      "Ġthinking": 5595,
      "Ġcris": 5596,
      "Ġautomated": 5597,
      "Ġstyles": 5598,
      "dis": 5599,
      "ĠWind": 5600,
      "sect": 5601,
      "oples": 5602,
      "antry": 5603,
      "Ġdecisions": 5604,
      "Ġextension": 5605,
      "erring": 5606,
      "Ġprinting": 5607,
      "Ġaudio": 5608,
      "Ġclicking": 5609,
      "Ġsubstantial": 5610,
      "rant": 5611,
      "Ġsought": 5612,
      "Ġforum": 5613,
      "Ġimag": 5614,
      "cons": 5615,
      "ournal": 5616,
      "Ġderived": 5617,
      "Ġscenes": 5618,
      "Ġsuppl": 5619,
      "Ġaf": 5620,
      "ano": 5621,
      "anic": 5622,
      "ĠWash": 5623,
      "Ġconsequ": 5624,
      "ĠOut": 5625,
      "Ġscale": 5626,
      "Ġgenerated": 5627,
      "Ġmembership": 5628,
      "Ġshortcut": 5629,
      "Ġcorrectly": 5630,
      "ĠGrand": 5631,
      "Ġnovels": 5632,
      "bra": 5633,
      "ĠAwards": 5634,
      "Ġtheme": 5635,
      "Ġwarn": 5636,
      "Ġcapture": 5637,
      "Ġknight": 5638,
      "Ġtournament": 5639,
      "paces": 5640,
      "inburgh": 5641,
      "ivered": 5642,
      "Ġvoting": 5643,
      "Ġsuspect": 5644,
      "Ġcalc": 5645,
      "equ": 5646,
      "how": 5647,
      "ĠCE": 5648,
      "Ġgall": 5649,
      "ĠMah": 5650,
      "rome": 5651,
      "Ġreser": 5652,
      "Ġinteresting": 5653,
      "Ġsurvey": 5654,
      "Ġdynasty": 5655,
      "Ġmerely": 5656,
      "Ġweapons": 5657,
      "hi": 5658,
      "nes": 5659,
      "atures": 5660,
      "Ġdiplom": 5661,
      "ĠBill": 5662,
      "ĠJeddah": 5663,
      "Ġdoct": 5664,
      "Ġcharge": 5665,
      "Ġ1997": 5666,
      "Ġflow": 5667,
      "Ġcrimes": 5668,
      "Ġstrongly": 5669,
      "BN": 5670,
      "MA": 5671,
      "oral": 5672,
      "ĠBay": 5673,
      "Ġcoal": 5674,
      "Ġlegit": 5675,
      "Ġaddressed": 5676,
      "Ġinfluential": 5677,
      "Ġruled": 5678,
      "Ġequivalent": 5679,
      "Ġcrisis": 5680,
      "cks": 5681,
      "ĠSaint": 5682,
      "imental": 5683,
      "igen": 5684,
      "opher": 5685,
      "Ġwhereas": 5686,
      "rence": 5687,
      "Ġeffic": 5688,
      "Ġhistorian": 5689,
      "Ġmedieval": 5690,
      "Ġattempted": 5691,
      "ĠAtl": 5692,
      "Ġcivilians": 5693,
      "Ġofficials": 5694,
      "Ġtreatment": 5695,
      "ĠHistor": 5696,
      "Ġmixed": 5697,
      "west": 5698,
      "ym": 5699,
      "Ġalgorith": 5700,
      "Ġprohib": 5701,
      "ocal": 5702,
      "Ġdiscl": 5703,
      "Ġjoint": 5704,
      "Ġsciences": 5705,
      "Ġmaintenance": 5706,
      "Ġadvanced": 5707,
      "ĠShakespeare": 5708,
      "Ġhistorians": 5709,
      "aved": 5710,
      "hic": 5711,
      "ying": 5712,
      "ala": 5713,
      "Ġinappropriate": 5714,
      "Ġdrug": 5715,
      "ĠTong": 5716,
      "Ġunable": 5717,
      "anging": 5718,
      "Ġskills": 5719,
      "ĠUganda": 5720,
      "Ġsituations": 5721,
      "RO": 5722,
      "but": 5723,
      "eves": 5724,
      "eries": 5725,
      "Ġcru": 5726,
      "Ġfear": 5727,
      "agan": 5728,
      "ĠStar": 5729,
      "Ġfilmm": 5730,
      "Ġassign": 5731,
      "Ġmainstream": 5732,
      "Ġsupposed": 5733,
      "Ġhumans": 5734,
      "Ġscholarly": 5735,
      "US": 5736,
      "Ġtables": 5737,
      "Ġnine": 5738,
      "urches": 5739,
      "Ġexchange": 5740,
      "ĠNA": 5741,
      "Ġrough": 5742,
      "Ġspent": 5743,
      "Ġimproving": 5744,
      "Ġgrammar": 5745,
      "mate": 5746,
      "Ġrom": 5747,
      "Ġawards": 5748,
      "enty": 5749,
      "ilies": 5750,
      "ĠAtt": 5751,
      "ida": 5752,
      "Ġstra": 5753,
      "ems": 5754,
      "Ġarmed": 5755,
      "Ġnotably": 5756,
      "ĠEll": 5757,
      "Ġ1994": 5758,
      "ĠBefore": 5759,
      "Ġlearned": 5760,
      "Ġsongs": 5761,
      "Ġnarrative": 5762,
      "ĠFrancisco": 5763,
      "Ġadvertising": 5764,
      "etroit": 5765,
      "Ġwithdraw": 5766,
      "ĠProtest": 5767,
      "Ġadvantage": 5768,
      "IA": 5769,
      "cite": 5770,
      "ato": 5771,
      "Ġbanned": 5772,
      "Ġinclusion": 5773,
      "ador": 5774,
      "Ġplanned": 5775,
      "Ġscore": 5776,
      "Ġserver": 5777,
      "ĠHealth": 5778,
      "Ġappeal": 5779,
      "Ġcontributing": 5780,
      "Ġdiag": 5781,
      "Most": 5782,
      "Over": 5783,
      "Ġtem": 5784,
      "Ġsend": 5785,
      "Ġbibl": 5786,
      "Ġmaster": 5787,
      "ĠEng": 5788,
      "Ġspelling": 5789,
      "ĠIslands": 5790,
      "Ġexperiment": 5791,
      "Ġidentity": 5792,
      "Ġfocused": 5793,
      "Ġdocumentation": 5794,
      "Ġmaintained": 5795,
      "ĠLegobot": 5796,
      "ye": 5797,
      "Ġ=": 5798,
      "ĠNow": 5799,
      "ocon": 5800,
      "Ġpark": 5801,
      "Ġregime": 5802,
      "ception": 5803,
      "Ġconfused": 5804,
      "Ġstring": 5805,
      "arnstar": 5806,
      "Ġphotos": 5807,
      "Ġrecommended": 5808,
      "onymous": 5809,
      "TV": 5810,
      "inder": 5811,
      "arant": 5812,
      "under": 5813,
      "perial": 5814,
      "Ġmeets": 5815,
      "eban": 5816,
      "Ġlinking": 5817,
      "Ġdepend": 5818,
      "Ġbehalf": 5819,
      "Ġemployees": 5820,
      "ĠOlympic": 5821,
      "Ġmoment": 5822,
      "mas": 5823,
      "Ġminist": 5824,
      "Ġalleged": 5825,
      "ĠDam": 5826,
      "acity": 5827,
      "ĠJack": 5828,
      "ĠInc": 5829,
      "Ġcompre": 5830,
      "Ġdownload": 5831,
      "Ġintroduction": 5832,
      "case": 5833,
      "wich": 5834,
      "itled": 5835,
      "Ġnewly": 5836,
      "Ġdecade": 5837,
      "tty": 5838,
      "Ġfreely": 5839,
      "ashar": 5840,
      "Another": 5841,
      "Ġwinning": 5842,
      "Ġsteps": 5843,
      "Ġvolunteers": 5844,
      "VD": 5845,
      "Ġsolution": 5846,
      "ager": 5847,
      "ady": 5848,
      "Ġstars": 5849,
      "clude": 5850,
      "Ġpermitted": 5851,
      "Ġprice": 5852,
      "ĠClub": 5853,
      "Ġhappen": 5854,
      "However": 5855,
      "ĠWikiProjects": 5856,
      "Ġsubsequently": 5857,
      "500": 5858,
      "Ġtact": 5859,
      "Ġtrial": 5860,
      "herent": 5861,
      "ĠAIP": 5862,
      "ipal": 5863,
      "ĠnotMD": 5864,
      "Ġcoming": 5865,
      "ĠOver": 5866,
      "Ġrace": 5867,
      "Ġready": 5868,
      "Ġmatches": 5869,
      "Ġprompt": 5870,
      "Ġphrase": 5871,
      "ĠOrganization": 5872,
      "Ġverifiable": 5873,
      "Other": 5874,
      "SN": 5875,
      "Ġcatal": 5876,
      "Ġfit": 5877,
      "Ġnom": 5878,
      "imal": 5879,
      "ĠMem": 5880,
      "ĠRights": 5881,
      "ĠDirect": 5882,
      "ĠDutch": 5883,
      "Ġplacing": 5884,
      "pecific": 5885,
      "Ġ1995": 5886,
      "Ġelectronic": 5887,
      "Ġpurs": 5888,
      "Ġwatchlist": 5889,
      "Ġdamage": 5890,
      "Ġdefeated": 5891,
      "ellectual": 5892,
      "Amer": 5893,
      "Che": 5894,
      "vy": 5895,
      "oration": 5896,
      "Ġwider": 5897,
      "Ġmuseum": 5898,
      "ĠSar": 5899,
      "Ġacts": 5900,
      "Ġsyn": 5901,
      "ologists": 5902,
      "ĠArts": 5903,
      "ructure": 5904,
      "Ġtechniques": 5905,
      "ĠDespite": 5906,
      "Ġpublishers": 5907,
      "FC": 5908,
      "ati": 5909,
      "Ġcard": 5910,
      "Ġpapers": 5911,
      "Ġdro": 5912,
      "Ġongoing": 5913,
      "ureauc": 5914,
      "Ġcommittee": 5915,
      "Ġassume": 5916,
      "Ġmanually": 5917,
      "Ġparticipants": 5918,
      "Articles": 5919,
      "word": 5920,
      "ania": 5921,
      "ician": 5922,
      "utions": 5923,
      "ĠFire": 5924,
      "Ġcomposed": 5925,
      "Ġsubs": 5926,
      "Ġrecording": 5927,
      "Ġbots": 5928,
      "115": 5929,
      "Ġdistributed": 5930,
      "Ġplanning": 5931,
      "ĠIran": 5932,
      "Com": 5933,
      "vis": 5934,
      "Ġvast": 5935,
      "ĠLong": 5936,
      "Ġeditions": 5937,
      "Ġaffili": 5938,
      "ĠPlay": 5939,
      "Ġriver": 5940,
      "\",[": 5941,
      "bour": 5942,
      "Ġast": 5943,
      "Ġhier": 5944,
      "urning": 5945,
      "Ġoffensive": 5946,
      "123": 5947,
      "Ġshowed": 5948,
      "ttp": 5949,
      "notes": 5950,
      "ĠBlue": 5951,
      "grad": 5952,
      "Ġviolations": 5953,
      "Ġsummar": 5954,
      "Ġhappy": 5955,
      "Ġdrink": 5956,
      "fess": 5957,
      "Ġmap": 5958,
      "ĠTime": 5959,
      "ĠBrown": 5960,
      "Ġnotes": 5961,
      "ĠEduc": 5962,
      "ĠLife": 5963,
      "artial": 5964,
      "axim": 5965,
      "Ġapplic": 5966,
      "Any": 5967,
      "while": 5968,
      "Ġnoticeboard": 5969,
      "Ġpromotional": 5970,
      "ĠSecurity": 5971,
      "ĠWashington": 5972,
      "Go": 5973,
      "Pages": 5974,
      "Ġsal": 5975,
      "ĠSouthern": 5976,
      "ĠMur": 5977,
      "ĠHy": 5978,
      "ĠLeban": 5979,
      "ĠChic": 5980,
      "Ġoffers": 5981,
      "Ġcolleges": 5982,
      "Ġvictory": 5983,
      "Ġidentifier": 5984,
      "Ġwars": 5985,
      "ĠCamp": 5986,
      "Ġserves": 5987,
      "ĠVanuatu": 5988,
      "Ġphone": 5989,
      "ĠAfD": 5990,
      "Ġnamespaces": 5991,
      "Ġsearching": 5992,
      "Ġreceiving": 5993,
      "ĠEdinburgh": 5994,
      "Ġprogramming": 5995,
      "Ġstructures": 5996,
      "Ġcommander": 5997,
      "Ġcollaborative": 5998,
      "ĠAnglo": 5999,
      ")[": 6000,
      "TA": 6001,
      "ita": 6002,
      "alle": 6003,
      "Ġfashion": 6004,
      "Ġmount": 6005,
      "update": 6006,
      "const": 6007,
      "Ġ1991": 6008,
      "ĠAndrew": 6009,
      "Ġrend": 6010,
      "Ġordered": 6011,
      "Europe": 6012,
      "].": 6013,
      "house": 6014,
      "Ġsear": 6015,
      "ĠLuc": 6016,
      "ĠGN": 6017,
      "ĠJones": 6018,
      "Ġshoot": 6019,
      "ĠKong": 6020,
      "Ind": 6021,
      "Ġblue": 6022,
      "Ġsignature": 6023,
      "Ġposts": 6024,
      "Ġmarks": 6025,
      "Ġanimals": 6026,
      "ĠInstead": 6027,
      "ĠEssex": 6028,
      "firmed": 6029,
      "produ": 6030,
      "ville": 6031,
      "edit": 6032,
      "Ġdirection": 6033,
      "ĠSanger": 6034,
      "Ġgirl": 6035,
      "etary": 6036,
      "Ġexerc": 6037,
      "ĠFre": 6038,
      "akh": 6039,
      "ĠOcean": 6040,
      "Ġscope": 6041,
      "Ġoperation": 6042,
      "ĠArabic": 6043,
      "Ġtagged": 6044,
      "And": 6045,
      "Ġmarriage": 6046,
      "Ġcosts": 6047,
      "Ġinnov": 6048,
      "down": 6049,
      "wan": 6050,
      "Ġterror": 6051,
      "isf": 6052,
      "Ġwid": 6053,
      "othes": 6054,
      "Ġpeoples": 6055,
      "Ġmodified": 6056,
      "Ġhappened": 6057,
      "Ġresponsibility": 6058,
      "Ġsanctions": 6059,
      "Ġdialects": 6060,
      "Ġreputation": 6061,
      "gle": 6062,
      "Ġphen": 6063,
      "ĠTer": 6064,
      "ĠAD": 6065,
      "ĠSri": 6066,
      "ĠHop": 6067,
      "Ġven": 6068,
      "resents": 6069,
      "umber": 6070,
      "Ġinvolving": 6071,
      "ocument": 6072,
      "Ġmedium": 6073,
      "Ġoccurs": 6074,
      "Ġpawns": 6075,
      "Ġborder": 6076,
      "Ġacquired": 6077,
      "Ġexpertise": 6078,
      "igenous": 6079,
      "120": 6080,
      "Category": 6081,
      "Ġinhab": 6082,
      "ĠMa": 6083,
      "Ġstations": 6084,
      "Ġtrou": 6085,
      "Ġsubc": 6086,
      "Ġassert": 6087,
      "ĠReview": 6088,
      "Ġpublicly": 6089,
      "Ġcontributor": 6090,
      "Ġ90": 6091,
      "Ġnecessarily": 6092,
      "Ġvehic": 6093,
      "ĠConstitution": 6094,
      "OR": 6095,
      "last": 6096,
      "ĠRog": 6097,
      "Ġmaybe": 6098,
      "ribs": 6099,
      "Ġrook": 6100,
      "ĠForces": 6101,
      "ĠProv": 6102,
      "Ġ80": 6103,
      "Ġconcent": 6104,
      "Ġheading": 6105,
      "Ġcontroversy": 6106,
      "Ġdominant": 6107,
      "Archive": 6108,
      "SP": 6109,
      "reement": 6110,
      "Ġmand": 6111,
      "ĠCould": 6112,
      "ĠCup": 6113,
      "ĠDetroit": 6114,
      "Ġserial": 6115,
      "111": 6116,
      "Ġrefused": 6117,
      "Ġeffectively": 6118,
      "Ġwikis": 6119,
      "Ġconcepts": 6120,
      "Ġancest": 6121,
      "Ġimplemented": 6122,
      "Ġdisruption": 6123,
      "Ġsomewhat": 6124,
      "Ġlives": 6125,
      "anga": 6126,
      "Ġlisting": 6127,
      "Ġowned": 6128,
      "Ġsurpr": 6129,
      "Ġsquares": 6130,
      "Ġextremely": 6131,
      "Ġsenior": 6132,
      "ĠOffice": 6133,
      "ĠSudan": 6134,
      "mond": 6135,
      "ras": 6136,
      "review": 6137,
      "Ġsales": 6138,
      "Ġcod": 6139,
      "Ġbul": 6140,
      "igan": 6141,
      "ĠJose": 6142,
      "ĠKn": 6143,
      "Ġformally": 6144,
      "Ġinteract": 6145,
      "Ġ1996": 6146,
      "Ġfactor": 6147,
      "incent": 6148,
      "Ġanimated": 6149,
      "Ġtreated": 6150,
      "Ġbeliefs": 6151,
      "Ġopportunity": 6152,
      "Ġenemy": 6153,
      "Hey": 6154,
      "PL": 6155,
      "game": 6156,
      "Ġtheories": 6157,
      "Ġfram": 6158,
      "Ġtoward": 6159,
      "Ġmicro": 6160,
      "olute": 6161,
      "istent": 6162,
      "ĠDiv": 6163,
      "ĠLiber": 6164,
      "place": 6165,
      "Ġgoals": 6166,
      "ĠArbitration": 6167,
      "ĠReeves": 6168,
      "Ġtraffic": 6169,
      "Ġbroken": 6170,
      "Ġopponent": 6171,
      "Ġvisited": 6172,
      "Ġsummer": 6173,
      "Ġfairly": 6174,
      "Ġmathematical": 6175,
      "largest": 6176,
      "Ġheadquarters": 6177,
      "List": 6178,
      "Ġcore": 6179,
      "Ġpan": 6180,
      "also": 6181,
      "ĠBashar": 6182,
      "ĠInformation": 6183,
      "Ġrates": 6184,
      "Ġaband": 6185,
      "Ġplot": 6186,
      "Ġaccomp": 6187,
      "102": 6188,
      "ossible": 6189,
      "Ġvolunteer": 6190,
      "Ġhundreds": 6191,
      "ropolitan": 6192,
      "from": 6193,
      "rary": 6194,
      "Ġsave": 6195,
      "Ġlik": 6196,
      "Ġlif": 6197,
      "ĠWall": 6198,
      "ĠWMF": 6199,
      "Ġconven": 6200,
      "Ġneither": 6201,
      "Ġbackl": 6202,
      "Ġorganisation": 6203,
      "Ġcombination": 6204,
      "Ġattacked": 6205,
      "ĠPresbyter": 6206,
      "TOR": 6207,
      "ĠRecords": 6208,
      "Ġexplicitly": 6209,
      "ĠVirgin": 6210,
      "ĠLasso": 6211,
      "ĠVisualEditor": 6212,
      "br": 6213,
      "itarian": 6214,
      "Ġrein": 6215,
      "ĠAge": 6216,
      "ipment": 6217,
      "Ġsea": 6218,
      "Ġadult": 6219,
      "ĠUp": 6220,
      "Ġchampion": 6221,
      "peror": 6222,
      "ĠStand": 6223,
      "ĠDevelopment": 6224,
      "Ġinstru": 6225,
      "Ġrepresents": 6226,
      "Ġleadership": 6227,
      "Ġlawy": 6228,
      "efinite": 6229,
      "Ġiniti": 6230,
      "Ġequal": 6231,
      "Ġconflicts": 6232,
      "Ġexpanding": 6233,
      "Ġmistakes": 6234,
      "Ġhierarch": 6235,
      "Pr": 6236,
      "ixt": 6237,
      "rine": 6238,
      "Ġsides": 6239,
      "Ġintern": 6240,
      "amin": 6241,
      "ĠSqu": 6242,
      "ĠWould": 6243,
      "ĠHind": 6244,
      "Ġsevere": 6245,
      "lets": 6246,
      "ĠIndepend": 6247,
      "Ġcurren": 6248,
      "ventions": 6249,
      "ĠMoon": 6250,
      "Ġfunding": 6251,
      "Ġregularly": 6252,
      "Ġchannels": 6253,
      "Ġrapidly": 6254,
      "hensive": 6255,
      "ivery": 6256,
      "win": 6257,
      "inces": 6258,
      "ĠWomen": 6259,
      "ĠDVD": 6260,
      "ĠUse": 6261,
      "Ġprepar": 6262,
      "puter": 6263,
      "Ġpotentially": 6264,
      "Ġcandidate": 6265,
      "Ġdynam": 6266,
      "mod": 6267,
      "rd": 6268,
      "ila": 6269,
      "ĠCushing": 6270,
      "ĠMiss": 6271,
      "ĠEarl": 6272,
      "ĠRena": 6273,
      "access": 6274,
      "Ġprovince": 6275,
      "books": 6276,
      "Ġrecognition": 6277,
      "Ġcondem": 6278,
      "Ġfellow": 6279,
      "Ġultimately": 6280,
      "Ġsurrounding": 6281,
      "Ġphenomen": 6282,
      "uous": 6283,
      "uable": 6284,
      "Ġsust": 6285,
      "Ġfle": 6286,
      "ĠMount": 6287,
      "Ġstrug": 6288,
      "Ġchart": 6289,
      "ĠStat": 6290,
      "Ġcreator": 6291,
      "ĠWho": 6292,
      "Ġlooked": 6293,
      "Ġbrid": 6294,
      "Ġnominations": 6295,
      "Ġindicated": 6296,
      "ĠMoore": 6297,
      "Ġnavig": 6298,
      "Ġconstitutional": 6299,
      "protected": 6300,
      "ER": 6301,
      "Your": 6302,
      "Ġple": 6303,
      "Ġbodies": 6304,
      "Ġinj": 6305,
      "Ġrevers": 6306,
      "ĠJournal": 6307,
      "Ġcommitted": 6308,
      "Ġoutl": 6309,
      "Ġhelps": 6310,
      "Ġcauses": 6311,
      "Ġfamilies": 6312,
      "ĠScots": 6313,
      "Ġcolonial": 6314,
      "Ġdisplays": 6315,
      "ka": 6316,
      "Ġinsect": 6317,
      "Ġdut": 6318,
      "ĠBos": 6319,
      "Ġsevent": 6320,
      "ĠFle": 6321,
      "ĠFile": 6322,
      "ĠLank": 6323,
      "eping": 6324,
      "Ġresidents": 6325,
      "Ġenforce": 6326,
      "ildren": 6327,
      "Ġstrict": 6328,
      "ĠSpain": 6329,
      "Also": 6330,
      "ĠCorpor": 6331,
      "Ġfriendly": 6332,
      "Ġhyper": 6333,
      "Ġstarring": 6334,
      "ĠRenaissance": 6335,
      "Con": 6336,
      "born": 6337,
      "run": 6338,
      "zant": 6339,
      "itans": 6340,
      "Ġstream": 6341,
      "ishment": 6342,
      "phone": 6343,
      "Ġpretty": 6344,
      "103": 6345,
      "Ġinfantry": 6346,
      "Ġowner": 6347,
      "Ġsuggests": 6348,
      "matic": 6349,
      "Ġrequirement": 6350,
      "rastructure": 6351,
      "ĠJews": 6352,
      "Ġdomestic": 6353,
      "iant": 6354,
      "ny": 6355,
      "va": 6356,
      "reens": 6357,
      "Ġpack": 6358,
      "Ġfounder": 6359,
      "ĠTal": 6360,
      "Ġgra": 6361,
      "ĠBa": 6362,
      "Ġrational": 6363,
      "Ġattend": 6364,
      "Ġattended": 6365,
      "ĠYale": 6366,
      "Ġadvent": 6367,
      "coming": 6368,
      "Ġbrand": 6369,
      "ĠEnter": 6370,
      "Ġstarred": 6371,
      "Ġargument": 6372,
      "Ġarguments": 6373,
      "Ġfict": 6374,
      "ĠHol": 6375,
      "ĠHong": 6376,
      "Ġsector": 6377,
      "ĠRoad": 6378,
      "ĠOper": 6379,
      "104": 6380,
      "first": 6381,
      "overy": 6382,
      "wa": 6383,
      "erning": 6384,
      "Ġmental": 6385,
      "ĠAges": 6386,
      "ams": 6387,
      "ĠRaj": 6388,
      "illery": 6389,
      "ĠStep": 6390,
      "Ġending": 6391,
      "Ġtraditions": 6392,
      "ĠCanadian": 6393,
      "Ġequipment": 6394,
      "Ġcriticized": 6395,
      "Ġoccupied": 6396,
      "ĠChicago": 6397,
      "\").": 6398,
      "Des": 6399,
      "ED": 6400,
      "Ġtree": 6401,
      "atter": 6402,
      "Ġdaily": 6403,
      "asy": 6404,
      "Ġreign": 6405,
      "user": 6406,
      "Ġsourced": 6407,
      "107": 6408,
      "Ġseeing": 6409,
      "Ġexperts": 6410,
      "Ġhighlight": 6411,
      "Ġposting": 6412,
      "ĠConvention": 6413,
      "Ġprofession": 6414,
      "Ġfifth": 6415,
      "Ġdestroyed": 6416,
      "Ġillegal": 6417,
      "ĠTreat": 6418,
      "ĠPutin": 6419,
      "ĠLater": 6420,
      "Ġunknown": 6421,
      "aka": 6422,
      "ĠOf": 6423,
      "Ġtruth": 6424,
      "Ġworkers": 6425,
      "Ġunderstood": 6426,
      "Ġinvited": 6427,
      "Ġaccessible": 6428,
      "Ġencyclopedic": 6429,
      "Ġattempting": 6430,
      "Ġholds": 6431,
      "Ġfacilit": 6432,
      "Ġhardware": 6433,
      "Ġcollaboration": 6434,
      "Ġemphasis": 6435,
      "Ġchemical": 6436,
      "Ġbill": 6437,
      "ĠToday": 6438,
      "igg": 6439,
      "ĠPost": 6440,
      "ĠRock": 6441,
      "Ġchurches": 6442,
      "Ġclimate": 6443,
      "Ġboy": 6444,
      "Ġimpossible": 6445,
      "Ġoccas": 6446,
      "Ġconcerning": 6447,
      "Ġchecked": 6448,
      "ervative": 6449,
      "Ġessential": 6450,
      "Ġdistinction": 6451,
      "Ġmistake": 6452,
      "Ġliberal": 6453,
      "!!": 6454,
      "ĠCitation": 6455,
      "ĠWay": 6456,
      "istical": 6457,
      "atever": 6458,
      "ĠDid": 6459,
      "Ġintellectual": 6460,
      "Ġoverl": 6461,
      "Ġincome": 6462,
      "127": 6463,
      "ancing": 6464,
      "Ġrepresenting": 6465,
      "Ġgreatest": 6466,
      "Ġdelivery": 6467,
      "Ġpressure": 6468,
      "Ġprecise": 6469,
      "TI": 6470,
      "new": 6471,
      "ping": 6472,
      "uated": 6473,
      "Ġnone": 6474,
      "ĠMil": 6475,
      "Ġital": 6476,
      "ifies": 6477,
      "Ġ1930": 6478,
      "Ġship": 6479,
      "Ġsupports": 6480,
      "ĠByzant": 6481,
      "Ġobserved": 6482,
      "Ġdegrees": 6483,
      "ĠKorean": 6484,
      "ĠValley": 6485,
      "Ġsettlement": 6486,
      "Just": 6487,
      "tra": 6488,
      "Ġfast": 6489,
      "Ġhidden": 6490,
      "ĠFour": 6491,
      "clar": 6492,
      "Ġreviewing": 6493,
      "Ġrepresentation": 6494,
      "Ġbusinesses": 6495,
      "Ġfavour": 6496,
      "brevi": 6497,
      "Ġlayout": 6498,
      "ĠCommunity": 6499,
      "Ġec": 6500,
      "ĠSil": 6501,
      "Ġonto": 6502,
      "ĠBob": 6503,
      "ĠNote": 6504,
      "appe": 6505,
      "aven": 6506,
      "Ġspecify": 6507,
      "Ġ1993": 6508,
      "Ġthoughts": 6509,
      "Ġexisted": 6510,
      "Ġcheckmate": 6511,
      "Ġheader": 6512,
      "ĠBroad": 6513,
      "ĠGolden": 6514,
      "igrants": 6515,
      "STOR": 6516,
      "ua": 6517,
      "Ġgone": 6518,
      "igital": 6519,
      "ĠWars": 6520,
      "ĠMIT": 6521,
      "artz": 6522,
      "ĠUnivers": 6523,
      "112": 6524,
      "Ġprocessing": 6525,
      "Ġprogramme": 6526,
      "Ġpractical": 6527,
      "ĠBoard": 6528,
      "Ġdoubt": 6529,
      "vin": 6530,
      "worth": 6531,
      "Ġfolk": 6532,
      "Ġload": 6533,
      "ĠAN": 6534,
      "ĠSeveral": 6535,
      "Ġgross": 6536,
      "ĠWitch": 6537,
      "ĠMin": 6538,
      "ĠNP": 6539,
      "Ġchair": 6540,
      "Ġabst": 6541,
      "Ġprime": 6542,
      "Ġroom": 6543,
      "Ġcopied": 6544,
      "Ġinfring": 6545,
      "Ġmodify": 6546,
      "Ġtypical": 6547,
      "Ġchecking": 6548,
      "Ġmedic": 6549,
      "Ġessay": 6550,
      "Ġderiv": 6551,
      "trans": 6552,
      "Ġlinguistic": 6553,
      "Ġoccasionally": 6554,
      "rison": 6555,
      "Ġtone": 6556,
      "hew": 6557,
      "ĠDel": 6558,
      "ĠNon": 6559,
      "Ġchampionship": 6560,
      "izard": 6561,
      "Ġteaching": 6562,
      "formed": 6563,
      "apter": 6564,
      "Ġevolved": 6565,
      "text": 6566,
      "idential": 6567,
      "Ġ1971": 6568,
      "Ġregardless": 6569,
      "Ġdeliber": 6570,
      "Ġvolume": 6571,
      "Ġrenamed": 6572,
      "ĠGuard": 6573,
      "aught": 6574,
      "upport": 6575,
      "ĠCSS": 6576,
      "Ġstrength": 6577,
      "Ġwat": 6578,
      "Ġlabor": 6579,
      "ĠThen": 6580,
      "ĠBus": 6581,
      "thur": 6582,
      "Ġrich": 6583,
      "Ġinfrastructure": 6584,
      "ĠTele": 6585,
      "Ġvaluable": 6586,
      "Ġmulti": 6587,
      "Ġcapacity": 6588,
      "Ġcombat": 6589,
      "ĠMusic": 6590,
      "Ġbishops": 6591,
      "Ġrarely": 6592,
      "Ġfundamental": 6593,
      "ĠNATO": 6594,
      "Hist": 6595,
      "fil": 6596,
      "oured": 6597,
      "Ġgreen": 6598,
      "ĠWalt": 6599,
      "ĠMer": 6600,
      "ĠRem": 6601,
      "Ġ1940": 6602,
      "ĠOtt": 6603,
      "Ġweak": 6604,
      "105": 6605,
      "Ġ1975": 6606,
      "Ġlogo": 6607,
      "Ġfriends": 6608,
      "Ġrestricted": 6609,
      "Ġsettled": 6610,
      "ĠBudd": 6611,
      "Batty": 6612,
      "Don": 6613,
      "LP": 6614,
      "Ġpure": 6615,
      "igible": 6616,
      "illa": 6617,
      "Ġ1920": 6618,
      "Ġenabled": 6619,
      "Ġspam": 6620,
      "Ġgets": 6621,
      "Ġ70": 6622,
      "Ġcausing": 6623,
      "Ġfeaturing": 6624,
      "ĠDisc": 6625,
      "Ġassociation": 6626,
      "Ġtowns": 6627,
      "ĠMexico": 6628,
      "European": 6629,
      "het": 6630,
      "iled": 6631,
      "ĠMicro": 6632,
      "Ġproport": 6633,
      "Ġarms": 6634,
      "Ġshall": 6635,
      "Ġcommit": 6636,
      "Ġsched": 6637,
      "Ġserving": 6638,
      "Ġevolution": 6639,
      "Ġcovers": 6640,
      "118": 6641,
      "Ġviewed": 6642,
      "ĠConf": 6643,
      "Ġblocking": 6644,
      "Ġruns": 6645,
      "Ġsuccessfully": 6646,
      "Ġdistricts": 6647,
      "unicipal": 6648,
      "WP": 6649,
      "Ġwalk": 6650,
      "Ġbureauc": 6651,
      "Ġmut": 6652,
      "Ġearth": 6653,
      "ĠWood": 6654,
      "uls": 6655,
      "Ġproved": 6656,
      "ĠDRC": 6657,
      "ĠNetw": 6658,
      "ĠKent": 6659,
      "ĠStre": 6660,
      "106": 6661,
      "Ġcolony": 6662,
      "113": 6663,
      "Ġbranch": 6664,
      "ĠSheen": 6665,
      "Ġinvestigation": 6666,
      "Ġdebut": 6667,
      "Ġfacilities": 6668,
      "Ġlatest": 6669,
      "Ġcollections": 6670,
      "Ġsequence": 6671,
      "Ġneighbor": 6672,
      "Ġincorporated": 6673,
      "Man": 6674,
      "Ġicon": 6675,
      "ester": 6676,
      "ĠAv": 6677,
      "aded": 6678,
      "ĠMid": 6679,
      "ĠJoe": 6680,
      "ĠUs": 6681,
      "Ġdefend": 6682,
      "Ġartistic": 6683,
      "Ġmanual": 6684,
      "Ġexpression": 6685,
      "ĠRomans": 6686,
      "Ġmillions": 6687,
      "Ġentertainment": 6688,
      "ĠEducation": 6689,
      "IL": 6690,
      "rep": 6691,
      "Ġok": 6692,
      "ĠBond": 6693,
      "Ġpros": 6694,
      "quality": 6695,
      "ĠGh": 6696,
      "Ġacknow": 6697,
      "ounded": 6698,
      "Ġscripts": 6699,
      "Ġstudied": 6700,
      "ĠBritann": 6701,
      "ĠProgram": 6702,
      "Ġprofile": 6703,
      "Ġimprovement": 6704,
      "Ġprivacy": 6705,
      "Ġindicates": 6706,
      "ĠAmong": 6707,
      "Ġfailure": 6708,
      "Ġvoted": 6709,
      "Ġmeasures": 6710,
      "Ġtraditionally": 6711,
      "Ġnewcomers": 6712,
      "EN": 6713,
      "Page": 6714,
      "help": 6715,
      "Ġtheore": 6716,
      "orough": 6717,
      "Ġmaxim": 6718,
      "ĠSong": 6719,
      "ework": 6720,
      "Ġabol": 6721,
      "Ġinteg": 6722,
      "ĠKnow": 6723,
      "oldid": 6724,
      "Ġguess": 6725,
      "Ġelectric": 6726,
      "Ġconsiderable": 6727,
      "Ġportion": 6728,
      "Ġmotiv": 6729,
      "written": 6730,
      "ĠTurkey": 6731,
      "Ġchallenged": 6732,
      "ĠAlexander": 6733,
      "Ġstraight": 6734,
      "American": 6735,
      "atured": 6736,
      "Ġhuge": 6737,
      "ĠVincent": 6738,
      "ribution": 6739,
      "Ġmemory": 6740,
      "Ġ1966": 6741,
      "Ġperiods": 6742,
      "Ġbiographies": 6743,
      "Ġdelay": 6744,
      "Ġquotation": 6745,
      "Ġterritories": 6746,
      "Ġhonor": 6747,
      "Ġsolely": 6748,
      "ĠMartin": 6749,
      "Ġslightly": 6750,
      "cre": 6751,
      "des": 6752,
      "met": 6753,
      "pet": 6754,
      "uan": 6755,
      "Ġsock": 6756,
      "otion": 6757,
      "ĠAP": 6758,
      "etween": 6759,
      "ipline": 6760,
      "Ġleaves": 6761,
      "aped": 6762,
      "Ġconsc": 6763,
      "Ġ300": 6764,
      "117": 6765,
      "Ġ1989": 6766,
      "Ġdelivered": 6767,
      "Ġmerged": 6768,
      "Ġinterpretation": 6769,
      "Ġapparently": 6770,
      "ta": 6771,
      "Ġcrow": 6772,
      "ĠFA": 6773,
      "Ġunblock": 6774,
      "Ġplants": 6775,
      "Ġresource": 6776,
      "Ġaccident": 6777,
      "Ġfounding": 6778,
      "ilitary": 6779,
      "Ġrestored": 6780,
      "ĠExamples": 6781,
      "Ġoriginated": 6782,
      "Ġexceptions": 6783,
      "Ġabsolute": 6784,
      "vereign": 6785,
      "ĠRadio": 6786,
      "Ġcomprehensive": 6787,
      "inf": 6788,
      "editor": 6789,
      "Ġpath": 6790,
      "uled": 6791,
      "Ġheart": 6792,
      "resh": 6793,
      "ĠLike": 6794,
      "cles": 6795,
      "Ġrural": 6796,
      "ishop": 6797,
      "soft": 6798,
      "Ġcreative": 6799,
      "Ġends": 6800,
      "Ġretain": 6801,
      "Ġcultures": 6802,
      "ĠGovern": 6803,
      "Ġengage": 6804,
      "Ġcriminal": 6805,
      "ĠChristmas": 6806,
      "ĠEnd": 6807,
      "Ġindustries": 6808,
      "ĠSwed": 6809,
      "Ġlegislation": 6810,
      "Ġminimum": 6811,
      "ĠForeign": 6812,
      "ĠAdditionally": 6813,
      "AD": 6814,
      "YK": 6815,
      "har": 6816,
      "person": 6817,
      "Ġgender": 6818,
      "ĠFederation": 6819,
      "Ġformation": 6820,
      "Ġcalls": 6821,
      "Ġprotest": 6822,
      "Ġprotocol": 6823,
      "Ġtechnologies": 6824,
      "Ġadaptation": 6825,
      "aver": 6826,
      "called": 6827,
      "atible": 6828,
      "Ġcart": 6829,
      "Ġdark": 6830,
      "ilia": 6831,
      "Ġcomic": 6832,
      "Ġhaven": 6833,
      "ĠLand": 6834,
      "pty": 6835,
      "Ġsovereign": 6836,
      "ften": 6837,
      "Ġindefinite": 6838,
      "Ġinterpre": 6839,
      "Ġcorrupt": 6840,
      "Ġadvise": 6841,
      "Ġhistoric": 6842,
      "Ġdesignated": 6843,
      "scale": 6844,
      "Ġspecialized": 6845,
      "Ġreasonable": 6846,
      "Ġdevice": 6847,
      "Ġmagazines": 6848,
      "subst": 6849,
      "after": 6850,
      "nam": 6851,
      "rates": 6852,
      "Ġahead": 6853,
      "isher": 6854,
      "Ġcat": 6855,
      "ĠTH": 6856,
      "ĠSab": 6857,
      "ĠMatt": 6858,
      "Ġconcluded": 6859,
      "istered": 6860,
      "Ġhero": 6861,
      "ĠJava": 6862,
      "ection": 6863,
      "Ġabbrevi": 6864,
      "ĠStan": 6865,
      "Ġjustice": 6866,
      "Ġrelation": 6867,
      "Ġagencies": 6868,
      "Ġperspective": 6869,
      "Ġtalks": 6870,
      "108": 6871,
      "Ġ1992": 6872,
      "Ġprivi": 6873,
      "Ġoperate": 6874,
      "Ġcricket": 6875,
      "Ġlands": 6876,
      "Ġrenew": 6877,
      "Ġemployed": 6878,
      "Ġconstructed": 6879,
      "Ġrefugees": 6880,
      "ĠJoseph": 6881,
      "Help": 6882,
      "gener": 6883,
      "rick": 6884,
      "Ġ,": 6885,
      "emed": 6886,
      "ĠFox": 6887,
      "aked": 6888,
      "Ġsharing": 6889,
      "Ġagency": 6890,
      "print": 6891,
      "Ġincomp": 6892,
      "ĠIndones": 6893,
      "ĠShould": 6894,
      "anchester": 6895,
      "Ġconstitu": 6896,
      "ĠOnly": 6897,
      "Ġsuggestion": 6898,
      "Ġdeaths": 6899,
      "ĠPlan": 6900,
      "Ġgradually": 6901,
      "Ġdeployed": 6902,
      "Ġjurisdiction": 6903,
      "Ġcoalition": 6904,
      "hot": 6905,
      "vard": 6906,
      "Ġsn": 6907,
      "Ġcogn": 6908,
      "ĠId": 6909,
      "ĠCOV": 6910,
      "ĠFun": 6911,
      "ĠJun": 6912,
      "Ġplain": 6913,
      "Ġsubpages": 6914,
      "Ġinformal": 6915,
      "114": 6916,
      "121": 6917,
      "Ġfewer": 6918,
      "Ġoperated": 6919,
      "Ġputting": 6920,
      "Ġhandle": 6921,
      "Ġanswers": 6922,
      "Ġviruses": 6923,
      "Ġvotes": 6924,
      "Ġdealing": 6925,
      "Ġclosing": 6926,
      "ĠFrancis": 6927,
      "Ġestablishment": 6928,
      "elaide": 6929,
      "ĠPictures": 6930,
      "ĠEconomic": 6931,
      "ĠCastle": 6932,
      "ĠRoger": 6933,
      "Ġcurrency": 6934,
      "ĠCOVID": 6935,
      "Am": 6936,
      "BS": 6937,
      "Here": 6938,
      "burg": 6939,
      "Ġtut": 6940,
      "Ġmal": 6941,
      "rog": 6942,
      "style": 6943,
      "ĠBern": 6944,
      "Ġarbit": 6945,
      "opol": 6946,
      "Ġexc": 6947,
      "Ġmodule": 6948,
      "ache": 6949,
      "ĠGame": 6950,
      "ĠThree": 6951,
      "Ġconfig": 6952,
      "Ġvarieties": 6953,
      "Ġspeaking": 6954,
      "Ġoperator": 6955,
      "ercury": 6956,
      "Ġadapted": 6957,
      "Ġaccuracy": 6958,
      "Ġprocedure": 6959,
      "Ġdisease": 6960,
      "published": 6961,
      "Ġdupl": 6962,
      "uild": 6963,
      "itative": 6964,
      "Ġnotification": 6965,
      "ĠDou": 6966,
      "ichol": 6967,
      "Ġ1974": 6968,
      "Ġ1969": 6969,
      "Ġhappens": 6970,
      "Ġmissile": 6971,
      "Ġpresidential": 6972,
      "Ġtwice": 6973,
      "Ġattributed": 6974,
      "ĠPortug": 6975,
      "Ġseeking": 6976,
      "Ġenvironmental": 6977,
      "ĠProtestant": 6978,
      "ev": 6979,
      "orld": 6980,
      "abilities": 6981,
      "aks": 6982,
      "Ġundert": 6983,
      "teen": 6984,
      "Ġrow": 6985,
      "Ġtalking": 6986,
      "Ġtranscluded": 6987,
      "Ġpersonnel": 6988,
      "axon": 6989,
      "fficial": 6990,
      "Ġreverting": 6991,
      "110": 6992,
      "rin": 6993,
      "Ġath": 6994,
      "article": 6995,
      "Ġdrop": 6996,
      "ompl": 6997,
      "ĠSpe": 6998,
      "Ġgent": 6999,
      "eless": 7000,
      "Ġstor": 7001,
      "ĠBig": 7002,
      "Ġ1945": 7003,
      "Ġenh": 7004,
      "Ġpopulations": 7005,
      "Ġpersonally": 7006,
      "Ġwants": 7007,
      "Ġdrafts": 7008,
      "Ġnearby": 7009,
      "ĠEgyptian": 7010,
      "Ġreforms": 7011,
      "bs": 7012,
      "cers": 7013,
      "rations": 7014,
      "uing": 7015,
      "Ġcas": 7016,
      "ĠIT": 7017,
      "ĠEarly": 7018,
      "ĠHun": 7019,
      "umer": 7020,
      "anged": 7021,
      "Ġaccompl": 7022,
      "141": 7023,
      "posed": 7024,
      "Ġhistorically": 7025,
      "mingb": 7026,
      "ĠXML": 7027,
      "Ġopposite": 7028,
      "Ġcolonies": 7029,
      "Ġadopt": 7030,
      "ĠStein": 7031,
      "ĠGlobal": 7032,
      "making": 7033,
      "icks": 7034,
      "ingBatty": 7035,
      "ĠSocial": 7036,
      "iders": 7037,
      "ĠHung": 7038,
      "illing": 7039,
      "ĠJustice": 7040,
      "Ġran": 7041,
      "gebra": 7042,
      "Ġteac": 7043,
      "Ġparish": 7044,
      "Ġfoundation": 7045,
      "124": 7046,
      "128": 7047,
      "Ġreferring": 7048,
      "Ġleads": 7049,
      "Ġdepends": 7050,
      "Ġrepresentative": 7051,
      "Ġcampus": 7052,
      "Ġaudiences": 7053,
      "Ġsatisf": 7054,
      "Ġcertific": 7055,
      "cher": 7056,
      "han": 7057,
      "Ġod": 7058,
      "Ġsurn": 7059,
      "Ġpending": 7060,
      "Ġbes": 7061,
      "ĠRSF": 7062,
      "osit": 7063,
      "ultan": 7064,
      "Ġservers": 7065,
      "109": 7066,
      "Ġraise": 7067,
      "Ġreviewer": 7068,
      "Ġengaged": 7069,
      "Ġconsideration": 7070,
      "ĠSamar": 7071,
      "Add": 7072,
      "ught": 7073,
      "Ġrepeatedly": 7074,
      "Ġwarnings": 7075,
      "ĠHopkins": 7076,
      "Comm": 7077,
      "Main": 7078,
      "Special": 7079,
      "life": 7080,
      "vest": 7081,
      "Ġid": 7082,
      "ittle": 7083,
      "Ġcensus": 7084,
      "arp": 7085,
      "ione": 7086,
      "ĠTor": 7087,
      "umes": 7088,
      "Ġranks": 7089,
      "Ġabuse": 7090,
      "Ġsubpage": 7091,
      "icted": 7092,
      "Ġgenerate": 7093,
      "Ġsupply": 7094,
      "Ġreprodu": 7095,
      "Ġlocations": 7096,
      "ĠShow": 7097,
      "ĠProdu": 7098,
      "Ġ1979": 7099,
      "ĠOnce": 7100,
      "Ġlanding": 7101,
      "Ġuniversal": 7102,
      "Ġrelationships": 7103,
      "Ġdefeat": 7104,
      "speaking": 7105,
      "ographer": 7106,
      "Ġfictional": 7107,
      "\"),": 7108,
      "=,": 7109,
      "mers": 7110,
      "rating": 7111,
      "Ġfirm": 7112,
      "urt": 7113,
      "ĠManchester": 7114,
      "ĠEv": 7115,
      "ĠDOI": 7116,
      "Ġanywhere": 7117,
      "Ġquery": 7118,
      "Ġreliability": 7119,
      "116": 7120,
      "Ġpossess": 7121,
      "Ġ1973": 7122,
      "Ġ1978": 7123,
      "Ġobjective": 7124,
      "ĠFranklin": 7125,
      "Example": 7126,
      "ĠMinistry": 7127,
      "ĠBosn": 7128,
      "ĠLanka": 7129,
      "119": 7130,
      "BA": 7131,
      "ners": 7132,
      "oor": 7133,
      "Ġtort": 7134,
      "inations": 7135,
      "onic": 7136,
      "Ġrely": 7137,
      "Ġthumb": 7138,
      "ĠCy": 7139,
      "aya": 7140,
      "eline": 7141,
      "Ġproof": 7142,
      "Ġusual": 7143,
      "Ġselection": 7144,
      "ques": 7145,
      "ĠGDP": 7146,
      "Ġindigenous": 7147,
      "iversary": 7148,
      "Ġcalling": 7149,
      "150": 7150,
      "ĠProfess": 7151,
      "Ġwonder": 7152,
      "Ġconsidering": 7153,
      "Ġfinished": 7154,
      "Template": 7155,
      "iar": 7156,
      "oons": 7157,
      "rem": 7158,
      "arter": 7159,
      "Ġhus": 7160,
      "idata": 7161,
      "ĠWell": 7162,
      "Ġyoun": 7163,
      "that": 7164,
      "ĠHoly": 7165,
      "Ġunion": 7166,
      "ĠJSTOR": 7167,
      "ellow": 7168,
      "ruce": 7169,
      "ailing": 7170,
      "obe": 7171,
      "Ġdeleting": 7172,
      "126": 7173,
      "Ġreferenced": 7174,
      "Ġadvis": 7175,
      "ĠShaw": 7176,
      "ĠShah": 7177,
      "Ġmanaged": 7178,
      "Ġclassic": 7179,
      "Ġinvestment": 7180,
      "Ġholding": 7181,
      "ĠISBN": 7182,
      "ĠPhilipp": 7183,
      "Ġmonarchy": 7184,
      "Ġscheme": 7185,
      "Ġagricultural": 7186,
      "avalry": 7187,
      "Ġnegoti": 7188,
      "Ġrevenue": 7189,
      "iot": 7190,
      "Ġcam": 7191,
      "ĠSpace": 7192,
      "agen": 7193,
      "Ġgather": 7194,
      "Ġstuff": 7195,
      "ĠBomb": 7196,
      "iform": 7197,
      "ĠFair": 7198,
      "Ġenable": 7199,
      "Ġquote": 7200,
      "Ġdefine": 7201,
      "129": 7202,
      "Ġdirectors": 7203,
      "130": 7204,
      "Ġconstitut": 7205,
      "Ġsurface": 7206,
      "Ġclassified": 7207,
      "Ġclassification": 7208,
      "Ġrecognised": 7209,
      "Ġtreaty": 7210,
      "Ġexecuted": 7211,
      "ipped": 7212,
      "Ġdominated": 7213,
      "Ġmanufacturing": 7214,
      "ĠSecretary": 7215,
      "abulary": 7216,
      "ek": 7217,
      "gg": 7218,
      "Ġpand": 7219,
      "ros": 7220,
      "ĠAI": 7221,
      "udd": 7222,
      "asters": 7223,
      "ulty": 7224,
      "obile": 7225,
      "Ġgeneration": 7226,
      "122": 7227,
      "Ġdecre": 7228,
      "Ġflu": 7229,
      "Ġtesting": 7230,
      "Ġdialogue": 7231,
      "Ġnavigation": 7232,
      "Ġsettings": 7233,
      "ĠSupreme": 7234,
      "Ġrevealed": 7235,
      "Ġdiagram": 7236,
      ">...": 7237,
      "iny": 7238,
      "Ġwood": 7239,
      "aling": 7240,
      "Ġdiverse": 7241,
      "Ġreality": 7242,
      "ĠCat": 7243,
      "ivals": 7244,
      "outheast": 7245,
      "ails": 7246,
      "Ġblood": 7247,
      "Ġguarant": 7248,
      "Ġ1972": 7249,
      "Ġverify": 7250,
      "Ġdivisions": 7251,
      "Ġannounce": 7252,
      "Ġcredit": 7253,
      "Ġcredited": 7254,
      "uffolk": 7255,
      "include": 7256,
      "Ġwindow": 7257,
      "Ġmedicine": 7258,
      "Given": 7259,
      "aus": 7260,
      "care": 7261,
      "wer": 7262,
      "Ġcass": 7263,
      "organ": 7264,
      "isted": 7265,
      "ĠVen": 7266,
      "ĠVol": 7267,
      "Ġoffering": 7268,
      "Ġincident": 7269,
      "Ġadmins": 7270,
      "Ġelimin": 7271,
      "Ġanimal": 7272,
      "Ġmotion": 7273,
      "accur": 7274,
      "ĠPresbyterian": 7275,
      "Or": 7276,
      "law": 7277,
      "post": 7278,
      "Ġur": 7279,
      "Ġcodes": 7280,
      "ĠAz": 7281,
      "Ġconventions": 7282,
      "opy": 7283,
      "ĠPress": 7284,
      "ocation": 7285,
      "ĠThough": 7286,
      "ĠChrome": 7287,
      "inding": 7288,
      "ĠWhy": 7289,
      "Ġdepartment": 7290,
      "Ġlimits": 7291,
      "ĠManual": 7292,
      "government": 7293,
      "Ġtranslated": 7294,
      "Ġconsistent": 7295,
      "minster": 7296,
      "Ġgrounds": 7297,
      "claimed": 7298,
      "Ġearned": 7299,
      "ĠVirginia": 7300,
      "ĠBritannica": 7301,
      ">...</": 7302,
      "mal": 7303,
      "och": 7304,
      "pupp": 7305,
      "ctuation": 7306,
      "Ġarbitration": 7307,
      "Ġseats": 7308,
      "ĠFort": 7309,
      "ĠDar": 7310,
      "ĠLake": 7311,
      "ĠNichol": 7312,
      "ĠUsers": 7313,
      "Ġclient": 7314,
      "Ġpermissions": 7315,
      "Ġproducing": 7316,
      "133": 7317,
      "Ġobl": 7318,
      "Ġuserspace": 7319,
      "Ġgoods": 7320,
      "Ġprotests": 7321,
      "Ġpossibility": 7322,
      "anches": 7323,
      "Ġrevisions": 7324,
      "Ġimplementation": 7325,
      "Ġmoral": 7326,
      "ĠSuper": 7327,
      "Ġempire": 7328,
      "Ġresistance": 7329,
      "ĠTreaty": 7330,
      "Users": 7331,
      "bell": 7332,
      "ooks": 7333,
      "Ġtemporary": 7334,
      "ouch": 7335,
      "ĠICC": 7336,
      "ĠSign": 7337,
      "Ġexport": 7338,
      "ĠFred": 7339,
      "Ġintent": 7340,
      "Ġactress": 7341,
      "Ġdiscussing": 7342,
      "Ġstanding": 7343,
      "Ġ1968": 7344,
      "Ġdocumentary": 7345,
      "Requests": 7346,
      "Ġrapes": 7347,
      "Ġsilver": 7348,
      "Following": 7349,
      "fort": 7350,
      "Ġspect": 7351,
      "Ġdrawn": 7352,
      "ĠWhere": 7353,
      "ĠMarsh": 7354,
      "ogi": 7355,
      "Ġque": 7356,
      "letion": 7357,
      "Ġdefense": 7358,
      "136": 7359,
      "rator": 7360,
      "ĠTherefore": 7361,
      "Ġtermin": 7362,
      "scape": 7363,
      "appy": 7364,
      "Ġuploading": 7365,
      "ĠGeorg": 7366,
      "ĠChristianity": 7367,
      "ĠNorman": 7368,
      "Ġsucceeded": 7369,
      "ĠDuke": 7370,
      "ĠEngine": 7371,
      "Ġpandemic": 7372,
      "eenth": 7373,
      "fire": 7374,
      "iol": 7375,
      "net": 7376,
      "ria": 7377,
      "Ġtaught": 7378,
      "indu": 7379,
      "Ġpick": 7380,
      "Ġfans": 7381,
      "icious": 7382,
      "room": 7383,
      "Ġstages": 7384,
      "ĠGard": 7385,
      "osure": 7386,
      "Ġpreferences": 7387,
      "Ġaccus": 7388,
      "144": 7389,
      "Ġretained": 7390,
      "Ġretrie": 7391,
      "Ġreleases": 7392,
      "Ġtechnique": 7393,
      "Ġsignificance": 7394,
      "Ġrepresentatives": 7395,
      "ĠColumb": 7396,
      "ĠKhan": 7397,
      "Ġresponded": 7398,
      "Ġassumed": 7399,
      "Ġinvolvement": 7400,
      "Ġhypothes": 7401,
      "bon": 7402,
      "water": 7403,
      "Ġwild": 7404,
      "lem": 7405,
      "elve": 7406,
      "ĠDocument": 7407,
      "apest": 7408,
      "Ġendgame": 7409,
      "Ġarchiving": 7410,
      "ervation": 7411,
      "Ġdefinitions": 7412,
      "Ġkinds": 7413,
      "Ġconsisting": 7414,
      "Ġignored": 7415,
      "allel": 7416,
      "Ġrendered": 7417,
      "ĠDivision": 7418,
      "ĠNetwork": 7419,
      "Ġsac": 7420,
      "Ġsorry": 7421,
      "aly": 7422,
      "Ġdim": 7423,
      "Ġhour": 7424,
      "ĠTre": 7425,
      "verse": 7426,
      "ira": 7427,
      "Ġprox": 7428,
      "ĠPan": 7429,
      "Ġheard": 7430,
      "ĠGall": 7431,
      "Ġperceived": 7432,
      "ailed": 7433,
      "Ġdiscipline": 7434,
      "Ġproductions": 7435,
      "125": 7436,
      "134": 7437,
      "143": 7438,
      "Ġcorre": 7439,
      "180": 7440,
      "theless": 7441,
      "Ġdepth": 7442,
      "Ġproposals": 7443,
      "ortunately": 7444,
      "Ġsuffered": 7445,
      "Ġvocabulary": 7446,
      "Ġefficient": 7447,
      "ĠGNU": 7448,
      "IF": 7449,
      "hered": 7450,
      "itter": 7451,
      "asure": 7452,
      "ĠIC": 7453,
      "igious": 7454,
      "Ġstored": 7455,
      "Ġalleg": 7456,
      "ĠPyth": 7457,
      "Ġcompr": 7458,
      "Ġcreates": 7459,
      "Ġaccord": 7460,
      "erman": 7461,
      "Ġdefence": 7462,
      "Ġexpensive": 7463,
      "Ġwarned": 7464,
      "Ġproblematic": 7465,
      "Ġperforming": 7466,
      "Ġperformances": 7467,
      "Ġregards": 7468,
      "Ġimprovements": 7469,
      "Ġcontrols": 7470,
      "Ġpromotion": 7471,
      "Ġencourage": 7472,
      "ĠHenri": 7473,
      "Ġprincipal": 7474,
      "ESCO": 7475,
      "Ġobtained": 7476,
      "Ġbegun": 7477,
      "Ġadjust": 7478,
      "Ġpropag": 7479,
      "ĠWindows": 7480,
      "ĠLebanon": 7481,
      "Ġabstract": 7482,
      "ĠStreep": 7483,
      "Ġhusband": 7484,
      "Ġpip": 7485,
      "Ġfestival": 7486,
      "Ġtot": 7487,
      "lyn": 7488,
      "Ġloyal": 7489,
      "Ġwhatever": 7490,
      "Ġdeemed": 7491,
      "ĠLet": 7492,
      "illage": 7493,
      "Ġplus": 7494,
      "errane": 7495,
      "Ġ1976": 7496,
      "Ġ1964": 7497,
      "ĠAdelaide": 7498,
      "enna": 7499,
      "Ġexecution": 7500,
      "ĠMeet": 7501,
      "ĠSalvation": 7502,
      "Ġcoastal": 7503,
      "ĠCorporation": 7504,
      "kin": 7505,
      "lines": 7506,
      "Ġcavalry": 7507,
      "Ġinaccur": 7508,
      "Ġmaps": 7509,
      "ĠSuffolk": 7510,
      "Ġhel": 7511,
      "Ġoverse": 7512,
      "Ġobsc": 7513,
      "140": 7514,
      "Ġexplo": 7515,
      "Ġvisitors": 7516,
      "Ġbrowsers": 7517,
      "Ġborrow": 7518,
      "Ġsymbols": 7519,
      "Before": 7520,
      "Ġsafety": 7521,
      "Ital": 7522,
      "eds": 7523,
      "omy": 7524,
      "uts": 7525,
      "uten": 7526,
      "ĠBab": 7527,
      "Ġwasn": 7528,
      "Ġnotifications": 7529,
      "Ġexcess": 7530,
      "ĠGal": 7531,
      "Ġdisappe": 7532,
      "pring": 7533,
      "Ġorigins": 7534,
      "Ġ1982": 7535,
      "Ġbiased": 7536,
      "aiwan": 7537,
      "Ġargue": 7538,
      "Ġcovering": 7539,
      "Ġscientists": 7540,
      "Ġobserv": 7541,
      "ĠMedit": 7542,
      "Ġconversation": 7543,
      "Ġholder": 7544,
      "Ġprepared": 7545,
      "Ġsurname": 7546,
      "Wik": 7547,
      "kh": 7548,
      "Ġfant": 7549,
      "ictions": 7550,
      "Ġpreview": 7551,
      "ĠAnim": 7552,
      "ĠAlger": 7553,
      "Ġmovements": 7554,
      "comp": 7555,
      "Ġ1985": 7556,
      "Ġargues": 7557,
      "Ġsummaries": 7558,
      "Ġresponses": 7559,
      "Ġreaching": 7560,
      "Ġchalleng": 7561,
      "Ġdatabases": 7562,
      "Ġtournaments": 7563,
      "Ġwait": 7564,
      "Ġsubscrib": 7565,
      "erranean": 7566,
      "ET": 7567,
      "Red": 7568,
      "iy": 7569,
      "pur": 7570,
      "ĠABC": 7571,
      "ĠCook": 7572,
      "ĠElect": 7573,
      "ĠLast": 7574,
      "ĠNob": 7575,
      "ĠStra": 7576,
      "132": 7577,
      "Ġdescribing": 7578,
      "Ġforest": 7579,
      "ĠSchol": 7580,
      "Ġkeeping": 7581,
      "ĠSwartz": 7582,
      "Ġattribution": 7583,
      "ĠOliv": 7584,
      "Script": 7585,
      "Ġagriculture": 7586,
      "urrently": 7587,
      "ĠVictoria": 7588,
      "Ġdiplomatic": 7589,
      "ĠAtlantic": 7590,
      "Ġastron": 7591,
      "king": 7592,
      "oes": 7593,
      "rics": 7594,
      "ses": 7595,
      "zh": 7596,
      "isations": 7597,
      "ĠMat": 7598,
      "ĠBarnstar": 7599,
      "Ġvul": 7600,
      "ĠLove": 7601,
      "ublican": 7602,
      "apse": 7603,
      "152": 7604,
      "153": 7605,
      "uccess": 7606,
      "ĠConference": 7607,
      "Ġbranches": 7608,
      "Ġhands": 7609,
      "ĠIPv": 7610,
      "Ġpsychological": 7611,
      "Ġorders": 7612,
      "ĠBooks": 7613,
      "Ġaims": 7614,
      "Ġprocedures": 7615,
      "Ġpatterns": 7616,
      "Mo": 7617,
      "Ġthir": 7618,
      "ĠCro": 7619,
      "ĠWin": 7620,
      "ĠBat": 7621,
      "ĠHay": 7622,
      "nex": 7623,
      "ologist": 7624,
      "138": 7625,
      "ugby": 7626,
      "Ġ1965": 7627,
      "Ġparticipated": 7628,
      "Ġcopying": 7629,
      "Ġbegins": 7630,
      "Ġroughly": 7631,
      "got": 7632,
      "lor": 7633,
      "non": 7634,
      "edias": 7635,
      "Ġpet": 7636,
      "uti": 7637,
      "ikh": 7638,
      "ĠBah": 7639,
      "ourced": 7640,
      "ĠFoot": 7641,
      "Ġ1946": 7642,
      "aste": 7643,
      "ĠKarl": 7644,
      "oked": 7645,
      "aph": 7646,
      "achus": 7647,
      "ĠYoung": 7648,
      "ĠDeep": 7649,
      "athan": 7650,
      "Ġempty": 7651,
      "Ġwarring": 7652,
      "Ġskin": 7653,
      "olicy": 7654,
      "Ġimmediate": 7655,
      "Ġpredomin": 7656,
      "Ġjobs": 7657,
      "Ġmaximum": 7658,
      "300": 7659,
      "ali": 7660,
      "alem": 7661,
      "etts": 7662,
      "Ġstock": 7663,
      "ĠBruce": 7664,
      "ĠEc": 7665,
      "ĠNig": 7666,
      "ĠNight": 7667,
      "Ġdismiss": 7668,
      "Ġdiscover": 7669,
      "Ġautonom": 7670,
      "ockey": 7671,
      "ĠIndo": 7672,
      "142": 7673,
      "Ġdiffer": 7674,
      "Ġrevolution": 7675,
      "ĠReport": 7676,
      "Ġdrive": 7677,
      "ĠSurrey": 7678,
      "oconfirmed": 7679,
      "Ġtrouble": 7680,
      "Ġaccompan": 7681,
      "Ps": 7682,
      "zen": 7683,
      "ils": 7684,
      "Ġgrown": 7685,
      "ĠMove": 7686,
      "Ġpropose": 7687,
      "ĠInf": 7688,
      "sored": 7689,
      "ĠDev": 7690,
      "Ġproducers": 7691,
      "Ġguest": 7692,
      "Ġ1983": 7693,
      "Ġreplacing": 7694,
      "hammad": 7695,
      "registered": 7696,
      "ascus": 7697,
      "Quest": 7698,
      "ĠStandard": 7699,
      "ĠMicrosoft": 7700,
      "ĠMediterranean": 7701,
      "Pl": 7702,
      "WB": 7703,
      "tain": 7704,
      "ashes": 7705,
      "ĠSol": 7706,
      "ĠSultan": 7707,
      "ighter": 7708,
      "ella": 7709,
      "Ġclergy": 7710,
      "Ġparks": 7711,
      "Ġfilmed": 7712,
      "ĠDec": 7713,
      "Ġintervention": 7714,
      "147": 7715,
      "Ġcommunicate": 7716,
      "167": 7717,
      "Ġ1986": 7718,
      "Ġupper": 7719,
      "Ġfocuses": 7720,
      "Ġobtain": 7721,
      "Ġdesktop": 7722,
      "ĠLyd": 7723,
      "Ġacknowled": 7724,
      "urally": 7725,
      "ĠMike": 7726,
      "seud": 7727,
      "andy": 7728,
      "ĠRet": 7729,
      "ĠDen": 7730,
      "ups": 7731,
      "ĠDeath": 7732,
      "Ġsigns": 7733,
      "Ġtransition": 7734,
      "164": 7735,
      "Ġeligible": 7736,
      "ircraft": 7737,
      "Ġdisputed": 7738,
      "ĠISO": 7739,
      "Ġswitch": 7740,
      "Ġnarrow": 7741,
      "ĠPrinceton": 7742,
      "Ġmurder": 7743,
      "Ġcasual": 7744,
      "General": 7745,
      "dum": 7746,
      "tes": 7747,
      "Ġtherap": 7748,
      "Ġeld": 7749,
      "ĠTro": 7750,
      "Ġaren": 7751,
      "ĠLin": 7752,
      "ĠInit": 7753,
      "Ġdoctor": 7754,
      "ĠKur": 7755,
      "upedia": 7756,
      "ĠChildren": 7757,
      "ordan": 7758,
      "135": 7759,
      "Ġreposit": 7760,
      "Ġconfusing": 7761,
      "Ġwarrant": 7762,
      "Ġhummingb": 7763,
      "Ġcapable": 7764,
      "ĠCentre": 7765,
      "ĠWestminster": 7766,
      "Ġcondition": 7767,
      "Ġkilling": 7768,
      "Ġmassive": 7769,
      "Ġinitials": 7770,
      "Ġbiggest": 7771,
      "check": 7772,
      "Ġstrategic": 7773,
      "Ġpunctuation": 7774,
      "Ġderivative": 7775,
      "ran": 7776,
      "oles": 7777,
      "ĠCrown": 7778,
      "unk": 7779,
      "Ġconqu": 7780,
      "esty": 7781,
      "ĠHa": 7782,
      "about": 7783,
      "ogether": 7784,
      "ultane": 7785,
      "....": 7786,
      "ĠRead": 7787,
      "Ġcharges": 7788,
      "145": 7789,
      "Ġ1967": 7790,
      "ĠCheers": 7791,
      "who": 7792,
      "Ġmerch": 7793,
      "Ġsounds": 7794,
      "Ġborough": 7795,
      "Ġassessment": 7796,
      "Ġchallenge": 7797,
      "Ġbattal": 7798,
      "ilingual": 7799,
      "ĠTelevision": 7800,
      "PS": 7801,
      "Ph": 7802,
      "URL": 7803,
      "inv": 7804,
      "Ġsell": 7805,
      "Ġsaved": 7806,
      "Ġlock": 7807,
      "ĠHot": 7808,
      "Ġhear": 7809,
      "ĠLow": 7810,
      "ĠKenn": 7811,
      "cluding": 7812,
      "Ġpoetry": 7813,
      "Ġconfirm": 7814,
      "yleft": 7815,
      "Ġdemocratic": 7816,
      "Ġcarefully": 7817,
      "Ġhousehold": 7818,
      "ĠBengali": 7819,
      "Ġaimed": 7820,
      "Ġinserted": 7821,
      "Ġexhibition": 7822,
      "Ġphotographs": 7823,
      "Ġlegitimate": 7824,
      "ĠTonga": 7825,
      "Ġabandoned": 7826,
      "ĠSteinitz": 7827,
      "bi": 7828,
      "ki": 7829,
      "ket": 7830,
      "olese": 7831,
      "iday": 7832,
      "Ġstreet": 7833,
      "Ġalter": 7834,
      "Ġ\"[": 7835,
      "ĠRay": 7836,
      "ĠNick": 7837,
      "ĠStr": 7838,
      "Ġphon": 7839,
      "ĠHead": 7840,
      "168": 7841,
      "Ġvariants": 7842,
      "ĠShort": 7843,
      "Ġseemed": 7844,
      "Ġappearing": 7845,
      "Ġprofessor": 7846,
      "Ġfootnotes": 7847,
      "Ġestimates": 7848,
      "ĠStudios": 7849,
      "Ġgrammat": 7850,
      "Ġscheduled": 7851,
      "achusetts": 7852,
      "AA": 7853,
      "__": 7854,
      "fe": 7855,
      "Ġpal": 7856,
      "Ġmunicipal": 7857,
      "unction": 7858,
      "Ġstrip": 7859,
      "ĠBoy": 7860,
      "ĠPen": 7861,
      "this": 7862,
      "ĠGer": 7863,
      "Ġunus": 7864,
      "Ġunne": 7865,
      "Ġru": 7866,
      "ireless": 7867,
      "ruit": 7868,
      "Ġindeed": 7869,
      "ĠUnlike": 7870,
      "Ġrecip": 7871,
      "Ġcommunications": 7872,
      "Ġfinds": 7873,
      "Ġtrain": 7874,
      "Ġstands": 7875,
      "azz": 7876,
      "ĠEditor": 7877,
      "Ġpresentation": 7878,
      "ĠCheck": 7879,
      "afuti": 7880,
      "Why": 7881,
      "Ġdenied": 7882,
      "Ġbringing": 7883,
      "ĠBCE": 7884,
      "Ġverbs": 7885,
      "Ġarrived": 7886,
      "Search": 7887,
      "Ġharass": 7888,
      "FDL": 7889,
      "reviewed": 7890,
      "Ġinsects": 7891,
      "Citation": 7892,
      "ao": 7893,
      "lock": 7894,
      "mun": 7895,
      "wing": 7896,
      "wik": 7897,
      "Ġtrend": 7898,
      "itical": 7899,
      "Ġcens": 7900,
      "Ġpaint": 7901,
      "Ġfaced": 7902,
      "Ġmir": 7903,
      "Ġmartial": 7904,
      "ĠMoh": 7905,
      "ĠMaster": 7906,
      "Ġconference": 7907,
      "ulating": 7908,
      "Ġ1948": 7909,
      "Ġsourcing": 7910,
      "Ġdiscovery": 7911,
      "Ġusernames": 7912,
      "Ġentitled": 7913,
      "Ġmarkets": 7914,
      "Ġpromin": 7915,
      "Ġmode": 7916,
      "ĠYouT": 7917,
      "Ġseparated": 7918,
      "Ġcivilian": 7919,
      "Ġportal": 7920,
      "Ġvirus": 7921,
      "Ġrival": 7922,
      "Ġcontinuing": 7923,
      "Ġpartnership": 7924,
      "ĠByzantine": 7925,
      "ĠUniversal": 7926,
      "Several": 7927,
      "Ġfan": 7928,
      "Ġisol": 7929,
      "Ġfort": 7930,
      "ĠSant": 7931,
      "ĠCD": 7932,
      "ĠCirc": 7933,
      "Ġgard": 7934,
      "unar": 7935,
      "irms": 7936,
      "ikes": 7937,
      "Ġalgebra": 7938,
      "ĠHindu": 7939,
      "ogy": 7940,
      "Ġkings": 7941,
      "izations": 7942,
      "ounds": 7943,
      "ĠVer": 7944,
      "Ġcontentious": 7945,
      "Ġstudios": 7946,
      "ĠIndex": 7947,
      "131": 7948,
      "Ġviewpoint": 7949,
      "ĠProtect": 7950,
      "Ġaffairs": 7951,
      "Ġfixing": 7952,
      "ĠDoes": 7953,
      "ĠCongolese": 7954,
      "ĠOlympics": 7955,
      "Ġcycle": 7956,
      "ĠSenate": 7957,
      "ĠCapital": 7958,
      "ĠDamascus": 7959,
      "Sub": 7960,
      "UN": 7961,
      "Ġdanger": 7962,
      "ctors": 7963,
      "rolled": 7964,
      "amber": 7965,
      "ĠSource": 7966,
      "Ġgun": 7967,
      "ikar": 7968,
      "ĠBot": 7969,
      "Ġexempt": 7970,
      "ĠEth": 7971,
      "Ġadds": 7972,
      "172": 7973,
      "Ġmaintaining": 7974,
      "Ġordinary": 7975,
      "ĠFlor": 7976,
      "Ġbenefits": 7977,
      "ĠSimilarly": 7978,
      "ĠAirport": 7979,
      "ĠMassachusetts": 7980,
      "Ġsafe": 7981,
      "Ġevaluation": 7982,
      "coh": 7983,
      "itis": 7984,
      "Ġanch": 7985,
      "Ġfest": 7986,
      "ĠCrit": 7987,
      "Ġgas": 7988,
      "etime": 7989,
      "emen": 7990,
      "esthetic": 7991,
      "ĠNet": 7992,
      "ĠJan": 7993,
      "iano": 7994,
      "Ġresolved": 7995,
      "ntil": 7996,
      "ario": 7997,
      "Ġblog": 7998,
      "ĠArthur": 7999,
      "Ġproduces": 8000,
      "cca": 8001,
      "148": 8002,
      "uese": 8003,
      "Ġfunds": 8004,
      "Ġ1963": 8005,
      "Ġcharacteristics": 8006,
      "Ġcareful": 8007,
      "Ġformerly": 8008,
      "Ġfaculty": 8009,
      "ĠWikipedias": 8010,
      "Ġhoping": 8011,
      "\";": 8012,
      "%)": 8013,
      ".--": 8014,
      "John": 8015,
      "She": 8016,
      "def": 8017,
      "long": 8018,
      "orate": 8019,
      "iche": 8020,
      "Ġhun": 8021,
      "ĠTown": 8022,
      "ĠTaiwan": 8023,
      "ura": 8024,
      "ĠMen": 8025,
      "ĠMont": 8026,
      "ĠFar": 8027,
      "ĠFront": 8028,
      "ĠRav": 8029,
      "ĠDigital": 8030,
      "ĠNupedia": 8031,
      "Ġcontest": 8032,
      "ĠOK": 8033,
      "Ġcomprom": 8034,
      "enses": 8035,
      "Ġrelating": 8036,
      "rama": 8037,
      "Ġentity": 8038,
      "Ġjustification": 8039,
      "Ġcoron": 8040,
      "Ġmonitor": 8041,
      "iveness": 8042,
      "ĠWikidata": 8043,
      "Ġgenres": 8044,
      "Ġsixth": 8045,
      "ĠFilms": 8046,
      "Edit": 8047,
      "Ġcorporate": 8048,
      "Ġdynamic": 8049,
      "ĠStephen": 8050,
      "Ġbureaucrat": 8051,
      "Gu": 8052,
      "cient": 8053,
      "cription": 8054,
      "gn": 8055,
      "Ġdictionary": 8056,
      "Ġhttp": 8057,
      "oting": 8058,
      "Ġprove": 8059,
      "aints": 8060,
      "ĠLew": 8061,
      "ĠNaz": 8062,
      "Ġyouth": 8063,
      "ĠJes": 8064,
      "Ġpartner": 8065,
      "139": 8066,
      "151": 8067,
      "154": 8068,
      "163": 8069,
      "Ġheritage": 8070,
      "170": 8071,
      "Ġbroke": 8072,
      "Ġindependently": 8073,
      "Ġbroader": 8074,
      "Editors": 8075,
      "Ġfunctionality": 8076,
      "Ġambig": 8077,
      "party": 8078,
      "ĠPersian": 8079,
      "ĠFurthermore": 8080,
      "Ġdepartments": 8081,
      "Ġframework": 8082,
      "LA": 8083,
      "Ġdoll": 8084,
      "ĠCrow": 8085,
      "adata": 8086,
      "ĠBh": 8087,
      "ĠHell": 8088,
      "ĠFam": 8089,
      "ĠLarry": 8090,
      "ĠLady": 8091,
      "ificial": 8092,
      "orders": 8093,
      "Ġoffices": 8094,
      "Ġrob": 8095,
      "Ġinvitation": 8096,
      "Ġhistories": 8097,
      "ixar": 8098,
      "Ġsimultane": 8099,
      "Ġemot": 8100,
      "ĠIndust": 8101,
      "ĠCommand": 8102,
      "137": 8103,
      "146": 8104,
      "Ġconfusion": 8105,
      "155": 8106,
      "Ġexplaining": 8107,
      "ĠAfC": 8108,
      "Ġconstitute": 8109,
      "arner": 8110,
      "Ġproperties": 8111,
      "Ġupdates": 8112,
      "Ġconnections": 8113,
      "ĠUNESCO": 8114,
      "Administrators": 8115,
      "Ġtells": 8116,
      "Ġrebels": 8117,
      "Ġroute": 8118,
      "Ġsomewhere": 8119,
      "Ġclubs": 8120,
      "Ġtransfer": 8121,
      "ĠHawke": 8122,
      "Ġwitches": 8123,
      "Tr": 8124,
      "uh": 8125,
      "zil": 8126,
      "itual": 8127,
      "Ġwave": 8128,
      "Ġbug": 8129,
      "icide": 8130,
      "Ġnick": 8131,
      "rose": 8132,
      "ationally": 8133,
      "idency": 8134,
      "ĠPet": 8135,
      "ĠPsych": 8136,
      "ĠPoly": 8137,
      "ĠDue": 8138,
      "ods": 8139,
      "Ġscreens": 8140,
      "157": 8141,
      "Ġanniversary": 8142,
      "Ġjudgment": 8143,
      "Ġstopped": 8144,
      "ĠAgain": 8145,
      "ĠPalest": 8146,
      "ĠMuslims": 8147,
      "Ġbalance": 8148,
      "Ġmentions": 8149,
      "Ġsearches": 8150,
      "Ġcrowd": 8151,
      "Le": 8152,
      "disc": 8153,
      "finder": 8154,
      "mail": 8155,
      "uzz": 8156,
      "Ġcraft": 8157,
      "order": 8158,
      "Ġbrack": 8159,
      "Ġfought": 8160,
      "Ġ260": 8161,
      "ĠWal": 8162,
      "ĠWrit": 8163,
      "ĠMill": 8164,
      "ĠMajor": 8165,
      "ĠMax": 8166,
      "Ġexcell": 8167,
      "ĠHospital": 8168,
      "ĠGener": 8169,
      "ĠOP": 8170,
      "ibilities": 8171,
      "Ġknows": 8172,
      "Ġpartially": 8173,
      "hips": 8174,
      "Ġreviewers": 8175,
      "Ġrequesting": 8176,
      "Ġfactual": 8177,
      "Ġoperates": 8178,
      "Ġ1988": 8179,
      "Ġamongst": 8180,
      "Ġencyclopedias": 8181,
      "Ġrevised": 8182,
      "Ġproductive": 8183,
      "reliable": 8184,
      "Ġsatell": 8185,
      "ĠArchive": 8186,
      "ĠOliver": 8187,
      "Ġconverted": 8188,
      "Ġpraised": 8189,
      "Ġoversight": 8190,
      "Ġapplicable": 8191,
      "uilding": 8192,
      "ĠOlivier": 8193,
      "Ġtherapy": 8194,
      "ĠYouTube": 8195,
      "Because": 8196,
      "MS": 8197,
      "budget": 8198,
      "fare": 8199,
      "specific": 8200,
      "zy": 8201,
      "ĠAh": 8202,
      "char": 8203,
      "unch": 8204,
      "osh": 8205,
      "Ġrequiring": 8206,
      "Ġ35": 8207,
      "ĠAnne": 8208,
      "Ġdirectory": 8209,
      "159": 8210,
      "Ġreferendum": 8211,
      "Ġstatistical": 8212,
      "Ġpassing": 8213,
      "Ġcommented": 8214,
      "ĠGreece": 8215,
      "ĠAccess": 8216,
      "Ġcease": 8217,
      "Ġpunishment": 8218,
      "Ġbriefly": 8219,
      "ĠBudapest": 8220,
      "Ġdistinguish": 8221,
      "==": 8222,
      "public": 8223,
      "Ġtempor": 8224,
      "rele": 8225,
      "Ġfra": 8226,
      "Ġexceed": 8227,
      "Ġshif": 8228,
      "Ġchat": 8229,
      "Ġdiscipl": 8230,
      "Ġspot": 8231,
      "Ġprices": 8232,
      "Ġcooperation": 8233,
      "Ġgoverning": 8234,
      "Ġownership": 8235,
      "Ġsupporters": 8236,
      "171": 8237,
      "ĠJohnson": 8238,
      "Ġruling": 8239,
      "ĠChel": 8240,
      "ĠOrig": 8241,
      "Ġbarbar": 8242,
      "Ġexperiences": 8243,
      "Ġmisle": 8244,
      "Ġessentially": 8245,
      "ĠPrize": 8246,
      "ĠMassoud": 8247,
      "Ġpremi": 8248,
      "ĠArea": 8249,
      "Ġwitness": 8250,
      "Ġrollback": 8251,
      "Ġgallery": 8252,
      "Ġdropped": 8253,
      "Ġsubsid": 8254,
      "Ġbridge": 8255,
      "Ġunnecess": 8256,
      ":,": 8257,
      "LC": 8258,
      "Ne": 8259,
      "Ġdub": 8260,
      "ilation": 8261,
      "ĠSher": 8262,
      "ĠBY": 8263,
      "ĠEr": 8264,
      "ĠHo": 8265,
      "ĠRon": 8266,
      "ĠNov": 8267,
      "Ġperpet": 8268,
      "aret": 8269,
      "ĠVari": 8270,
      "weet": 8271,
      "166": 8272,
      "189": 8273,
      "Ġprogrammes": 8274,
      "ĠChristopher": 8275,
      "Ġcertainly": 8276,
      "Ġmagn": 8277,
      "Ġpromoting": 8278,
      "Ġbreaking": 8279,
      "Ġjudges": 8280,
      "Ġfunded": 8281,
      "Ġquoted": 8282,
      "Ġtwenty": 8283,
      "Ġtwelve": 8284,
      "ĠMedical": 8285,
      "Ġphilosophical": 8286,
      "Ġflooding": 8287,
      "ĠBombay": 8288,
      "ĠPython": 8289,
      "But": 8290,
      "GM": 8291,
      "Rec": 8292,
      "crib": 8293,
      "inally": 8294,
      "Ġpair": 8295,
      "Ġbought": 8296,
      "ami": 8297,
      "ĠSara": 8298,
      "imba": 8299,
      "Ġstable": 8300,
      "ĠEuro": 8301,
      "ĠFederal": 8302,
      "acent": 8303,
      "Ġundo": 8304,
      "ighth": 8305,
      "ĠUTC": 8306,
      "Ġcontribs": 8307,
      "iana": 8308,
      "phan": 8309,
      "Ġevil": 8310,
      "Ġregiment": 8311,
      "186": 8312,
      "Ġparticipating": 8313,
      "afe": 8314,
      "Ġlicensing": 8315,
      "Ġcloser": 8316,
      "Ġparents": 8317,
      "ĠBurton": 8318,
      "ĠSunday": 8319,
      "Ġtransferred": 8320,
      "unciation": 8321,
      "Ġalgorithm": 8322,
      "Ġinstrument": 8323,
      "EE": 8324,
      "IV": 8325,
      "div": 8326,
      "links": 8327,
      "oir": 8328,
      "Ġannex": 8329,
      "Ġbow": 8330,
      "oming": 8331,
      "Ġhab": 8332,
      "ushed": 8333,
      "ĠAle": 8334,
      "ĠSus": 8335,
      "ĠColl": 8336,
      "ĠMach": 8337,
      "ĠBre": 8338,
      "section": 8339,
      "abinet": 8340,
      "ĠRoll": 8341,
      "umed": 8342,
      "Ġplural": 8343,
      "Ġapart": 8344,
      "Ġreporting": 8345,
      "Ġtradem": 8346,
      "Ġintroduce": 8347,
      "ĠTrade": 8348,
      "ĠWikipedian": 8349,
      "Ġparliamentary": 8350,
      "Ġtribes": 8351,
      "%,": 8352,
      "Did": 8353,
      "track": 8354,
      "western": 8355,
      "Ġnice": 8356,
      "imination": 8357,
      "adium": 8358,
      "ĠWalk": 8359,
      "ĠWater": 8360,
      "Ġsuit": 8361,
      "ĠPC": 8362,
      "ĠPop": 8363,
      "ticip": 8364,
      "ĠHan": 8365,
      "Ġseat": 8366,
      "ĠFace": 8367,
      "Ġships": 8368,
      "Ġteach": 8369,
      "oston": 8370,
      "archive": 8371,
      "apes": 8372,
      "Ġparallel": 8373,
      "Ġdesired": 8374,
      "Ġfilming": 8375,
      "Ġthemes": 8376,
      "Ġinstall": 8377,
      "Ġpoet": 8378,
      "ĠAlan": 8379,
      "Ġreferencing": 8380,
      "Ġdescriptions": 8381,
      "exas": 8382,
      "Ġviewing": 8383,
      "Ġ75": 8384,
      "ĠMarvel": 8385,
      "Ġrecognize": 8386,
      "Ġindicating": 8387,
      "Ġabsence": 8388,
      "ĠPolice": 8389,
      "ĠCrime": 8390,
      "Ġimmigrants": 8391,
      "Ġceremon": 8392,
      "ĠCopyright": 8393,
      "Ġsustain": 8394,
      "ĠFunafuti": 8395,
      "Ġnegotiations": 8396,
      "AG": 8397,
      "Af": 8398,
      "gers": 8399,
      "Ġcul": 8400,
      "Ġnouns": 8401,
      "ĠIMF": 8402,
      "ĠMas": 8403,
      "elcome": 8404,
      "ulpt": 8405,
      "ĠNap": 8406,
      "ĠGulf": 8407,
      "odox": 8408,
      "Ġshape": 8409,
      "ffect": 8410,
      "ruck": 8411,
      "Ġagent": 8412,
      "Ġprest": 8413,
      "Ġprovinces": 8414,
      "Ġimposed": 8415,
      "Ġcharter": 8416,
      "ĠAsh": 8417,
      "160": 8418,
      "165": 8419,
      "Ġorganisations": 8420,
      "insula": 8421,
      "ĠMarath": 8422,
      "ĠChristians": 8423,
      "apping": 8424,
      "Ġrespective": 8425,
      "Ġemployment": 8426,
      "ĠISSN": 8427,
      "Ġseriously": 8428,
      "Ġsettlers": 8429,
      "Under": 8430,
      "Ġpoorly": 8431,
      "ĠMuhammad": 8432,
      "gressive": 8433,
      "ĠTechnology": 8434,
      ":\"": 8435,
      "Med": 8436,
      "Ġaircraft": 8437,
      "erly": 8438,
      "Ġsle": 8439,
      "eness": 8440,
      "Ġanonymous": 8441,
      "ĠTuring": 8442,
      "stone": 8443,
      "oln": 8444,
      "ĠCle": 8445,
      "urance": 8446,
      "ĠBal": 8447,
      "ĠLabor": 8448,
      "ĠJordan": 8449,
      "ĠKen": 8450,
      "Ġcomponents": 8451,
      "Ġremark": 8452,
      "182": 8453,
      "Ġsmart": 8454,
      "Ġclaiming": 8455,
      "Ġpassage": 8456,
      "ĠHarry": 8457,
      "Ġbehaviour": 8458,
      "Ġfrequent": 8459,
      "Ġvictims": 8460,
      "Ġsuffix": 8461,
      "AFTA": 8462,
      "Ġquantum": 8463,
      "Ġsubcategories": 8464,
      "Ġcognitive": 8465,
      "Ġtutorial": 8466,
      "ĠPortuguese": 8467,
      "LL": 8468,
      "May": 8469,
      "la": 8470,
      "erion": 8471,
      "anz": 8472,
      "ĠAld": 8473,
      "state": 8474,
      "ĠMir": 8475,
      "Ġconvey": 8476,
      "ĠBell": 8477,
      "sey": 8478,
      "ĠRoy": 8479,
      "Ġvac": 8480,
      "Ġcomponent": 8481,
      "ĠViet": 8482,
      "Ġmyth": 8483,
      "Ġcounties": 8484,
      "full": 8485,
      "Ġinstances": 8486,
      "Ġinstalled": 8487,
      "Ġgoverned": 8488,
      "Ġ150": 8489,
      "Ġexperimental": 8490,
      "Ġtrading": 8491,
      "incoln": 8492,
      "Ġshortly": 8493,
      "ĠCharter": 8494,
      "ĠHarvard": 8495,
      "Ġhorse": 8496,
      "Ġregistration": 8497,
      "Ġopposing": 8498,
      "Ġthreats": 8499,
      "ĠSamuel": 8500,
      "Ġpercentage": 8501,
      "ĠDemocrat": 8502,
      "Ġministers": 8503,
      "Chess": 8504,
      "Ġstorage": 8505,
      "don": 8506,
      "uis": 8507,
      "Ġaesthetic": 8508,
      "Ġdict": 8509,
      "ĠIRC": 8510,
      "illy": 8511,
      "ilater": 8512,
      "Ġeyes": 8513,
      "Ġdece": 8514,
      "Ġteahouse": 8515,
      "Ġrecre": 8516,
      "Ġuserbox": 8517,
      "Ġconfidence": 8518,
      "Ġflight": 8519,
      "Ġidentical": 8520,
      "ĠMaria": 8521,
      "ĠGuang": 8522,
      "Ġdefinite": 8523,
      "Ġthreatened": 8524,
      "ĠJimmy": 8525,
      "Ġexclusively": 8526,
      "Ġinhabit": 8527,
      "Ġfestivals": 8528,
      "Me": 8529,
      "PP": 8530,
      "pg": 8531,
      "Ġtild": 8532,
      "Ġtape": 8533,
      "Ġcro": 8534,
      "oric": 8535,
      "Ġpione": 8536,
      "Ġfish": 8537,
      "Ġmel": 8538,
      "Ġreact": 8539,
      "Ġbear": 8540,
      "olt": 8541,
      "opoly": 8542,
      "ĠPubl": 8543,
      "ĠEp": 8544,
      "ĠHome": 8545,
      "ĠRh": 8546,
      "ĠDYK": 8547,
      "ĠLab": 8548,
      "oses": 8549,
      "Ġtrick": 8550,
      "Ġresc": 8551,
      "ĠChief": 8552,
      "ĠStone": 8553,
      "Ġencl": 8554,
      "Ġamate": 8555,
      "ĠArm": 8556,
      "Ġinvented": 8557,
      "Ġfindings": 8558,
      "Ġannually": 8559,
      "Ġideal": 8560,
      "Ġrestore": 8561,
      "ennis": 8562,
      "ĠRepresent": 8563,
      "Ġanswered": 8564,
      "ĠURLs": 8565,
      "Ġdramatic": 8566,
      "break": 8567,
      "Ġlawyers": 8568,
      "Ġinfringement": 8569,
      "Ġproportion": 8570,
      "Ġyounger": 8571,
      "gent": 8572,
      "wick": 8573,
      "real": 8574,
      "Ġcry": 8575,
      "ĠID": 8576,
      "ĠHard": 8577,
      "ĠRail": 8578,
      "Ġvan": 8579,
      "ĠJon": 8580,
      "Ġlect": 8581,
      "Ġintens": 8582,
      "ĠKy": 8583,
      "190": 8584,
      "Ġapproaches": 8585,
      "Ġcorner": 8586,
      "158": 8587,
      "177": 8588,
      "Ġ1984": 8589,
      "Ġdesigns": 8590,
      "Ġinfluences": 8591,
      "Ġdocumented": 8592,
      "Ġexpressions": 8593,
      "Ġmaintains": 8594,
      "ĠOthers": 8595,
      "Ġchoices": 8596,
      "Ġcircle": 8597,
      "Ġdestination": 8598,
      "Ġdrawing": 8599,
      "Ġknew": 8600,
      "Ġtourism": 8601,
      "~~~~": 8602,
      "ĠDaniel": 8603,
      "Ġpainting": 8604,
      "Ġtemper": 8605,
      "Ġcatalog": 8606,
      "Ġaccompanied": 8607,
      "TH": 8608,
      "TS": 8609,
      "isp": 8610,
      "Ġang": 8611,
      "Ġthorough": 8612,
      "isting": 8613,
      "ĠBoston": 8614,
      "ections": 8615,
      "ĠChronic": 8616,
      "Ġpreference": 8617,
      "ĠVan": 8618,
      "Ġcolour": 8619,
      "ĠAli": 8620,
      "184": 8621,
      "Ġstarts": 8622,
      "255": 8623,
      "Ġlegally": 8624,
      "Ġskill": 8625,
      "Ġvideos": 8626,
      "Ġuncertain": 8627,
      "NAME": 8628,
      "ĠAuthor": 8629,
      "Ġsocieties": 8630,
      "Ġemergency": 8631,
      "Ġsupplies": 8632,
      "ĠBusiness": 8633,
      "Ġinterpreted": 8634,
      "ĠRavenna": 8635,
      "?\"": 8636,
      "ban": 8637,
      "bas": 8638,
      "base": 8639,
      "master": 8640,
      "inct": 8641,
      "Ġcrown": 8642,
      "Ġfuel": 8643,
      "Ġinher": 8644,
      "Ġnoun": 8645,
      "ĠCa": 8646,
      "ĠCur": 8647,
      "ĠMot": 8648,
      "ĠMilitary": 8649,
      "ĠBollywood": 8650,
      "ĠNever": 8651,
      "Ġ1947": 8652,
      "Ġimperial": 8653,
      "Ġoutcome": 8654,
      "Ġpartly": 8655,
      "Ġspring": 8656,
      "Ġphase": 8657,
      "173": 8658,
      "175": 8659,
      "except": 8660,
      "ĠBlake": 8661,
      "iddles": 8662,
      "Ġcharacterized": 8663,
      "Ġmetadata": 8664,
      "Ġpatrol": 8665,
      "ĠAmaz": 8666,
      "Ġreplacement": 8667,
      "Ġtheatrical": 8668,
      "Ġdepicted": 8669,
      "Ġrailway": 8670,
      "Ġcamera": 8671,
      "Ġgrammatical": 8672,
      "?]": 8673,
      "oided": 8674,
      "vol": 8675,
      "ĠAff": 8676,
      "Ġpropri": 8677,
      "ĠHello": 8678,
      "Ġalliance": 8679,
      "iege": 8680,
      "ieuten": 8681,
      "Ġsyll": 8682,
      "ribute": 8683,
      "Ġauto": 8684,
      "Ġinstruction": 8685,
      "Ġinterven": 8686,
      "161": 8687,
      "ĠGoingBatty": 8688,
      "Ġbiographical": 8689,
      "ĠCarth": 8690,
      "Ġreportedly": 8691,
      "Ġcollective": 8692,
      "Ġcomplexity": 8693,
      "Ġcustomers": 8694,
      "Ġlegislative": 8695,
      "ulfikar": 8696,
      "ĠSometimes": 8697,
      "Ġvaried": 8698,
      "NG": 8699,
      "bb": 8700,
      "rance": 8701,
      "inical": 8702,
      "Ġcards": 8703,
      "anwhile": 8704,
      "Ġpseud": 8705,
      "Ġmine": 8706,
      "ometimes": 8707,
      "Ġlaid": 8708,
      "agues": 8709,
      "agna": 8710,
      "ĠCode": 8711,
      "istry": 8712,
      "elines": 8713,
      "eman": 8714,
      "ĠPixar": 8715,
      "ĠEvery": 8716,
      "Ġadject": 8717,
      "Ġjump": 8718,
      "erts": 8719,
      "Ġappropri": 8720,
      "anna": 8721,
      "Ġavoided": 8722,
      "inson": 8723,
      "Ġmanip": 8724,
      "othing": 8725,
      "Ġwinter": 8726,
      "Ġhyd": 8727,
      "Ġsubstantially": 8728,
      "Ġhomes": 8729,
      "ĠTurkish": 8730,
      "Ġexclusive": 8731,
      "Ġportrayed": 8732,
      "Ġfilmmakers": 8733,
      "ĠKnowledge": 8734,
      "ĠJavaScript": 8735,
      "ĠColumbia": 8736,
      "Ab": 8737,
      "aug": 8738,
      "fred": 8739,
      "official": 8740,
      "ĠFord": 8741,
      "ĠLo": 8742,
      "Ġleague": 8743,
      "Ġanyway": 8744,
      "Ġcolors": 8745,
      "149": 8746,
      "Ġvariations": 8747,
      "Ġexplains": 8748,
      "Ġ1962": 8749,
      "Ġaddressing": 8750,
      "Ġinitiated": 8751,
      "Ġforever": 8752,
      "ĠAllan": 8753,
      "Ġsentences": 8754,
      "ĠAbout": 8755,
      "uxili": 8756,
      "Ġpermanently": 8757,
      "Ġcells": 8758,
      "Ġphenomenon": 8759,
      "ĠFleming": 8760,
      "GB": 8761,
      "folk": 8762,
      "iang": 8763,
      "key": 8764,
      "xual": 8765,
      "otal": 8766,
      "ĠCorn": 8767,
      "ika": 8768,
      "Ġdeleg": 8769,
      "ounced": 8770,
      "Ġsegment": 8771,
      "ĠNether": 8772,
      "Ġcance": 8773,
      "ĠOh": 8774,
      "ĠThrough": 8775,
      "Ġsuburb": 8776,
      "Ġapolog": 8777,
      "Ġroots": 8778,
      "Ġmanusc": 8779,
      "ĠTeam": 8780,
      "Ġhosting": 8781,
      "Ġnominate": 8782,
      "Ġmetropolitan": 8783,
      "ĠTrust": 8784,
      "Ġhappening": 8785,
      "ĠCorps": 8786,
      "Ġalternate": 8787,
      "Ġconsisted": 8788,
      "Ġrebel": 8789,
      "Ġmachines": 8790,
      "Ġattracted": 8791,
      "Ġtrials": 8792,
      "Ġpilot": 8793,
      "ĠBrazil": 8794,
      "graduate": 8795,
      "Ġshooting": 8796,
      "Ġvehicles": 8797,
      "Ġnavigate": 8798,
      "film": 8799,
      "ype": 8800,
      "Ġbrain": 8801,
      "Ġduration": 8802,
      "Ġhook": 8803,
      "ĠTig": 8804,
      "ige": 8805,
      "igm": 8806,
      "ĠHand": 8807,
      "ĠRose": 8808,
      "ĠLittle": 8809,
      "Ġunregistered": 8810,
      "Ġ1959": 8811,
      "Ġchose": 8812,
      "Ġchron": 8813,
      "apore": 8814,
      "Ġsculpt": 8815,
      "Ġovert": 8816,
      "Ġcopyleft": 8817,
      "183": 8818,
      "174": 8819,
      "Ġ1977": 8820,
      "Ġestablishing": 8821,
      "ĠSoftware": 8822,
      "Ġviolate": 8823,
      "Ġsket": 8824,
      "ĠTrump": 8825,
      "Ġjudicial": 8826,
      "Ġfrag": 8827,
      "Ġsolid": 8828,
      "Ġtaxonom": 8829,
      "ĠSummer": 8830,
      "Ġopportunities": 8831,
      "Ġaccordance": 8832,
      "Ġvulner": 8833,
      "??": 8834,
      "BI": 8835,
      "MC": 8836,
      "OL": 8837,
      "Per": 8838,
      "RS": 8839,
      "da": 8840,
      "just": 8841,
      "she": 8842,
      "Ġsending": 8843,
      "orce": 8844,
      "Ġinqu": 8845,
      "arians": 8846,
      "ampt": 8847,
      "ĠSpring": 8848,
      "ĠCel": 8849,
      "Ġalcoh": 8850,
      "rac": 8851,
      "ĠPages": 8852,
      "ĠLincoln": 8853,
      "ocated": 8854,
      "forced": 8855,
      "Ġdesire": 8856,
      "Ġspend": 8857,
      "Ġautoconfirmed": 8858,
      "Ġpersu": 8859,
      "208": 8860,
      "Ġsupplement": 8861,
      "ĠAlbert": 8862,
      "hentic": 8863,
      "Ġgovernor": 8864,
      "Ġtransclusion": 8865,
      "162": 8866,
      "ĠWhig": 8867,
      "Ġartillery": 8868,
      "Ġpointing": 8869,
      "Ġelabor": 8870,
      "ĠColon": 8871,
      "Ġquotes": 8872,
      "ĠHeritage": 8873,
      "Ġtrees": 8874,
      "ĠPhilip": 8875,
      "Ġoccupation": 8876,
      "Ġutil": 8877,
      "Ġpreserved": 8878,
      "Ġarrested": 8879,
      "ĠFlorida": 8880,
      "Aut": 8881,
      "Cat": 8882,
      "mony": 8883,
      "Ġ~": 8884,
      "erve": 8885,
      "itched": 8886,
      "orous": 8887,
      "Ġfirms": 8888,
      "aria": 8889,
      "Ġdiversity": 8890,
      "ĠTexas": 8891,
      "ĠWork": 8892,
      "ĠMedic": 8893,
      "ĠMercury": 8894,
      "Ġstress": 8895,
      "ĠBridge": 8896,
      "achel": 8897,
      "Ġrid": 8898,
      "ffee": 8899,
      "Ġconservative": 8900,
      "letter": 8901,
      "Ġamend": 8902,
      "Ġactively": 8903,
      "Ġdefines": 8904,
      "Ġdevelopments": 8905,
      "Ġcouldn": 8906,
      "234": 8907,
      "250": 8908,
      "Ġ1961": 8909,
      "ĠMarg": 8910,
      "Ġreturns": 8911,
      "Ġloose": 8912,
      "Ġranking": 8913,
      "ĠPeace": 8914,
      "Ġsolutions": 8915,
      "ĠBelg": 8916,
      "Ġmanufacture": 8917,
      "Ġcomparison": 8918,
      "Ġdoctrine": 8919,
      "Ġromantic": 8920,
      "Ġneighborhood": 8921,
      "ĠIndonesia": 8922,
      "iddlesex": 8923,
      ")\"": 8924,
      "ais": 8925,
      "bered": 8926,
      "hol": 8927,
      "Ġly": 8928,
      "Ġaw": 8929,
      "Ġfilled": 8930,
      "ingly": 8931,
      "Ġlunar": 8932,
      "ĠMOS": 8933,
      "ĠFive": 8934,
      "ĠLess": 8935,
      "ĠGA": 8936,
      "ĠGord": 8937,
      "Ġ1949": 8938,
      "vio": 8939,
      "Ġclause": 8940,
      "due": 8941,
      "Ġprev": 8942,
      "Ġcenters": 8943,
      "Ġowners": 8944,
      "ĠHoward": 8945,
      "Ġoperators": 8946,
      "Ġdeliver": 8947,
      "Ġcompetitive": 8948,
      "ĠWilliams": 8949,
      "contin": 8950,
      "Ġprosecut": 8951,
      "Ġadjacent": 8952,
      "Ġexercise": 8953,
      "Ġinternationally": 8954,
      "Ġcorruption": 8955,
      "ĠBosnia": 8956,
      "gil": 8957,
      "mo": 8958,
      "uf": 8959,
      "Ġfill": 8960,
      "Ġdating": 8961,
      "omet": 8962,
      "Ġho": 8963,
      "Ġorient": 8964,
      "ersey": 8965,
      "ĠBible": 8966,
      "Ġrising": 8967,
      "ĠUr": 8968,
      "Ġ1956": 8969,
      "ĠThose": 8970,
      "Ġgeneric": 8971,
      "201": 8972,
      "169": 8973,
      "187": 8974,
      "Ġtrained": 8975,
      "ullah": 8976,
      "compass": 8977,
      "ĠCentury": 8978,
      "chief": 8979,
      "Ġfootage": 8980,
      "Ġsolve": 8981,
      "Ġhousing": 8982,
      "ĠFinally": 8983,
      "Ġcommissioned": 8984,
      "ĠHindi": 8985,
      "Ġseventh": 8986,
      "Ġoccasions": 8987,
      "Ġinhabitants": 8988,
      "RI": 8989,
      "Reg": 8990,
      "bal": 8991,
      "bridge": 8992,
      "code": 8993,
      "inity": 8994,
      "ona": 8995,
      "Ġmil": 8996,
      "Ġmales": 8997,
      "Ġhat": 8998,
      "Ġnaming": 8999,
      "ĠSports": 9000,
      "ĠCross": 9001,
      "Ġnotify": 9002,
      "ĠHann": 9003,
      "Ġvice": 9004,
      "ĠGen": 9005,
      "Ġclim": 9006,
      "Ġclip": 9007,
      "Ġgrants": 9008,
      "Ġnumbered": 9009,
      "Ġtransform": 9010,
      "Ġreturning": 9011,
      "riptive": 9012,
      "incial": 9013,
      "retion": 9014,
      "eek": 9015,
      "Ġcollapse": 9016,
      "Ġmeetings": 9017,
      "ĠAgreement": 9018,
      "Ġzero": 9019,
      "Ġmorning": 9020,
      "Ġpurchased": 9021,
      "Ġwithdrawal": 9022,
      "Ġbacklog": 9023,
      "Ġhierarchy": 9024,
      "ĠProductions": 9025,
      "?)": 9026,
      "ii": 9027,
      "math": 9028,
      "uador": 9029,
      "inth": 9030,
      "Ġfled": 9031,
      "ĠSAF": 9032,
      "igrated": 9033,
      "Ġconvert": 9034,
      "irk": 9035,
      "ĠBow": 9036,
      "ĠData": 9037,
      "accept": 9038,
      "osm": 9039,
      "Ġritual": 9040,
      "ighton": 9041,
      "iban": 9042,
      "inkle": 9043,
      "Ġ32": 9044,
      "ommod": 9045,
      "icking": 9046,
      "Ġextend": 9047,
      "Ġextens": 9048,
      "176": 9049,
      "ools": 9050,
      "Ġcriterion": 9051,
      "azine": 9052,
      "Ġviolent": 9053,
      "Ġdestruction": 9054,
      "write": 9055,
      "Ġthousand": 9056,
      "ĠJeff": 9057,
      "ĠSingapore": 9058,
      "ĠPhilippines": 9059,
      "Ġunnecessary": 9060,
      "%),": 9061,
      "Pe": 9062,
      "WMF": 9063,
      "fix": 9064,
      "rum": 9065,
      "Ġaired": 9066,
      "Ġbanner": 9067,
      "icing": 9068,
      "Ġhired": 9069,
      "roid": 9070,
      "ownt": 9071,
      "Ġconj": 9072,
      "ulous": 9073,
      "ĠPo": 9074,
      "ĠFund": 9075,
      "ewards": 9076,
      "acular": 9077,
      "Ġkil": 9078,
      "icals": 9079,
      "Ġencompass": 9080,
      "Ġoverview": 9081,
      "obally": 9082,
      "...\"": 9083,
      "Ġreflected": 9084,
      "annel": 9085,
      "Ġwarfare": 9086,
      "Ġ1987": 9087,
      "Ġlasted": 9088,
      "Ġheaded": 9089,
      "Ġfinance": 9090,
      "ĠCoast": 9091,
      "Ġjudg": 9092,
      "Ġcastle": 9093,
      "ĠModel": 9094,
      "Ġwatching": 9095,
      "Ġminimal": 9096,
      "Ġenjoyed": 9097,
      "Ġrecommendations": 9098,
      "ĠSarah": 9099,
      "claration": 9100,
      "Histor": 9101,
      "%.[": 9102,
      "=\"": 9103,
      "ufficient": 9104,
      "Ġfaster": 9105,
      "Ġdress": 9106,
      "ĠIOC": 9107,
      "ĠTem": 9108,
      "ĠMugh": 9109,
      "ĠBom": 9110,
      "Ġexcluded": 9111,
      "thony": 9112,
      "abot": 9113,
      "Ġvent": 9114,
      "ĠGFDL": 9115,
      "Ġadequ": 9116,
      "ĠJer": 9117,
      "ĠJersey": 9118,
      "Ġcontrad": 9119,
      "pping": 9120,
      "ĠKam": 9121,
      "essions": 9122,
      "Ġresidential": 9123,
      "Ġregiments": 9124,
      "ĠAncient": 9125,
      "156": 9126,
      "181": 9127,
      "Ġretired": 9128,
      "ĠTea": 9129,
      "pswich": 9130,
      "ĠRussell": 9131,
      "iency": 9132,
      "Ġopponents": 9133,
      "Ġverified": 9134,
      "Ġmeta": 9135,
      "Ġcorrected": 9136,
      "Ġpsychologists": 9137,
      "borough": 9138,
      "ĠSimon": 9139,
      "Ġmechanism": 9140,
      "Ġconsumer": 9141,
      "ĠTwitter": 9142,
      "Ġparagraphs": 9143,
      "Ġvarying": 9144,
      "Ġdistinguished": 9145,
      "Ġunlikely": 9146,
      "Ġprohibited": 9147,
      "Ġcrucial": 9148,
      "Ġbibli": 9149,
      "ĠEntertain": 9150,
      "ĠFootball": 9151,
      "Could": 9152,
      "Dis": 9153,
      "MM": 9154,
      "ca": 9155,
      "iro": 9156,
      "pat": 9157,
      "eded": 9158,
      "Ġsession": 9159,
      "icode": 9160,
      "Ġeye": 9161,
      "ĠAC": 9162,
      "ĠMess": 9163,
      "Ġconclusion": 9164,
      "Ġstorm": 9165,
      "Ġwaste": 9166,
      "riers": 9167,
      "Ġuniform": 9168,
      "ĠJac": 9169,
      "acted": 9170,
      "oster": 9171,
      "Ġimpression": 9172,
      "ĠSearch": 9173,
      "Ġdevelopers": 9174,
      "Ġ400": 9175,
      "Ġdescent": 9176,
      "Ġorganised": 9177,
      "Ġstrike": 9178,
      "Ġposter": 9179,
      "Ġtyping": 9180,
      "Ġidentifying": 9181,
      "ĠComputer": 9182,
      "Ġsecure": 9183,
      "Ġfootnote": 9184,
      "Ġscholar": 9185,
      "Ġjudge": 9186,
      "ĠBrun": 9187,
      "Ġquotations": 9188,
      "etta": 9189,
      "Ġvolunt": 9190,
      "Ġzone": 9191,
      "Ġdemonstrated": 9192,
      "glas": 9193,
      "ĠMarshall": 9194,
      "ĠNobel": 9195,
      "ĠCrowley": 9196,
      "ieutenant": 9197,
      ".'": 9198,
      "OU": 9199,
      "SC": 9200,
      "bro": 9201,
      "hus": 9202,
      "iat": 9203,
      "rank": 9204,
      "Ġties": 9205,
      "itals": 9206,
      "aron": 9207,
      "rovers": 9208,
      "Ġbeaut": 9209,
      "ĠTop": 9210,
      "secut": 9211,
      "ĠPower": 9212,
      "Ġresign": 9213,
      "msford": 9214,
      "hedral": 9215,
      "Ġconsent": 9216,
      "Ġaggreg": 9217,
      "Ġcollected": 9218,
      "Ġsingular": 9219,
      "Ġdeclar": 9220,
      "ĠRepublican": 9221,
      "Ġsurvived": 9222,
      "Ġdisagree": 9223,
      "Ġarrangement": 9224,
      "Ġceremony": 9225,
[...]
