{
  "version": "1.0",
  "truncation": null,
  "padding": null,
  "added_tokens": [],
  "normalizer": null,
  "pre_tokenizer": {
    "type": "ByteLevel",
    "add_prefix_space": false,
    "trim_offsets": true
  },
  "post_processor": {
    "type": "ByteLevel",
    "add_prefix_space": true,
    "trim_offsets": false
  },
  "decoder": {
    "type": "ByteLevel",
    "add_prefix_space": true,
    "trim_offsets": true
  },
  "model": {
    "type": "BPE",
    "dropout": null,
    "unk_token": null,
    "continuing_subword_prefix": null,
    "end_of_word_suffix": null,
    "fuse_unk": false,
    "vocab": {
      "!": 0,
      "\"": 1,
      "#": 2,
      "$": 3,
      "%": 4,
      "&": 5,
      "'": 6,
      "(": 7,
      ")": 8,
      "*": 9,
      "+": 10,
      ",": 11,
      "-": 12,
      ".": 13,
      "/": 14,
      "0": 15,
      "1": 16,
      "2": 17,
      "3": 18,
      "4": 19,
      "5": 20,
      "6": 21,
      "7": 22,
      "8": 23,
      "9": 24,
      ":": 25,
      ";": 26,
      "<": 27,
      "=": 28,
      ">": 29,
      "?": 30,
      "@": 31,
      "A": 32,
      "B": 33,
      "C": 34,
      "D": 35,
      "E": 36,
      "F": 37,
      "G": 38,
      "H": 39,
      "I": 40,
      "J": 41,
      "K": 42,
      "L": 43,
      "M": 44,
      "N": 45,
      "O": 46,
      "P": 47,
      "Q": 48,
      "R": 49,
      "S": 50,
      "T": 51,
      "U": 52,
      "V": 53,
      "W": 54,
      "X": 55,
      "Y": 56,
      "Z": 57,
      "[": 58,
      "\\": 59,
      "]": 60,
      "^": 61,
      "_": 62,
      "`": 63,
      "a": 64,
      "b": 65,
      "c": 66,
      "d": 67,
      "e": 68,
      "f": 69,
      "g": 70,
      "h": 71,
      "i": 72,
      "j": 73,
      "k": 74,
      "l": 75,
      "m": 76,
      "n": 77,
      "o": 78,
      "p": 79,
      "q": 80,
      "r": 81,
      "s": 82,
      "t": 83,
      "u": 84,
      "v": 85,
      "w": 86,
      "x": 87,
      "y": 88,
      "z": 89,
      "{": 90,
      "|": 91,
      "}": 92,
      "~": 93,
      "¡": 94,
      "¢": 95,
      "£": 96,
      "¤": 97,
      "¥": 98,
      "¦": 99,
      "§": 100,
      "¨": 101,
      "©": 102,
      "ª": 103,
      "«": 104,
      "¬": 105,
      "®": 106,
      "¯": 107,
      "°": 108,
      "±": 109,
      "²": 110,
      "³": 111,
      "´": 112,
      "µ": 113,
      "¶": 114,
      "·": 115,
      "¸": 116,
      "¹": 117,
      "º": 118,
      "»": 119,
      "¼": 120,
      "½": 121,
      "¾": 122,
      "¿": 123,
      "À": 124,
      "Á": 125,
      "Â": 126,
      "Ã": 127,
      "Ä": 128,
      "Å": 129,
      "Æ": 130,
      "Ç": 131,
      "È": 132,
      "É": 133,
      "Ê": 134,
      "Ë": 135,
      "Ì": 136,
      "Í": 137,
      "Î": 138,
      "Ï": 139,
      "Ð": 140,
      "Ñ": 141,
      "Ò": 142,
      "Ó": 143,
      "Ô": 144,
      "Õ": 145,
      "Ö": 146,
      "×": 147,
      "Ø": 148,
      "Ù": 149,
      "Ú": 150,
      "Û": 151,
      "Ü": 152,
      "Ý": 153,
      "Þ": 154,
      "ß": 155,
      "à": 156,
      "á": 157,
      "â": 158,
      "ã": 159,
      "ä": 160,
      "å": 161,
      "æ": 162,
      "ç": 163,
      "è": 164,
      "é": 165,
      "ê": 166,
      "ë": 167,
      "ì": 168,
      "í": 169,
      "î": 170,
      "ï": 171,
      "ð": 172,
      "ñ": 173,
      "ò": 174,
      "ó": 175,
      "ô": 176,
      "õ": 177,
      "ö": 178,
      "÷": 179,
      "ø": 180,
      "ù": 181,
      "ú": 182,
      "û": 183,
      "ü": 184,
      "ý": 185,
      "þ": 186,
      "ÿ": 187,
      "Ā": 188,
      "ā": 189,
      "Ă": 190,
      "ă": 191,
      "Ą": 192,
      "ą": 193,
      "Ć": 194,
      "ć": 195,
      "Ĉ": 196,
      "ĉ": 197,
      "Ċ": 198,
      "ċ": 199,
      "Č": 200,
      "č": 201,
      "Ď": 202,
      "ď": 203,
      "Đ": 204,
      "đ": 205,
      "Ē": 206,
      "ē": 207,
      "Ĕ": 208,
      "ĕ": 209,
      "Ė": 210,
      "ė": 211,
      "Ę": 212,
      "ę": 213,
      "Ě": 214,
      "ě": 215,
      "Ĝ": 216,
      "ĝ": 217,
      "Ğ": 218,
      "ğ": 219,
      "Ġ": 220,
      "ġ": 221,
      "Ģ": 222,
      "ģ": 223,
      "Ĥ": 224,
      "ĥ": 225,
      "Ħ": 226,
      "ħ": 227,
      "Ĩ": 228,
      "ĩ": 229,
      "Ī": 230,
      "ī": 231,
      "Ĭ": 232,
      "ĭ": 233,
      "Į": 234,
      "į": 235,
      "İ": 236,
      "ı": 237,
      "Ĳ": 238,
      "ĳ": 239,
      "Ĵ": 240,
      "ĵ": 241,
      "Ķ": 242,
      "ķ": 243,
      "ĸ": 244,
      "Ĺ": 245,
      "ĺ": 246,
      "Ļ": 247,
      "ļ": 248,
      "Ľ": 249,
      "ľ": 250,
      "Ŀ": 251,
      "ŀ": 252,
      "Ł": 253,
      "ł": 254,
      "Ń": 255,
      "Ġt": 256,
      "Ġa": 257,
      "he": 258,
      "in": 259,
      "Ġthe": 260,
      "on": 261,
      "re": 262,
      "er": 263,
      "Ġo": 264,
      "at": 265,
      "ed": 266,
      "Ġs": 267,
      "en": 268,
      "Ġc": 269,
      "an": 270,
      "it": 271,
      "is": 272,
      "es": 273,
      "Ġw": 274,
      "or": 275,
      "al": 276,
      "Ġp": 277,
      "Ġof": 278,
      "Ġan": 279,
      "Ġin": 280,
      "Ġb": 281,
      "Ġf": 282,
      "ar": 283,
      "ic": 284,
      "ion": 285,
      "ing": 286,
      "Ġand": 287,
      "Ġm": 288,
      "Ġto": 289,
      "ou": 290,
      "as": 291,
      "Ġd": 292,
      "le": 293,
      "om": 294,
      "ent": 295,
      "Ġh": 296,
      "Ġre": 297,
      "Ġth": 298,
      "ly": 299,
      "ro": 300,
      "Ġn": 301,
      "st": 302,
      "Ġe": 303,
      "ct": 304,
      "Ġl": 305,
      "ve": 306,
      "il": 307,
      "Ġbe": 308,
      "ĠT": 309,
      "ĠA": 310,
      "ation": 311,
      ".[": 312,
      "us": 313,
      "am": 314,
      "ol": 315,
      "ĠS": 316,
      "Ġis": 317,
      "ce": 318,
      "ĠI": 319,
      "ot": 320,
      "ch": 321,
      "im": 322,
      "ĠC": 323,
      "Ġfor": 324,
      "id": 325,
      "ad": 326,
      "ut": 327,
      "Ġg": 328,
      "Ġas": 329,
      "ur": 330,
      "Ġon": 331,
      "Ġ1": 332,
      "et": 333,
      "ig": 334,
      "ver": 335,
      "un": 336,
      "Ġ(": 337,
      "ow": 338,
      "Ġ2": 339,
      "Ġthat": 340,
      "Ġcon": 341,
      "ĠM": 342,
      "ist": 343,
      "ir": 344,
      "ag": 345,
      "ul": 346,
      "ith": 347,
      "el": 348,
      "Ġst": 349,
      "ay": 350,
      "ĠB": 351,
      "Ġwas": 352,
      "em": 353,
      "Ġwith": 354,
      "ers": 355,
      "her": 356,
      "ĠThe": 357,
      "Ġwh": 358,
      "Ġal": 359,
      "ra": 360,
      "ĠP": 361,
      "Ġor": 362,
      "Ġby": 363,
      "Ġit": 364,
      "ere": 365,
      "ter": 366,
      "Ġpro": 367,
      "se": 368,
      "ĠW": 369,
      "ate": 370,
      "op": 371,
      "ri": 372,
      "Ġ20": 373,
      "if": 374,
      "Ġare": 375,
      "Ġsu": 376,
      "Ġde": 377,
      "th": 378,
      "and": 379,
      "'s": 380,
      "Ġcom": 381,
      "ia": 382,
      "est": 383,
      "rom": 384,
      "oun": 385,
      "ĠH": 386,
      "ĠR": 387,
      "ity": 388,
      "ment": 389,
      "Ġmo": 390,
      "ld": 391,
      "ĠF": 392,
      "Ġex": 393,
      "ĠE": 394,
      "Ġ\"": 395,
      "ies": 396,
      "ain": 397,
      "ab": 398,
      "ĠG": 399,
      "res": 400,
      "Ġus": 401,
      "Ġse": 402,
      "ac": 403,
      "pe": 404,
      "um": 405,
      "Ġv": 406,
      "Ġar": 407,
      "ĠD": 408,
      "os": 409,
      "Ġat": 410,
      "ĠN": 411,
      "oc": 412,
      "qu": 413,
      "ive": 414,
      "ud": 415,
      "ip": 416,
      "Ġfrom": 417,
      "ess": 418,
      "Ġnot": 419,
      "ort": 420,
      "ew": 421,
      "ial": 422,
      "Ġr": 423,
      "iv": 424,
      "ant": 425,
      "ĠIn": 426,
      "art": 427,
      "Ġun": 428,
      "Ġ19": 429,
      "od": 430,
      "ĠL": 431,
      "Ġhe": 432,
      "age": 433,
      "ical": 434,
      "ich": 435,
      "ian": 436,
      "pp": 437,
      "ĠU": 438,
      "ik": 439,
      "ated": 440,
      "pt": 441,
      "ĠJ": 442,
      "ill": 443,
      "Ġha": 444,
      "our": 445,
      "Ġy": 446,
      "ak": 447,
      "igh": 448,
      "ions": 449,
      "ther": 450,
      "og": 451,
      "cl": 452,
      "end": 453,
      "ĠO": 454,
      "Ġch": 455,
      "ary": 456,
      "ect": 457,
      "Ġwhich": 458,
      "pl": 459,
      "ber": 460,
      "gh": 461,
      "ard": 462,
      "Ġwere": 463,
      "ure": 464,
      "Ġhave": 465,
      "The": 466,
      "Ġcont": 467,
      "ang": 468,
      "][": 469,
      "ame": 470,
      "Ġad": 471,
      "Ġle": 472,
      "ust": 473,
      "ould": 474,
      "all": 475,
      "Ġthis": 476,
      "Ġpl": 477,
      "ome": 478,
      "Ġsh": 479,
      "der": 480,
      "Ġwor": 481,
      "iz": 482,
      "ast": 483,
      "so": 484,
      "Ġint": 485,
      "red": 486,
      "00": 487,
      "cc": 488,
      "ine": 489,
      "ous": 490,
      "ough": 491,
      "ĠK": 492,
      "Ġk": 493,
      "ight": 494,
      "ish": 495,
      "Ġhas": 496,
      "ong": 497,
      "ult": 498,
      "Ġart": 499,
      "ub": 500,
      "Ġim": 501,
      "ations": 502,
      "ual": 503,
      "Ġcomp": 504,
      "Ġne": 505,
      "per": 506,
      "Ġcan": 507,
      "rit": 508,
      "Ġdis": 509,
      "ide": 510,
      "Ġtheir": 511,
      "Ġother": 512,
      "ge": 513,
      "ound": 514,
      "Ġab": 515,
      "Ġalso": 516,
      "ep": 517,
      "Ġwhe": 518,
      "Ġbut": 519,
      "ks": 520,
      "Ġ201": 521,
      "out": 522,
      "ell": 523,
      "Ġall": 524,
      "ign": 525,
      "ore": 526,
      "ans": 527,
      "Ġres": 528,
      "ff": 529,
      "ction": 530,
      "Ġhis": 531,
      "Ġits": 532,
      "ence": 533,
      "Ġtr": 534,
      "ition": 535,
      "ap": 536,
      "edia": 537,
      "clud": 538,
      "orm": 539,
      "Ġpart": 540,
      "du": 541,
      "ib": 542,
      "ĠCh": 543,
      "ĠSt": 544,
      "erm": 545,
      "ĠTh": 546,
      "ire": 547,
      "ates": 548,
      "any": 549,
      "Ġcl": 550,
      "ces": 551,
      "Ġcomm": 552,
      "up": 553,
      "ount": 554,
      "Ġen": 555,
      "av": 556,
      "tern": 557,
      "ren": 558,
      "ory": 559,
      "ru": 560,
      "Ġhad": 561,
      "ass": 562,
      "vel": 563,
      "Ġbeen": 564,
      "Ġinclud": 565,
      "act": 566,
      "ors": 567,
      "ry": 568,
      "ie": 569,
      "ree": 570,
      "ue": 571,
      "ear": 572,
      "Ġone": 573,
      "able": 574,
      "Ġgo": 575,
      "ice": 576,
      "ance": 577,
      "Ġartic": 578,
      "ost": 579,
      "Ġed": 580,
      "Ġsuch": 581,
      "Ġ202": 582,
      "vers": 583,
      "ile": 584,
      "con": 585,
      "les": 586,
      "ime": 587,
      "Ġwho": 588,
      "irst": 589,
      "lic": 590,
      "Ġbec": 591,
      "Ġmore": 592,
      "alk": 593,
      "ord": 594,
      "Ġte": 595,
      "In": 596,
      "ens": 597,
      "ack": 598,
      "ational": 599,
      "port": 600,
      "ĠUn": 601,
      "Ġthey": 602,
      "mer": 603,
      "Ġj": 604,
      "ace": 605,
      "ph": 606,
      "Ġper": 607,
      "form": 608,
      "ric": 609,
      "ok": 610,
      "ase": 611,
      "Ġag": 612,
      "Ġcons": 613,
      "oll": 614,
      "ress": 615,
      "Ġfirst": 616,
      "ach": 617,
      "ced": 618,
      "),": 619,
      "Ġsc": 620,
      "hed": 621,
      "ĠIt": 622,
      "Ġind": 623,
      "ĠV": 624,
      "Ġev": 625,
      "Ġ200": 626,
      "Ġyou": 627,
      "Ġrel": 628,
      "ited": 629,
      "ater": 630,
      "Ġdo": 631,
      "Ġused": 632,
      "Ġapp": 633,
      "Ġsome": 634,
      "ose": 635,
      "ikip": 636,
      "Ġnew": 637,
      "Ġme": 638,
      "aw": 639,
      "rib": 640,
      "fter": 641,
      "Ġsy": 642,
      "Ġmay": 643,
      "ject": 644,
      "own": 645,
      "fere": 646,
      "ss": 647,
      "TC": 648,
      "amp": 649,
      "ite": 650,
      "Ġdes": 651,
      "one": 652,
      "ikipedia": 653,
      "ved": 654,
      "Ġgr": 655,
      "Ġwe": 656,
      "Ġspe": 657,
      "ade": 658,
      "Ġwould": 659,
      "ents": 660,
      "ific": 661,
      "ious": 662,
      "olog": 663,
      "Ġpre": 664,
      "Ġout": 665,
      "Ġthere": 666,
      "are": 667,
      "Ġso": 668,
      "Ġform": 669,
      "ally": 670,
      "Ġser": 671,
      "UTC": 672,
      "wo": 673,
      "we": 674,
      "Ġuse": 675,
      "int": 676,
      "ages": 677,
      "ind": 678,
      "Ġmost": 679,
      "Ġsub": 680,
      "Ġrec": 681,
      "feren": 682,
      "Ġcent": 683,
      "Ġreg": 684,
      "Ġover": 685,
      "Ġpe": 686,
      "uring": 687,
      "te": 688,
      "Ġqu": 689,
      "Ġinto": 690,
      "Ġadd": 691,
      "aus": 692,
      "Ġkn": 693,
      "Ġacc": 694,
      "Ġbet": 695,
      "Ġunder": 696,
      "Ġsp": 697,
      "ied": 698,
      "ism": 699,
      "ased": 700,
      "Ġthan": 701,
      "Ġoff": 702,
      "ail": 703,
      "lect": 704,
      "uss": 705,
      "ative": 706,
      "Ġ3": 707,
      "arch": 708,
      "Ġyear": 709,
      "vern": 710,
      "ener": 711,
      "Ġatt": 712,
      "ular": 713,
      "ities": 714,
      "Ġany": 715,
      "Ġup": 716,
      "gan": 717,
      "ĠThis": 718,
      ",[": 719,
      "Ġedit": 720,
      "ĠEn": 721,
      "Ġwork": 722,
      "Ġplay": 723,
      ").": 724,
      "ike": 725,
      "Ġpub": 726,
      "Ġarticle": 727,
      "Ġpage": 728,
      "Ġpol": 729,
      "ments": 730,
      "Ġtwo": 731,
      "ings": 732,
      "stem": 733,
      "land": 734,
      "Ġ18": 735,
      "ics": 736,
      "ft": 737,
      "Ġro": 738,
      "ĠAn": 739,
      "reat": 740,
      "rough": 741,
      "ered": 742,
      "Ġcount": 743,
      "Ġonly": 744,
      "ident": 745,
      "Ġabout": 746,
      "ople": 747,
      "Ġtime": 748,
      "ĠAl": 749,
      "ons": 750,
      "Ġwhen": 751,
      "Ġthem": 752,
      "Ġno": 753,
      "Ġact": 754,
      "old": 755,
      "ug": 756,
      "velop": 757,
      "Ġnum": 758,
      "Ġpr": 759,
      "ted": 760,
      "ten": 761,
      "ĠWikipedia": 762,
      "iss": 763,
      "talk": 764,
      "ween": 765,
      "wn": 766,
      "cial": 767,
      "ake": 768,
      "ution": 769,
      "ov": 770,
      "Ġdif": 771,
      "Ġmany": 772,
      "ild": 773,
      "Ġafter": 774,
      "Ġph": 775,
      "ĠAr": 776,
      "ollow": 777,
      "Ġam": 778,
      "ark": 779,
      "gr": 780,
      "Ġwill": 781,
      "Ġco": 782,
      "ever": 783,
      "Ġsystem": 784,
      "Ġass": 785,
      "ĠY": 786,
      "very": 787,
      "cess": 788,
      "Ġrem": 789,
      "Ġbetween": 790,
      "ink": 791,
      "11": 792,
      "ists": 793,
      "iet": 794,
      "xt": 795,
      "Ġinc": 796,
      "Ġdef": 797,
      "Ġcol": 798,
      "Ġdisc": 799,
      "Ġdevelop": 800,
      "Ġgovern": 801,
      "Ġpos": 802,
      "ince": 803,
      "oth": 804,
      "Ġpeople": 805,
      "Ġif": 806,
      "Ġinv": 807,
      "Ġpres": 808,
      "Ġem": 809,
      "ines": 810,
      "Ġpop": 811,
      "Ġneed": 812,
      "Ġprov": 813,
      "ames": 814,
      "Ġsupp": 815,
      "Ġthese": 816,
      "ury": 817,
      "ove": 818,
      "ating": 819,
      "Ġlar": 820,
      "iew": 821,
      "Ġbo": 822,
      "10": 823,
      "Ġac": 824,
      "ĠSe": 825,
      "oup": 826,
      "Ġfollow": 827,
      "ause": 828,
      "cept": 829,
      "ĠHe": 830,
      "Ġimp": 831,
      "19": 832,
      "ĠCom": 833,
      "angu": 834,
      "ble": 835,
      "Ġinst": 836,
      "led": 837,
      "ays": 838,
      "Ġthrough": 839,
      "urn": 840,
      "Ġear": 841,
      "Ġgener": 842,
      "Ġprodu": 843,
      "ts": 844,
      "ne": 845,
      "20": 846,
      "ath": 847,
      "Ġlike": 848,
      "ished": 849,
      "ob": 850,
      "hip": 851,
      "Ġpo": 852,
      "aj": 853,
      "als": 854,
      "ically": 855,
      "ck": 856,
      "Ġcre": 857,
      "meric": 858,
      "ys": 859,
      "ĠEng": 860,
      "Ġstud": 861,
      "Ġwhere": 862,
      "ient": 863,
      "cy": 864,
      "Ġ4": 865,
      "Ġra": 866,
      "Ġbl": 867,
      "ĠInd": 868,
      "lish": 869,
      "ĠDe": 870,
      "uro": 871,
      "tain": 872,
      "Ġchang": 873,
      "owever": 874,
      "ict": 875,
      "Ġinf": 876,
      "ually": 877,
      "ral": 878,
      "ply": 879,
      "Ġbeing": 880,
      "ility": 881,
      "ized": 882,
      "Ġinter": 883,
      "Ġvar": 884,
      "Ġfe": 885,
      "ise": 886,
      "Ġlangu": 887,
      "ily": 888,
      "Ġpers": 889,
      "Ġtrans": 890,
      "ĠFor": 891,
      "ible": 892,
      "Ġaut": 893,
      "12": 894,
      "Ġshould": 895,
      "Ġwell": 896,
      "Ġmem": 897,
      "fore": 898,
      "ivers": 899,
      "ning": 900,
      "ward": 901,
      "ĠAmeric": 902,
      "Ġrequ": 903,
      "Ġsoc": 904,
      "Ġman": 905,
      "Ġagain": 906,
      "oy": 907,
      "ures": 908,
      "inist": 909,
      "Ġmain": 910,
      "Ġduring": 911,
      "Ġob": 912,
      "hen": 913,
      "Ġ199": 914,
      "ĠRe": 915,
      "ank": 916,
      "..": 917,
      "Ġtra": 918,
      "Ġdec": 919,
      "Ġexp": 920,
      "Ġincluding": 921,
      "Ġfound": 922,
      "ars": 923,
      "Ġset": 924,
      "ĠIs": 925,
      "ĠUnited": 926,
      "Ġcall": 927,
      "Ġref": 928,
      "ah": 929,
      "ix": 930,
      "Ġent": 931,
      "13": 932,
      "Ġdifferen": 933,
      "Ġmade": 934,
      "ower": 935,
      "Ġbel": 936,
      "Ġ5": 937,
      "ool": 938,
      "Ġrep": 939,
      "ural": 940,
      "ĠNew": 941,
      "inal": 942,
      "ĠAs": 943,
      "ract": 944,
      "rent": 945,
      "Ġworld": 946,
      "ood": 947,
      "Ġpartic": 948,
      "Ġnumber": 949,
      "Ġsim": 950,
      "ron": 951,
      "Ġyears": 952,
      "irect": 953,
      "Ġcommun": 954,
      "Ġhist": 955,
      "Ġgovernment": 956,
      "hes": 957,
      "Ġsign": 958,
      "14": 959,
      "uch": 960,
      "elf": 961,
      "ateg": 962,
      "Ġche": 963,
      "Ġ2023": 964,
      "Ġend": 965,
      "Ġloc": 966,
      "ision": 967,
      "ology": 968,
      "ful": 969,
      "Ġmet": 970,
      "ature": 971,
      "Ġpublic": 972,
      "Ġterm": 973,
      "ample": 974,
      "Ġgroup": 975,
      "urope": 976,
      "ork": 977,
      "ving": 978,
      "000": 979,
      "Ġboth": 980,
      "ond": 981,
      "'t": 982,
      "raph": 983,
      "Ġdist": 984,
      "ined": 985,
      "Ġwhile": 986,
      "Ġthen": 987,
      ".\"": 988,
      "15": 989,
      "uc": 990,
      "Ġest": 991,
      "ick": 992,
      "Ġcentury": 993,
      "pect": 994,
      "Ġeff": 995,
      "rol": 996,
      "bers": 997,
      "Ġcould": 998,
      "ĠGerm": 999,
      "Ġwrit": 1000,
      "imes": 1001,
      "Ġrev": 1002,
      "eply": 1003,
      "ĠEurope": 1004,
      "other": 1005,
      "Ġsupport": 1006,
      "\",": 1007,
      "ting": 1008,
      "mber": 1009,
      "row": 1010,
      "ajor": 1011,
      "Ġoften": 1012,
      "16": 1013,
      "Ġap": 1014,
      "Ġsour": 1015,
      "cond": 1016,
      "formation": 1017,
      "Ġ-": 1018,
      "Ġlead": 1019,
      "yp": 1020,
      "lished": 1021,
      "ians": 1022,
      "reply": 1023,
      "Ġexample": 1024,
      "Ġbecause": 1025,
      "gest": 1026,
      "Reply": 1027,
      "Ġsame": 1028,
      "Ġbu": 1029,
      "Ġfil": 1030,
      "chool": 1031,
      "ĠBrit": 1032,
      "Ġconsid": 1033,
      "18": 1034,
      "Ġstate": 1035,
      "ants": 1036,
      "ues": 1037,
      "Ġresult": 1038,
      "ock": 1039,
      "Ġmat": 1040,
      "Ġchar": 1041,
      "Ġop": 1042,
      "ilit": 1043,
      "Ġknown": 1044,
      "17": 1045,
      "Ġ6": 1046,
      "Ġspec": 1047,
      "chn": 1048,
      "Ġbecame": 1049,
      "its": 1050,
      "Ġlaw": 1051,
      "Ġwhat": 1052,
      "li": 1053,
      "ĠAf": 1054,
      "Ġwar": 1055,
      "Ġorgan": 1056,
      "und": 1057,
      "Ġown": 1058,
      "Ġext": 1059,
      "Ġtem": 1060,
      "Ġarticles": 1061,
      "Ġcur": 1062,
      "Ġdesc": 1063,
      "Ġdifferent": 1064,
      "Ġright": 1065,
      "ruct": 1066,
      "Ġmon": 1067,
      "Ġprocess": 1068,
      "ries": 1069,
      "Ġ17": 1070,
      "Ġthree": 1071,
      "Ġcity": 1072,
      "ĠĊ": 1073,
      "ribut": 1074,
      "ĠAug": 1075,
      "Ġmajor": 1076,
      "Ġfl": 1077,
      "ran": 1078,
      "az": 1079,
      "air": 1080,
      "ulation": 1081,
      "Ġperson": 1082,
      "Ġagainst": 1083,
      "eb": 1084,
      "ĠCon": 1085,
      "ĠComm": 1086,
      "ves": 1087,
      "stit": 1088,
      "uman": 1089,
      "aking": 1090,
      "the": 1091,
      "Ġinclude": 1092,
      "Ġsur": 1093,
      "outh": 1094,
      "io": 1095,
      "orld": 1096,
      "pr": 1097,
      "ices": 1098,
      "conom": 1099,
      "Ġhigh": 1100,
      "ĠStates": 1101,
      "Ġeach": 1102,
      "Ġdep": 1103,
      "ms": 1104,
      "Ġlist": 1105,
      "Ġcalled": 1106,
      "ention": 1107,
      "ĠOn": 1108,
      "Ġsince": 1109,
      "iel": 1110,
      "Ġgame": 1111,
      "Ġlarge": 1112,
      "Ġappro": 1113,
      "ript": 1114,
      "osed": 1115,
      "ather": 1116,
      "ivid": 1117,
      "omet": 1118,
      "Ġcontin": 1119,
      "gram": 1120,
      "orth": 1121,
      "Ġorig": 1122,
      "Ġpolit": 1123,
      "ty": 1124,
      "ience": 1125,
      "ording": 1126,
      "aid": 1127,
      "Ġlong": 1128,
      "Ġhel": 1129,
      "Ġallow": 1130,
      "ins": 1131,
      "Ġlanguage": 1132,
      "Ġdiscuss": 1133,
      "ason": 1134,
      "Ġ0": 1135,
      "ital": 1136,
      "Ġcor": 1137,
      "Ġlater": 1138,
      "Ġearly": 1139,
      "Ġthose": 1140,
      "ale": 1141,
      "ĠAugust": 1142,
      "Ġdet": 1143,
      "Ġrele": 1144,
      "Ġmod": 1145,
      "ann": 1146,
      "Ġconf": 1147,
      "Ġbefore": 1148,
      "Ġele": 1149,
      "Ġappe": 1150,
      "ives": 1151,
      "ization": 1152,
      "Ġincre": 1153,
      "\".[": 1154,
      "tle": 1155,
      "Ġinformation": 1156,
      "Ġnon": 1157,
      "Ġelect": 1158,
      "Ġcult": 1159,
      "ĠSh": 1160,
      "Ġ15": 1161,
      "ense": 1162,
      "Ġhelp": 1163,
      "ton": 1164,
      "ĠPro": 1165,
      "ĠWorld": 1166,
      "Ġcommon": 1167,
      "Ġoffic": 1168,
      "Ġcomple": 1169,
      "Ġmove": 1170,
      "ĠEnglish": 1171,
      "ex": 1172,
      "Ġjust": 1173,
      "itation": 1174,
      "ternational": 1175,
      "Ġknow": 1176,
      "Ġfollowing": 1177,
      "Ġstat": 1178,
      "Ġshow": 1179,
      "Ġsecond": 1180,
      "ired": 1181,
      "Ġher": 1182,
      "Ġsee": 1183,
      "Ġsever": 1184,
      "ised": 1185,
      "oh": 1186,
      "cer": 1187,
      "ared": 1188,
      "ement": 1189,
      "Ġpar": 1190,
      "Th": 1191,
      "ash": 1192,
      "Ġstr": 1193,
      "omen": 1194,
      "ĠRuss": 1195,
      "Ġoper": 1196,
      "Ġ7": 1197,
      "Ġname": 1198,
      "iversity": 1199,
      "Ġprot": 1200,
      "Ġmus": 1201,
      "ament": 1202,
      "Ġocc": 1203,
      "alth": 1204,
      "Ġusing": 1205,
      "Ġseveral": 1206,
      "Ġimport": 1207,
      "ĠHowever": 1208,
      "Ġsm": 1209,
      "omin": 1210,
      "tt": 1211,
      "Ġleg": 1212,
      "ified": 1213,
      "Ġ198": 1214,
      "23": 1215,
      "ook": 1216,
      "Ġmy": 1217,
      "Ġprev": 1218,
      "sy": 1219,
      "ll": 1220,
      "til": 1221,
      "Ġadv": 1222,
      "Ġav": 1223,
      "oman": 1224,
      "Ġreport": 1225,
      "Ġ16": 1226,
      "Ġdesign": 1227,
      "Ġhim": 1228,
      "ets": 1229,
      "Ġmake": 1230,
      "Ġ10": 1231,
      "Ġtechn": 1232,
      "ser": 1233,
      "ield": 1234,
      "Ġyour": 1235,
      "Ġeven": 1236,
      "Ġprogram": 1237,
      "tic": 1238,
      "ec": 1239,
      "read": 1240,
      "Ġexper": 1241,
      "Ġhow": 1242,
      "lu": 1243,
      "Ġneeded": 1244,
      "ional": 1245,
      "Ġdid": 1246,
      "ĠSc": 1247,
      "man": 1248,
      "Ġ197": 1249,
      "Ġtrad": 1250,
      "Ġdirect": 1251,
      "ax": 1252,
      "ĠAmerican": 1253,
      "Ġtop": 1254,
      "ĠWh": 1255,
      "Ġdoes": 1256,
      "Ġiss": 1257,
      "ived": 1258,
      "ife": 1259,
      "hor": 1260,
      "Ġserv": 1261,
      "Ġcountry": 1262,
      "ograph": 1263,
      "ories": 1264,
      "Ġeconom": 1265,
      "com": 1266,
      "iod": 1267,
      "Ġgu": 1268,
      "my": 1269,
      "ases": 1270,
      "ĠLe": 1271,
      "Ġ8": 1272,
      "though": 1273,
      "Ġsocial": 1274,
      "Ġpages": 1275,
      "Ġexpl": 1276,
      "ued": 1277,
      "Ġposs": 1278,
      "Ġmilit": 1279,
      "Ġwithin": 1280,
      "ina": 1281,
      "Ġpri": 1282,
      "Ġback": 1283,
      "Ġcrit": 1284,
      "Ġpoint": 1285,
      "rat": 1286,
      "Ġ14": 1287,
      "ĠBritish": 1288,
      "med": 1289,
      "Ġdem": 1290,
      "ata": 1291,
      "ey": 1292,
      "ĠZ": 1293,
      "Ġestab": 1294,
      "Ġfact": 1295,
      "itions": 1296,
      "Ġresp": 1297,
      "Ġthough": 1298,
      "Ġclass": 1299,
      "ven": 1300,
      "Ġret": 1301,
      "ger": 1302,
      "Ġopen": 1303,
      "Ġfam": 1304,
      "ged": 1305,
      "Ġstand": 1306,
      "Ġstart": 1307,
      "ave": 1308,
      "une": 1309,
      "Ġcontrol": 1310,
      "ently": 1311,
      "Ġopp": 1312,
      "aim": 1313,
      "ĠMay": 1314,
      "22": 1315,
      "ĠWar": 1316,
      "ality": 1317,
      "Ġschool": 1318,
      "Ġuntil": 1319,
      "Ġmark": 1320,
      "ouse": 1321,
      "Ġprop": 1322,
      "Ġadm": 1323,
      "ize": 1324,
      "Ġbased": 1325,
      "Ġprovid": 1326,
      "Ġann": 1327,
      "ublic": 1328,
      "Ġprom": 1329,
      "Ġident": 1330,
      "orn": 1331,
      "Ġremain": 1332,
      "rist": 1333,
      "iki": 1334,
      "Ġ'": 1335,
      "ccess": 1336,
      "Ġperiod": 1337,
      "por": 1338,
      "ended": 1339,
      "Ġpolic": 1340,
      "Ġpower": 1341,
      "uly": 1342,
      "Ġcap": 1343,
      "Ġ9": 1344,
      "Ġcurrent": 1345,
      "Ġbelie": 1346,
      "Ġmed": 1347,
      "Ġfour": 1348,
      "Ġway": 1349,
      "ober": 1350,
      "epend": 1351,
      "Ġread": 1352,
      "Ġnow": 1353,
      "24": 1354,
      "get": 1355,
      "Ġproble": 1356,
      "Ġmin": 1357,
      "Ġhuman": 1358,
      ".\"[": 1359,
      "\".": 1360,
      "resent": 1361,
      "Ġtempl": 1362,
      "apt": 1363,
      "Ġpopulation": 1364,
      "Ġ196": 1365,
      "25": 1366,
      "els": 1367,
      "Ġbro": 1368,
      "ross": 1369,
      "oad": 1370,
      "ĠJan": 1371,
      "par": 1372,
      "30": 1373,
      "Ġval": 1374,
      "Ġstill": 1375,
      "Ġcountries": 1376,
      "olution": 1377,
      "ote": 1378,
      "Ġtext": 1379,
      "Ġrese": 1380,
      "Ġpolitical": 1381,
      "Ġvers": 1382,
      "Ġvery": 1383,
      "rodu": 1384,
      "Ġparticular": 1385,
      "Ġmuch": 1386,
      "Ġview": 1387,
      "ĠQ": 1388,
      "ration": 1389,
      "ĠIf": 1390,
      "Ġmembers": 1391,
      "Ġcop": 1392,
      "Ġdele": 1393,
      "Ġsl": 1394,
      "Ġeffect": 1395,
      "Ġrest": 1396,
      "Ġplace": 1397,
      "Ġwithout": 1398,
      "iety": 1399,
      "Ġide": 1400,
      "ĠMus": 1401,
      "Ġperform": 1402,
      "Ġchild": 1403,
      "ier": 1404,
      "ox": 1405,
      "Ġlink": 1406,
      "ene": 1407,
      "ner": 1408,
      "Ġword": 1409,
      "itional": 1410,
      "Ġnational": 1411,
      "Ġcharact": 1412,
      "ĠJuly": 1413,
      "Ġaround": 1414,
      "Ġsomet": 1415,
      "uary": 1416,
      "line": 1417,
      "aced": 1418,
      "ividual": 1419,
      "ior": 1420,
      "ilar": 1421,
      "Ġmilitary": 1422,
      "Ġdescrib": 1423,
      "Ġtyp": 1424,
      "Ġamong": 1425,
      "ĠThey": 1426,
      "illion": 1427,
      "ately": 1428,
      "Ġrelig": 1429,
      "Ġlit": 1430,
      "ull": 1431,
      "Ġinflu": 1432,
      "sc": 1433,
      "oci": 1434,
      "ĠMarch": 1435,
      "Ġcomput": 1436,
      "Ġsmall": 1437,
      "Ġbegan": 1438,
      "way": 1439,
      "Ġcar": 1440,
      "mp": 1441,
      "ien": 1442,
      "Ġtalk": 1443,
      "cent": 1444,
      "Ġpur": 1445,
      "Ġmoder": 1446,
      "Ġproject": 1447,
      "ission": 1448,
      "Ġuser": 1449,
      "Ġbeh": 1450,
      "Ġgiv": 1451,
      "ĠThere": 1452,
      "ĠBe": 1453,
      "au": 1454,
      "Ġ2022": 1455,
      "ĠAfric": 1456,
      "Ġhistory": 1457,
      "Ġpract": 1458,
      "50": 1459,
      "ember": 1460,
      "Ġcateg": 1461,
      "Ġsing": 1462,
      "Ġsaid": 1463,
      "ute": 1464,
      "Ġindividual": 1465,
      "Ġofficial": 1466,
      "ards": 1467,
      "Ġcour": 1468,
      "Ġsubject": 1469,
      "Ġrul": 1470,
      "lease": 1471,
      "Ġdra": 1472,
      "Ġpresent": 1473,
      "ify": 1474,
      "Ġhead": 1475,
      "On": 1476,
      "Ġeng": 1477,
      "ĠAust": 1478,
      "ĠJanuary": 1479,
      "pril": 1480,
      "Ġrece": 1481,
      "me": 1482,
      "Ġevery": 1483,
      "ĠJune": 1484,
      "Ġexist": 1485,
      "ware": 1486,
      "ĠAd": 1487,
      "to": 1488,
      "Ġgeneral": 1489,
      "Ġsuccess": 1490,
      "Ġdevelopment": 1491,
      "ĠApril": 1492,
      "sych": 1493,
      "Ġconsidered": 1494,
      "Ġtit": 1495,
      "ĠThese": 1496,
      "26": 1497,
      "ode": 1498,
      "Ġdue": 1499,
      "rop": 1500,
      "Ġel": 1501,
      "ivil": 1502,
      "ĠSp": 1503,
      "27": 1504,
      "Ġanother": 1505,
      "Ġstates": 1506,
      "Ġshe": 1507,
      "ither": 1508,
      "ogn": 1509,
      "Ġpost": 1510,
      "Ġgames": 1511,
      "Ġcr": 1512,
      "eng": 1513,
      "ange": 1514,
      "Ġclaim": 1515,
      "ai": 1516,
      "Ġcontribut": 1517,
      "Ġbuild": 1518,
      "pecial": 1519,
      "ĠChrist": 1520,
      "ird": 1521,
      "ĠAt": 1522,
      "Ġcontent": 1523,
      "Ġland": 1524,
      "Ġauthor": 1525,
      "Ġ13": 1526,
      "Ġimportant": 1527,
      "ĠGerman": 1528,
      "amb": 1529,
      "ĠPh": 1530,
      "Ġequ": 1531,
      "Ġcreated": 1532,
      "Ġhand": 1533,
      "Ġrepresent": 1534,
      "Ġlevel": 1535,
      "Ġinvol": 1536,
      "Ġpass": 1537,
      "yle": 1538,
      "Ġteam": 1539,
      "Ġsex": 1540,
      "Ġmar": 1541,
      "Ġthink": 1542,
      "erest": 1543,
      "Ġfun": 1544,
      "iqu": 1545,
      "Ġarg": 1546,
      "Ġes": 1547,
      "Ġimage": 1548,
      "ret": 1549,
      "Ġrun": 1550,
      "}}": 1551,
      "28": 1552,
      "inc": 1553,
      "Ġpat": 1554,
      "side": 1555,
      "oint": 1556,
      "ĠRep": 1557,
      "ining": 1558,
      "Ġmodern": 1559,
      "Ġsignific": 1560,
      "Ġgood": 1561,
      "ium": 1562,
      "gy": 1563,
      "Ġvarious": 1564,
      "ential": 1565,
      "ĠBl": 1566,
      "right": 1567,
      "ĠUS": 1568,
      "istan": 1569,
      "estern": 1570,
      "ram": 1571,
      "Ġwomen": 1572,
      "ĠSouth": 1573,
      "Ġvis": 1574,
      "Ġpopular": 1575,
      "Ġprof": 1576,
      "Ġorder": 1577,
      "ony": 1578,
      "ling": 1579,
      "eder": 1580,
      "urther": 1581,
      "Ġmult": 1582,
      "This": 1583,
      "Ġaff": 1584,
      "Ġeduc": 1585,
      "29": 1586,
      "empt": 1587,
      "Ġchess": 1588,
      "ĠKing": 1589,
      "Ġarea": 1590,
      "idd": 1591,
      "Ġfind": 1592,
      ").[": 1593,
      "ness": 1594,
      "ological": 1595,
      "ploy": 1596,
      "ĠGo": 1597,
      "Ġ194": 1598,
      "Ġarch": 1599,
      "ead": 1600,
      "ĠEuropean": 1601,
      "Ġfilm": 1602,
      "Ġsimilar": 1603,
      "Ġmust": 1604,
      "tal": 1605,
      "ring": 1606,
      "oph": 1607,
      "Ġsug": 1608,
      "lear": 1609,
      "Ġsec": 1610,
      "Ġ[": 1611,
      "ĠFr": 1612,
      "Ġresearch": 1613,
      "gin": 1614,
      "Ġinterest": 1615,
      "ohn": 1616,
      "Ġindepend": 1617,
      "ertain": 1618,
      "ĠCl": 1619,
      "iver": 1620,
      "hod": 1621,
      "citation": 1622,
      "Ġ12": 1623,
      "ĠOr": 1624,
      "ĠNorth": 1625,
      "day": 1626,
      "Ġfew": 1627,
      "Ġold": 1628,
      "Ġcase": 1629,
      "Ġcommunity": 1630,
      "Ġfin": 1631,
      "Ġled": 1632,
      "Ġ2021": 1633,
      "Ġweb": 1634,
      "Ġlocal": 1635,
      "{{": 1636,
      "ification": 1637,
      "Ġter": 1638,
      "sp": 1639,
      "ĠNational": 1640,
      "Ġlim": 1641,
      "Ġincluded": 1642,
      "ively": 1643,
      "mat": 1644,
      "Ġlast": 1645,
      "Ġlife": 1646,
      "Ġhere": 1647,
      "ovember": 1648,
      "ĠMar": 1649,
      "ering": 1650,
      "ĠUniversity": 1651,
      "...": 1652,
      "Ġer": 1653,
      "Ġbas": 1654,
      "Ġdeveloped": 1655,
      "Ġquest": 1656,
      "cember": 1657,
      "Ġmusic": 1658,
      "Ġcontain": 1659,
      "ĠOct": 1660,
      "ability": 1661,
      "ĠNovember": 1662,
      "Ġrepl": 1663,
      "ĠTr": 1664,
      "ried": 1665,
      "Ġdiscussion": 1666,
      "af": 1667,
      "ĠFeb": 1668,
      "Ġaccess": 1669,
      "Ġseries": 1670,
      "Ġprim": 1671,
      "Ġothers": 1672,
      "ĠDecember": 1673,
      "ruary": 1674,
      "Ġdown": 1675,
      "Ġsit": 1676,
      "Ġsignificant": 1677,
      "ency": 1678,
      "Ġgl": 1679,
      "Ġheld": 1680,
      "ke": 1681,
      "dom": 1682,
      "Ġfree": 1683,
      "Ġless": 1684,
      "Ġhistor": 1685,
      "ailable": 1686,
      "Ġdecl": 1687,
      "Ġconst": 1688,
      "Ġimpro": 1689,
      "istic": 1690,
      "less": 1691,
      "ĠFebruary": 1692,
      "amed": 1693,
      "put": 1694,
      "irc": 1695,
      "akes": 1696,
      "Ġgiven": 1697,
      "ĠOctober": 1698,
      "cing": 1699,
      "Ġalong": 1700,
      "tion": 1701,
      "Ġchange": 1702,
      "ĠCol": 1703,
      "yn": 1704,
      "Ġusually": 1705,
      "Ġbecome": 1706,
      "oss": 1707,
      "Ġsources": 1708,
      "ĠCent": 1709,
      "Ġconcer": 1710,
      "Ġadminist": 1711,
      "play": 1712,
      "lam": 1713,
      "Ġsuggest": 1714,
      "ptember": 1715,
      "rench": 1716,
      "Ġsource": 1717,
      "Ġpublished": 1718,
      "Ġdata": 1719,
      "ĠPr": 1720,
      "Ġtake": 1721,
      "Ġinit": 1722,
      "ĠPar": 1723,
      "Ġrecord": 1724,
      "etw": 1725,
      "ĠRoman": 1726,
      "Ġred": 1727,
      "stitution": 1728,
      "ccording": 1729,
      "Ġlog": 1730,
      "Ġareas": 1731,
      "ĠSeptember": 1732,
      "ley": 1733,
      "Ġinternational": 1734,
      "Ġreview": 1735,
      "Ġstudy": 1736,
      "stand": 1737,
      "oot": 1738,
      "ĠAss": 1739,
      "ĠJohn": 1740,
      "ination": 1741,
      "ĠCar": 1742,
      "Ġhig": 1743,
      "Ġmater": 1744,
      "Ġfield": 1745,
      "ĠTo": 1746,
      "Ġfore": 1747,
      "Ġusers": 1748,
      "An": 1749,
      "Ġsection": 1750,
      "Ġreferen": 1751,
      "Ġcopy": 1752,
      "Ġsystems": 1753,
      "itive": 1754,
      "ĠChe": 1755,
      "cil": 1756,
      "wards": 1757,
      "ĠGr": 1758,
      "Ġnear": 1759,
      "Ġmethod": 1760,
      "Ġindust": 1761,
      "Ġmen": 1762,
      "Ġactiv": 1763,
      "Ġmillion": 1764,
      "Ġdon": 1765,
      "Ġday": 1766,
      "Ġintrodu": 1767,
      "ĠRussian": 1768,
      "ably": 1769,
      "ĠIndia": 1770,
      "ps": 1771,
      "urch": 1772,
      "ument": 1773,
      "Ġport": 1774,
      "Ġestablished": 1775,
      "ody": 1776,
      "Ġcomb": 1777,
      "Ġfre": 1778,
      "Ġspecial": 1779,
      "erv": 1780,
      "ats": 1781,
      "34": 1782,
      "Ġcharacter": 1783,
      "rab": 1784,
      "Ġpsych": 1785,
      "iness": 1786,
      "Ġphys": 1787,
      "ĠII": 1788,
      "ection": 1789,
      "ured": 1790,
      "for": 1791,
      "Ġgroups": 1792,
      "Ġeither": 1793,
      "Ar": 1794,
      "Ġaccount": 1795,
      "Ġget": 1796,
      "here": 1797,
      "iol": 1798,
      "Ġcivil": 1799,
      "Ġsingle": 1800,
      "Ġgreat": 1801,
      "Ġattempt": 1802,
      "Ġobject": 1803,
      "Ġmaterial": 1804,
      "Ġpossible": 1805,
      "ches": 1806,
      "Ġdiff": 1807,
      "hing": 1808,
      "ĠPl": 1809,
      "ĠFrench": 1810,
      "ĠWest": 1811,
      "Ġ2020": 1812,
      "ĠCan": 1813,
      "enn": 1814,
      "ales": 1815,
      "33": 1816,
      "Ġpolicy": 1817,
      "not": 1818,
      "ĠSome": 1819,
      "Ġshort": 1820,
      "ĠĠ": 1821,
      "Ġ11": 1822,
      "Ġwant": 1823,
      "Ġtemplate": 1824,
      "aster": 1825,
      "acy": 1826,
      "Ġformer": 1827,
      "Ġevent": 1828,
      "ges": 1829,
      "Ġavailable": 1830,
      "Ġcompet": 1831,
      "Ġ2010": 1832,
      "ple": 1833,
      "Ġproper": 1834,
      "Ġlate": 1835,
      "aun": 1836,
      "Ġforces": 1837,
      "Ġbi": 1838,
      "Ġversion": 1839,
      "arm": 1840,
      "ĠX": 1841,
      "ĠEast": 1842,
      "Ġdeath": 1843,
      "Ġannoun": 1844,
      "Ġworks": 1845,
      "ĠAustral": 1846,
      "Ġoriginal": 1847,
      "Ġcit": 1848,
      "Ġbus": 1849,
      "by": 1850,
      "ĠBy": 1851,
      "rict": 1852,
      "Ġrather": 1853,
      "Ġrefer": 1854,
      "Ġ{{": 1855,
      "iving": 1856,
      "lim": 1857,
      "Ġmonth": 1858,
      "idence": 1859,
      "oks": 1860,
      "Ġgre": 1861,
      "ctions": 1862,
      "ternet": 1863,
      "Ġtook": 1864,
      "35": 1865,
      "Ġhealth": 1866,
      "Ġhowever": 1867,
      "Ġrequest": 1868,
      "Ġrights": 1869,
      "ĠYork": 1870,
      "ilos": 1871,
      "Ġeditors": 1872,
      "ĠAm": 1873,
      "Ġsepar": 1874,
      "Ġmedia": 1875,
      "inks": 1876,
      "ances": 1877,
      "36": 1878,
      "ots": 1879,
      "Ġparticip": 1880,
      "Ġrole": 1881,
      "Ġdev": 1882,
      "pecially": 1883,
      "Ġhaving": 1884,
      "Ġanal": 1885,
      "be": 1886,
      "Ġchanges": 1887,
      "ler": 1888,
      "Ġeas": 1889,
      "iron": 1890,
      "ĠKh": 1891,
      "anks": 1892,
      "iber": 1893,
      "Ġassoci": 1894,
      "ides": 1895,
      "Ġmean": 1896,
      "Ġaddress": 1897,
      "ĠAnd": 1898,
      "rain": 1899,
      "ected": 1900,
      "Ġleft": 1901,
      "ĠEngland": 1902,
      "ator": 1903,
      "ĠGermany": 1904,
      "ĠRepublic": 1905,
      "ouncil": 1906,
      "Ġstruct": 1907,
      "21": 1908,
      "aken": 1909,
      "Ġreleased": 1910,
      "Ġrelations": 1911,
      "39": 1912,
      "used": 1913,
      "Ġcamp": 1914,
      "ades": 1915,
      "oviet": 1916,
      "Ġcertain": 1917,
      "ĠEx": 1918,
      "Ġfurther": 1919,
      "40": 1920,
      "Ġcaus": 1921,
      "Ġcare": 1922,
      "Ġleast": 1923,
      "Ġpresident": 1924,
      "Ġreal": 1925,
      "Ġrecogn": 1926,
      "Ġpriv": 1927,
      "ones": 1928,
      "37": 1929,
      "Ġren": 1930,
      "rael": 1931,
      "Ġplayed": 1932,
      "val": 1933,
      "Ġwon": 1934,
      "Ġdoc": 1935,
      "che": 1936,
      "Ġnetw": 1937,
      "Ġsk": 1938,
      "Ġprevious": 1939,
      "aged": 1940,
      "Ġgrow": 1941,
      "Ġline": 1942,
      "iple": 1943,
      "Ġfoc": 1944,
      "ĠAll": 1945,
      "Ġconcept": 1946,
      "ledge": 1947,
      "Ġtheory": 1948,
      "ored": 1949,
      "Ġcond": 1950,
      "pload": 1951,
      "abor": 1952,
      "ule": 1953,
      "Ġke": 1954,
      "Ġ21": 1955,
      "ĠSy": 1956,
      "Ġoccur": 1957,
      "Ġlanguages": 1958,
      "Ġhome": 1959,
      "Ġcompany": 1960,
      "ising": 1961,
      "Ġperm": 1962,
      "Ġreturn": 1963,
      "inese": 1964,
      "Ġregion": 1965,
      "Ġwin": 1966,
      "aps": 1967,
      "Ġbook": 1968,
      "ender": 1969,
      "Ġbehav": 1970,
      "Ġpa": 1971,
      "Ġregard": 1972,
      "ensus": 1973,
      "Ġsent": 1974,
      "Ġdel": 1975,
      "Ġchildren": 1976,
      "ilt": 1977,
      "Ġspecific": 1978,
      "ĠTe": 1979,
      "38": 1980,
      "ĠAb": 1981,
      "ĠSoviet": 1982,
      "org": 1983,
      "ĠGree": 1984,
      "ĠChina": 1985,
      "Ġtest": 1986,
      "ched": 1987,
      "Ġbest": 1988,
      "Ġprovide": 1989,
      "Ġorigin": 1990,
      "Ġservice": 1991,
      "Ġgenerally": 1992,
      "rid": 1993,
      "Ġmight": 1994,
      "ourn": 1995,
      "Ġ2019": 1996,
      "ftware": 1997,
      "Ġwritten": 1998,
      "aries": 1999,
      "Ġant": 2000,
      "Ġeconomic": 2001,
      "atic": 2002,
      "ott": 2003,
      "Ġhost": 2004,
      "ĠIslam": 2005,
      "Ġapplic": 2006,
      "Ġstrong": 2007,
      "Ġfive": 2008,
      "Ġmaking": 2009,
      "ĠMan": 2010,
      "Ġalthough": 2011,
      "asing": 2012,
      "Ġwhether": 2013,
      "sequ": 2014,
      "Ġmess": 2015,
      "Re": 2016,
      "Ġaccept": 2017,
      "Ġreason": 2018,
      "'m": 2019,
      "most": 2020,
      "Ġeditor": 2021,
      "isc": 2022,
      "Ġredu": 2023,
      "Ġ2011": 2024,
      "Ġterms": 2025,
      "Ġposition": 2026,
      "ze": 2027,
      "ibr": 2028,
      "ems": 2029,
      "Ġlear": 2030,
      "ending": 2031,
      "Ġespecially": 2032,
      "Ġcolle": 2033,
      "Ġwide": 2034,
      "adem": 2035,
      "Ġlargest": 2036,
      "ĠIsrael": 2037,
      "uation": 2038,
      "Ġpie": 2039,
      "Ġeducation": 2040,
      "Ġopt": 2041,
      "ese": 2042,
      "ĠGe": 2043,
      "ison": 2044,
      "ĠUnion": 2045,
      "ffic": 2046,
      "ĠJew": 2047,
      "Ġplayer": 2048,
      "hers": 2049,
      "Ġ--": 2050,
      "Ġkill": 2051,
      "Ġfeature": 2052,
      "ĠPol": 2053,
      "Ġviol": 2054,
      "Ġturn": 2055,
      "Ġking": 2056,
      "Ġbat": 2057,
      "arily": 2058,
      "Ġplan": 2059,
      "ĠPres": 2060,
      "Ġcomputer": 2061,
      "Ġlook": 2062,
      "ription": 2063,
      "ĠAfter": 2064,
      "ĠChinese": 2065,
      "acks": 2066,
      "ĠUk": 2067,
      "Ġsix": 2068,
      "Ġproduct": 2069,
      "Ġappear": 2070,
      "Ġcases": 2071,
      "Ġgen": 2072,
      "liament": 2073,
      "ype": 2074,
      "ĠItal": 2075,
      "As": 2076,
      "oid": 2077,
      "iddle": 2078,
      "Ġphilos": 2079,
      "aces": 2080,
      "Ġair": 2081,
      "Ġstandard": 2082,
      "Ġfund": 2083,
      "Ġtitle": 2084,
      "Ġplayers": 2085,
      "ĠEd": 2086,
      "ways": 2087,
      "Ġaddition": 2088,
      "alf": 2089,
      "Ġthird": 2090,
      "Ġbroad": 2091,
      "//": 2092,
      "ental": 2093,
      "Ġ2018": 2094,
      "Ġannounced": 2095,
      "Ġpain": 2096,
      "ĠArab": 2097,
      "Ġnames": 2098,
      "Ġspace": 2099,
      "Ġsometimes": 2100,
      "Ġprofess": 2101,
      "Ġsay": 2102,
      "Ġtimes": 2103,
      "Ġattack": 2104,
      "ĠPart": 2105,
      "Ġreligious": 2106,
      "ief": 2107,
      "Ġ$": 2108,
      "Ġsol": 2109,
      "atural": 2110,
      "Ġadded": 2111,
      "Ġcame": 2112,
      "sel": 2113,
      "apan": 2114,
      "Ġculture": 2115,
      "Ġcreate": 2116,
      "Ġdescribed": 2117,
      "ery": 2118,
      "inister": 2119,
      "Ġour": 2120,
      "Ġfamily": 2121,
      "Ġ2007": 2122,
      "Ġcoll": 2123,
      "Ġrelated": 2124,
      "ĠEmp": 2125,
      "ruction": 2126,
      "Ġconn": 2127,
      "Ġreported": 2128,
      "raft": 2129,
      "Ġ195": 2130,
      "clus": 2131,
      "Ġproblem": 2132,
      "ands": 2133,
      "ival": 2134,
      "lev": 2135,
      "ee": 2136,
      "ĠWP": 2137,
      "BC": 2138,
      "iam": 2139,
      "Ġscient": 2140,
      "Ġitself": 2141,
      "Ġmember": 2142,
      "Ġdiv": 2143,
      "wh": 2144,
      "There": 2145,
      "Ġ2008": 2146,
      "rick": 2147,
      "Ġenc": 2148,
      "ops": 2149,
      "Ġ30": 2150,
      "Ġinstit": 2151,
      "Ġknowledge": 2152,
      "of": 2153,
      "ĠGu": 2154,
      "Ġexpress": 2155,
      "Ġrad": 2156,
      "urb": 2157,
      "Ġconcern": 2158,
      "Ġ2009": 2159,
      "ef": 2160,
      "Ġsoftware": 2161,
      "Ġvide": 2162,
      "Ġinvest": 2163,
      "mm": 2164,
      "emb": 2165,
      "Ġagre": 2166,
      "Ġliter": 2167,
      "Ġsold": 2168,
      "ĠBer": 2169,
      "Ġmiss": 2170,
      "Ġconsider": 2171,
      "duct": 2172,
      "Ġacross": 2173,
      "Ġdeb": 2174,
      "Ġterrit": 2175,
      "Ġseen": 2176,
      "Ġemploy": 2177,
      "fer": 2178,
      "atures": 2179,
      "Ġphot": 2180,
      "Ġ2012": 2181,
      "Ġunderstand": 2182,
      "Ġinstead": 2183,
      "lement": 2184,
      "32": 2185,
      "ope": 2186,
      "ternal": 2187,
      "Ġlinks": 2188,
      "hern": 2189,
      "Ġcapt": 2190,
      "Ġfail": 2191,
      "ĠMuslim": 2192,
      "Ġcontinued": 2193,
      "Ġdays": 2194,
      "Ġ2017": 2195,
      "ĠJapan": 2196,
      "Ġdeterm": 2197,
      "Ġfull": 2198,
      "urity": 2199,
      "Ġ23": 2200,
      "Ġtotal": 2201,
      "Ġeth": 2202,
      "Ġexam": 2203,
      "rect": 2204,
      "ĠEmpire": 2205,
      "Ġcover": 2206,
      "iable": 2207,
      "iation": 2208,
      "Ġlaun": 2209,
      "Ġevents": 2210,
      "Ġput": 2211,
      "osp": 2212,
      "ĠOne": 2213,
      "Ġtreat": 2214,
      "itted": 2215,
      "Ġrespons": 2216,
      "Ġve": 2217,
      "Ġfunction": 2218,
      "Ġmovement": 2219,
      "ples": 2220,
      "Ġmarket": 2221,
      "Ġ2006": 2222,
      "ĠYou": 2223,
      "Ġri": 2224,
      "Ġ2013": 2225,
      "ĠInternational": 2226,
      "ĠAct": 2227,
      "viron": 2228,
      "Ġfac": 2229,
      "rial": 2230,
      "45": 2231,
      "sh": 2232,
      "Ġcapital": 2233,
      "Ġbegin": 2234,
      "ready": 2235,
      "Ġindic": 2236,
      "mb": 2237,
      "Ġdest": 2238,
      "Ġinitial": 2239,
      "Ġlow": 2240,
      "ĠAfrica": 2241,
      "ocrat": 2242,
      "Ġlight": 2243,
      "app": 2244,
      "Ġscience": 2245,
      "Ġmass": 2246,
      "eneral": 2247,
      "Ġself": 2248,
      "Ġcategory": 2249,
      "ster": 2250,
      "ĠCity": 2251,
      "Ġissues": 2252,
      "bo": 2253,
      "Ġu": 2254,
      "Ġable": 2255,
      "Ġmag": 2256,
      "ography": 2257,
      "Ġbetter": 2258,
      "ols": 2259,
      "Ġ22": 2260,
      "Ġmeans": 2261,
      "ends": 2262,
      "itte": 2263,
      "Ġproduction": 2264,
      "Ġearli": 2265,
      "Ġ25": 2266,
      "ticle": 2267,
      "ĠChristian": 2268,
      "Ġver": 2269,
      "Ġmaintain": 2270,
      "ĠFrance": 2271,
      "Ġ2014": 2272,
      "ham": 2273,
      "chol": 2274,
      "60": 2275,
      "Ġservices": 2276,
      "Ġcomplete": 2277,
      "Ġabove": 2278,
      "Ġclose": 2279,
      "Ġbusiness": 2280,
      "rag": 2281,
      "Ġnext": 2282,
      "ensive": 2283,
      "Ġstyle": 2284,
      "Ġbre": 2285,
      "ĠWhen": 2286,
      "Ġsearch": 2287,
      "ump": 2288,
      "Ġhold": 2289,
      "utions": 2290,
      "Ġtrade": 2291,
      ".,": 2292,
      "Ġanc": 2293,
      "ĠWestern": 2294,
      "Ġpot": 2295,
      "Ġfar": 2296,
      "Ġge": 2297,
      "Ġask": 2298,
      "Ġalready": 2299,
      "olic": 2300,
      "31": 2301,
      "48": 2302,
      "Ġwater": 2303,
      "lin": 2304,
      "orthern": 2305,
      "Ġstudents": 2306,
      "Ġrule": 2307,
      "Ġnecess": 2308,
      "ung": 2309,
      "Ġfem": 2310,
      "cycl": 2311,
      "ari": 2312,
      "ibility": 2313,
      "ball": 2314,
      "Ġage": 2315,
      "Ġnever": 2316,
      "ators": 2317,
      "over": 2318,
      "Ġins": 2319,
      "Ġmer": 2320,
      "Ġrequired": 2321,
      "Ġ2016": 2322,
      "ederal": 2323,
      "Ġincludes": 2324,
      "Ġdeg": 2325,
      "ada": 2326,
      "Ġaccording": 2327,
      "ached": 2328,
      "Ġadop": 2329,
      "gress": 2330,
      "reme": 2331,
      "Ġpurp": 2332,
      "47": 2333,
      "Ġconv": 2334,
      "Ġneg": 2335,
      "Ġmodel": 2336,
      "Ġmeas": 2337,
      "Ġclear": 2338,
      "Ġentire": 2339,
      "Ġpred": 2340,
      "Ġlegal": 2341,
      "Ġblock": 2342,
      "Ġet": 2343,
      "osition": 2344,
      "ained": 2345,
      "Ġquestion": 2346,
      "ĠIndian": 2347,
      "Ġcopyright": 2348,
      "Ġcho": 2349,
      "ĠBro": 2350,
      "Ġprovided": 2351,
      "Ġrespect": 2352,
      "Ġconsist": 2353,
      "selves": 2354,
      "Ġplease": 2355,
      "Ġanim": 2356,
      "ĠArmy": 2357,
      "Ġ2015": 2358,
      "Ġimages": 2359,
      "atin": 2360,
      "Ġmajority": 2361,
      "Ġmeet": 2362,
      "Ġrequire": 2363,
      "ondon": 2364,
      "ĠChess": 2365,
      "rote": 2366,
      "Ġschools": 2367,
      "rel": 2368,
      "reen": 2369,
      "Ġreceived": 2370,
      "men": 2371,
      "Ġbody": 2372,
      "Ġbuilt": 2373,
      "Ġchanged": 2374,
      "ĠPe": 2375,
      "ĠAccording": 2376,
      "obal": 2377,
      "chie": 2378,
      "cyclop": 2379,
      "ape": 2380,
      "ĠPresident": 2381,
      "eter": 2382,
      "go": 2383,
      "hemat": 2384,
      "ĠAmerica": 2385,
      "Ġnamed": 2386,
      "iction": 2387,
      "49": 2388,
      "Ġbuilding": 2389,
      "aff": 2390,
      "Ġtype": 2391,
      "Ġcolon": 2392,
      "Ġpress": 2393,
      "Ġtaken": 2394,
      "Ġdom": 2395,
      "Ġprinc": 2396,
      "urg": 2397,
      "ae": 2398,
      "att": 2399,
      "Ġsexual": 2400,
      "Ġissue": 2401,
      "Ġforms": 2402,
      "Ġvol": 2403,
      "Ġrecent": 2404,
      "70": 2405,
      "ĠUs": 2406,
      "reg": 2407,
      "Ġemer": 2408,
      "ĠPak": 2409,
      "Ġstatus": 2410,
      "Ġtoo": 2411,
      "Ġlic": 2412,
      "Ġtar": 2413,
      "46": 2414,
      "Ġdig": 2415,
      "Ġparty": 2416,
      "rest": 2417,
      "Ġthemselves": 2418,
      "Ġpast": 2419,
      "ilities": 2420,
      "icult": 2421,
      "Ġnatural": 2422,
      "ĠLondon": 2423,
      "Ġworking": 2424,
      "Ġmot": 2425,
      "pro": 2426,
      "ĠPal": 2427,
      "ĠInternet": 2428,
      "Ġvot": 2429,
      "Ġguid": 2430,
      "ĠKingdom": 2431,
      "Ġnorm": 2432,
      "://": 2433,
      "Ġside": 2434,
      "Ġcal": 2435,
      "Ġforce": 2436,
      "Ġcritic": 2437,
      "ĠNe": 2438,
      "Ġrules": 2439,
      "imate": 2440,
      "ĠBar": 2441,
      "Ġbelow": 2442,
      "iers": 2443,
      "ipp": 2444,
      "rast": 2445,
      "ĠOther": 2446,
      "omm": 2447,
      "ont": 2448,
      "Ġindependent": 2449,
      "like": 2450,
      "Ġfollowed": 2451,
      "Ġtraditional": 2452,
      "ĠCouncil": 2453,
      "Ġeffort": 2454,
      "Ġautom": 2455,
      "ĠCour": 2456,
      "Ġpersonal": 2457,
      "Ġenviron": 2458,
      "Ġcreat": 2459,
      "Ġwee": 2460,
      "Ġobser": 2461,
      "Ġproblems": 2462,
      "ague": 2463,
      "Ġstarted": 2464,
      "ĠCong": 2465,
      "Ġparts": 2466,
      "Ġnetwork": 2467,
      "Ġthroughout": 2468,
      "Ġevidence": 2469,
      "pite": 2470,
      "lands": 2471,
      "ingu": 2472,
      "44": 2473,
      "Ġwrote": 2474,
      "self": 2475,
      "Ġcirc": 2476,
      "Ġcurrently": 2477,
      "ports": 2478,
      "Ġdefin": 2479,
      "Ġcheck": 2480,
      "Ġblack": 2481,
      "Ġexcept": 2482,
      "Ġintroduced": 2483,
      "ream": 2484,
      "eum": 2485,
      "Ġdone": 2486,
      "ert": 2487,
      "Ġstated": 2488,
      "Ġthought": 2489,
      "ĠMed": 2490,
      "ront": 2491,
      "Ġhard": 2492,
      "ites": 2493,
      "let": 2494,
      "ĠChurch": 2495,
      "Ġill": 2496,
      "Ġachie": 2497,
      "Ġsite": 2498,
      "Ġengine": 2499,
      "Ġjo": 2500,
      "ĠRes": 2501,
      "Ġproduced": 2502,
      "Ġimprove": 2503,
      "If": 2504,
      "Ġsyn": 2505,
      "Ġlaws": 2506,
      "Ġwords": 2507,
      "Ġhigher": 2508,
      "Ġinfluence": 2509,
      "ĠPakistan": 2510,
      "ane": 2511,
      "ĠSu": 2512,
      "thern": 2513,
      "Wh": 2514,
      "ming": 2515,
      "cast": 2516,
      "ights": 2517,
      "Ġjud": 2518,
      "hib": 2519,
      "Ġforeign": 2520,
      "Ġcommunic": 2521,
      "Ġformed": 2522,
      "kn": 2523,
      "avy": 2524,
      "based": 2525,
      "Ġvideo": 2526,
      "ittee": 2527,
      "Ġmoved": 2528,
      "ĠMal": 2529,
      "Ġfig": 2530,
      "ampions": 2531,
      "isl": 2532,
      "Ġnomin": 2533,
      "Ġconflic": 2534,
      "Ġallowed": 2535,
      "Ġfocus": 2536,
      "ĠMany": 2537,
      "ĠBC": 2538,
      "Ġidea": 2539,
      "erson": 2540,
      "ĠWill": 2541,
      "Ġnews": 2542,
      "Ġexec": 2543,
      "ĠAng": 2544,
      "Ġrank": 2545,
      "ask": 2546,
      "ĠSoc": 2547,
      "reet": 2548,
      "ya": 2549,
      "ror": 2550,
      "Ġexpand": 2551,
      "Ġ24": 2552,
      "oved": 2553,
      "Ġep": 2554,
      "Ġdocument": 2555,
      "ĠSw": 2556,
      "ows": 2557,
      "rew": 2558,
      "aul": 2559,
      "ghan": 2560,
      "Ġimm": 2561,
      "Ġdistin": 2562,
      "ĠChar": 2563,
      "Ġ|": 2564,
      "hel": 2565,
      "Ġcentral": 2566,
      "ĠHis": 2567,
      "Ġdomin": 2568,
      "Ġdraw": 2569,
      "aign": 2570,
      "Ġmultiple": 2571,
      "Ġi": 2572,
      "outhern": 2573,
      "ĠWe": 2574,
      "ID": 2575,
      "ĠBut": 2576,
      "ern": 2577,
      "itect": 2578,
      "Ġincreased": 2579,
      "ique": 2580,
      "Ġpractice": 2581,
      "55": 2582,
      "Ġfinal": 2583,
      "Ġparticularly": 2584,
      "ires": 2585,
      "Ġtown": 2586,
      "ĠState": 2587,
      "It": 2588,
      "ĠRussia": 2589,
      "Ġcollect": 2590,
      "Ġdifficult": 2591,
      "Ġelection": 2592,
      "leg": 2593,
      "Ġtag": 2594,
      "Ġdeletion": 2595,
      "Ġincreasing": 2596,
      "rated": 2597,
      "Ġhapp": 2598,
      "lex": 2599,
      "Ġmatch": 2600,
      "ership": 2601,
      "view": 2602,
      "Ġlack": 2603,
      "Al": 2604,
      "ournal": 2605,
      "Ġprob": 2606,
      "ĠAustralia": 2607,
      "'ve": 2608,
      "isions": 2609,
      "80": 2610,
      "Ġhom": 2611,
      "Ġorganiz": 2612,
      "Ġcultural": 2613,
      "Ġalways": 2614,
      "Ġupon": 2615,
      "umb": 2616,
      "Ġboard": 2617,
      "uture": 2618,
      "Ġcomplex": 2619,
      "ĠCo": 2620,
      "Ġwriting": 2621,
      "levision": 2622,
      "ĠCal": 2623,
      "ĠUK": 2624,
      "Ġphilosoph": 2625,
      "Ġcities": 2626,
      "Ġediting": 2627,
      "imately": 2628,
      "Ġcode": 2629,
      "Ġlikely": 2630,
      "42": 2631,
      "Ġsw": 2632,
      "Ġonline": 2633,
      "Ġsomething": 2634,
      "ened": 2635,
      "de": 2636,
      "Ġtry": 2637,
      "Ġkey": 2638,
      "oyal": 2639,
      "Ġresults": 2640,
      "Ġcost": 2641,
      "ĠAfrican": 2642,
      "St": 2643,
      "Ġlimited": 2644,
      "Ġ&": 2645,
      "ĠSchool": 2646,
      "ĠHouse": 2647,
      "Ġcannot": 2648,
      "rap": 2649,
      "Ġpromot": 2650,
      "ext": 2651,
      "43": 2652,
      "Ġcommand": 2653,
      "iles": 2654,
      "Ġdetail": 2655,
      "Ġfood": 2656,
      "co": 2657,
      "Ġfeatures": 2658,
      "Ġwebs": 2659,
      "omb": 2660,
      "Ġvalue": 2661,
      "ĠBlack": 2662,
      "rupt": 2663,
      "ney": 2664,
      "ĠWik": 2665,
      "ĠBr": 2666,
      "Ġuses": 2667,
      "Ġbr": 2668,
      "ĠCourt": 2669,
      "Ġassociated": 2670,
      "fact": 2671,
      "ĠPort": 2672,
      "bum": 2673,
      "arian": 2674,
      "vert": 2675,
      "Ġappoint": 2676,
      "ĠShe": 2677,
      "Ġnumbers": 2678,
      "erous": 2679,
      "Ġschol": 2680,
      "Ġthus": 2681,
      "Ġprimary": 2682,
      "oms": 2683,
      "Ġtoget": 2684,
      "Ġmathemat": 2685,
      "Ġprivate": 2686,
      "Ġdial": 2687,
      "Ġhalf": 2688,
      "Ġestablish": 2689,
      "Ġ1990": 2690,
      "Ġtogether": 2691,
      "mar": 2692,
      "Ġalmost": 2693,
      "ences": 2694,
      "ĠWhile": 2695,
      "41": 2696,
      "59": 2697,
      "ĠHar": 2698,
      "Ġtw": 2699,
      "Ġtable": 2700,
      "Ġsuccessful": 2701,
      "Ġelements": 2702,
      "ĠCongress": 2703,
      "Ġbot": 2704,
      "Ġord": 2705,
      "Ġsociety": 2706,
      "Ġfall": 2707,
      "Ġmach": 2708,
      "xual": 2709,
      "Ġprint": 2710,
      "udd": 2711,
      "ided": 2712,
      "Ġdisplay": 2713,
      "Ġtourn": 2714,
      "Ġcommer": 2715,
      "atives": 2716,
      "ĠGreek": 2717,
      "ibrary": 2718,
      "Ġsqu": 2719,
      "Ġsuper": 2720,
      "ĠParty": 2721,
      "ĠAfghan": 2722,
      "56": 2723,
      "Ġce": 2724,
      "Ġdeal": 2725,
      "Ġexpect": 2726,
      "ours": 2727,
      "Ġrelationship": 2728,
      "Ġkeep": 2729,
      "Ġdirectly": 2730,
      "Ġoutside": 2731,
      "Ġhouse": 2732,
      "Ġcitiz": 2733,
      "Ġtypically": 2734,
      "Ġunivers": 2735,
      "ky": 2736,
      "Ġtechnology": 2737,
      "esc": 2738,
      "Ġonce": 2739,
      "order": 2740,
      "ĠCath": 2741,
      "augh": 2742,
      "Wikipedia": 2743,
      "Ġcomment": 2744,
      "Ġbehavior": 2745,
      "bit": 2746,
      "Ġappl": 2747,
      "ĠLatin": 2748,
      "ĠGeneral": 2749,
      "Ġimplement": 2750,
      "Ġmanag": 2751,
      "ĠAsia": 2752,
      "Ġfav": 2753,
      "Ġindustry": 2754,
      "ricket": 2755,
      "orpor": 2756,
      "ribution": 2757,
      "Ġground": 2758,
      "Ġfair": 2759,
      "ĠBat": 2760,
      "ĠEar": 2761,
      "Ġcampaign": 2762,
      "58": 2763,
      "Ġnature": 2764,
      "ĠGovern": 2765,
      "ĠBo": 2766,
      "cyclopedia": 2767,
      "Ġlet": 2768,
      "ellig": 2769,
      "Ġpercent": 2770,
      "ĠWith": 2771,
      "57": 2772,
      "Ġmid": 2773,
      "Ġrange": 2774,
      "atively": 2775,
      "Ġmeaning": 2776,
      "Ġgive": 2777,
      "face": 2778,
      "ĠAir": 2779,
      "Ġinvolved": 2780,
      "Ġtypes": 2781,
      "ises": 2782,
      "90": 2783,
      "Ġremoved": 2784,
      "Ġinte": 2785,
      "Pro": 2786,
      "Ġleading": 2787,
      "nic": 2788,
      "Ġfuture": 2789,
      "Ġmonths": 2790,
      "ana": 2791,
      "zer": 2792,
      "ceed": 2793,
      "Ġlonger": 2794,
      "Ġarchitect": 2795,
      "Ġarmy": 2796,
      "ĠAg": 2797,
      "Ġbecom": 2798,
      "ĠDem": 2799,
      "son": 2800,
      "ĠDuring": 2801,
      "Ġenvironment": 2802,
      "Ġvict": 2803,
      "Ġconsensus": 2804,
      "Ġseparate": 2805,
      "asion": 2806,
      "rug": 2807,
      "Ġedits": 2808,
      "Ġavoid": 2809,
      "ĠTur": 2810,
      "chan": 2811,
      "Ġaud": 2812,
      "Ġsaw": 2813,
      "Ġdesigned": 2814,
      "Ġwhite": 2815,
      "Ġcompan": 2816,
      "Ġphysical": 2817,
      "ampionship": 2818,
      "Ġlittle": 2819,
      "Ġdri": 2820,
      "iate": 2821,
      "Ġemp": 2822,
      "iting": 2823,
      "Ġoccup": 2824,
      "Ġminor": 2825,
      "Ġetc": 2826,
      "51": 2827,
      "Ġfrequ": 2828,
      "Ġdyn": 2829,
      "Ġstrateg": 2830,
      "uments": 2831,
      "Ġfight": 2832,
      "astern": 2833,
      "iences": 2834,
      "ned": 2835,
      "99": 2836,
      "ault": 2837,
      "pri": 2838,
      "ĠPhil": 2839,
      "Ġconduct": 2840,
      "Ġbene": 2841,
      "Ġaction": 2842,
      "ĠMe": 2843,
      "ference": 2844,
      "gypt": 2845,
      "ought": 2846,
      "Ġ26": 2847,
      "Ġden": 2848,
      "54": 2849,
      "onse": 2850,
      "ĠReg": 2851,
      "Ġlab": 2852,
      "Ġ27": 2853,
      "see": 2854,
      "Ġlat": 2855,
      "ĠComp": 2856,
      "uries": 2857,
      "ĠCro": 2858,
      "atch": 2859,
      "Ġlower": 2860,
      "ĠSec": 2861,
      "Ġupd": 2862,
      "Ġtransl": 2863,
      "itch": 2864,
      "ĠHer": 2865,
      "Ġreferred": 2866,
      "Ġnorth": 2867,
      "use": 2868,
      "ctor": 2869,
      "Ġvia": 2870,
      "na": 2871,
      "Ġfix": 2872,
      "Ġindividuals": 2873,
      "For": 2874,
      "Ġ2005": 2875,
      "ington": 2876,
      "orks": 2877,
      "Ġmention": 2878,
      "Ġcome": 2879,
      "Ġcourt": 2880,
      "ills": 2881,
      "ania": 2882,
      "Ġorganization": 2883,
      "ements": 2884,
      "iment": 2885,
      "Ġplaced": 2886,
      "ĠBBC": 2887,
      "Ġaltern": 2888,
      "Ġparam": 2889,
      "oses": 2890,
      "Ġpotential": 2891,
      "Ġdate": 2892,
      "uk": 2893,
      "ria": 2894,
      "ĠSer": 2895,
      "istics": 2896,
      "Ġkilled": 2897,
      "Ġess": 2898,
      "Ġfoot": 2899,
      "Ġdecision": 2900,
      "ara": 2901,
      "Ġalbum": 2902,
      "ĠFl": 2903,
      "Ġamount": 2904,
      "ergy": 2905,
      "ĠWiki": 2906,
      "ush": 2907,
      "Ġder": 2908,
      "Ġspeak": 2909,
      "Ġ28": 2910,
      "Ġproposed": 2911,
      "osing": 2912,
      "52": 2913,
      "Ġ100": 2914,
      "ulated": 2915,
      "Ġwhy": 2916,
      "Ġlive": 2917,
      "Ġremained": 2918,
      "artment": 2919,
      "Ġbooks": 2920,
      "Ġincrease": 2921,
      "ĠGreat": 2922,
      "Ġmor": 2923,
      "anish": 2924,
      "Ġyoun": 2925,
      "Ġsomeone": 2926,
      "Ġsound": 2927,
      "Ġpolicies": 2928,
      "irt": 2929,
      "Article": 2930,
      "Ġspok": 2931,
      "Ġprevent": 2932,
      "53": 2933,
      "Ġlo": 2934,
      "Ġcorrect": 2935,
      "ocratic": 2936,
      "ains": 2937,
      "aut": 2938,
      "Ġbar": 2939,
      "ĠWilliam": 2940,
      "ĠAlthough": 2941,
      "rought": 2942,
      "Ġstructure": 2943,
      "Ġpoints": 2944,
      "ridge": 2945,
      "Ġwidely": 2946,
      "Ġsong": 2947,
      "icro": 2948,
      "Ġformat": 2949,
      "Ġscientific": 2950,
      ".)": 2951,
      "andid": 2952,
      "ĠEgypt": 2953,
      "Ġlegisl": 2954,
      "Ġ2000": 2955,
      "Ġexperience": 2956,
      "ters": 2957,
      "Ġtradition": 2958,
      "Ġtraining": 2959,
      "hest": 2960,
      "ysis": 2961,
      "Ġresponse": 2962,
      "Ġwhose": 2963,
      "Ġens": 2964,
      "vent": 2965,
      "Ġliving": 2966,
      "atory": 2967,
      "Ġancient": 2968,
      "Ġadditional": 2969,
      "Ġbeginning": 2970,
      "cies": 2971,
      "Ġresour": 2972,
      "Ġprograms": 2973,
      "Ġcommercial": 2974,
      "Ġgender": 2975,
      "ha": 2976,
      "Ġfounded": 2977,
      "Ġacadem": 2978,
      "Ġgrad": 2979,
      "Ġtelevision": 2980,
      "Ġprior": 2981,
      "iated": 2982,
      "ĠWhite": 2983,
      "Ġcolor": 2984,
      "ĠEl": 2985,
      "Ġeconomy": 2986,
      "Ġspeed": 2987,
      "etic": 2988,
      "Ġdefe": 2989,
      "eria": 2990,
      "Ġpay": 2991,
      "Ġelected": 2992,
      "Ġcompanies": 2993,
      "bor": 2994,
      "Ġcontext": 2995,
      "Ġsize": 2996,
      "Ġabs": 2997,
      "Ġdi": 2998,
      "ama": 2999,
      "ests": 3000,
      "Ġassum": 3001,
      "Ġenough": 3002,
      "Ġstudies": 3003,
      "Ġselect": 3004,
      "Ġsense": 3005,
      "Ġthreat": 3006,
      "ĠSo": 3007,
      "Ġtax": 3008,
      "isation": 3009,
      "izing": 3010,
      "action": 3011,
      "Ġconstitution": 3012,
      "Ġbelief": 3013,
      "Ġglobal": 3014,
      "ulations": 3015,
      "Ġris": 3016,
      "Ġthings": 3017,
      "Ġappropri": 3018,
      "Ġlost": 3019,
      "Ġinterp": 3020,
      "Ġanti": 3021,
      "Ġestim": 3022,
      "Ġoffice": 3023,
      "Ġsouth": 3024,
      "ĠMu": 3025,
      "Ġsupported": 3026,
      "ĠCommun": 3027,
      "thing": 3028,
      "Ġdefined": 3029,
      "anced": 3030,
      "ounter": 3031,
      "ĠCentral": 3032,
      "Ġlocated": 3033,
      "Ġbenef": 3034,
      "Ġtoday": 3035,
      "Ġcust": 3036,
      "ogle": 3037,
      "Ġfile": 3038,
      "ties": 3039,
      "Ġaward": 3040,
      "Ġ50": 3041,
      "Ġintegr": 3042,
      "vere": 3043,
      "cont": 3044,
      "ufact": 3045,
      "igned": 3046,
      "aves": 3047,
      "Ġhum": 3048,
      "Ġsumm": 3049,
      "owers": 3050,
      "ĠIP": 3051,
      "Ġmedical": 3052,
      "Ġdegree": 3053,
      "Ġreference": 3054,
      "enced": 3055,
      "ĠBritain": 3056,
      "anned": 3057,
      "Ġtro": 3058,
      "Ġdou": 3059,
      "onst": 3060,
      "ĠMost": 3061,
      "Ġten": 3062,
      "Ġfeel": 3063,
      "Ġscript": 3064,
      "Ġreflect": 3065,
      "irth": 3066,
      "elling": 3067,
      "Ġmessage": 3068,
      "Ġguidel": 3069,
      "Ġregular": 3070,
      "ĠPer": 3071,
      "ĠFree": 3072,
      "Ġgrowth": 3073,
      "ald": 3074,
      "stitute": 3075,
      "Ġquality": 3076,
      "bl": 3077,
      "aring": 3078,
      "Ġvariety": 3079,
      "inent": 3080,
      "Ġuniversity": 3081,
      "ĠDav": 3082,
      "Ġshows": 3083,
      "Ġdeleted": 3084,
      "ips": 3085,
      "awn": 3086,
      "ĠColle": 3087,
      "Ch": 3088,
      "Ġfire": 3089,
      "engal": 3090,
      "ĠApp": 3091,
      "Ġsett": 3092,
      "Ġexecut": 3093,
      "ius": 3094,
      "Ġtowards": 3095,
      "ĠDef": 3096,
      "Ġconsum": 3097,
      "Ġcommunities": 3098,
      "Ġrate": 3099,
      "Ġreligion": 3100,
      "After": 3101,
      "Ġchall": 3102,
      "Ġapproach": 3103,
      "Ġsubst": 3104,
      "ĠMon": 3105,
      "Ġcitizens": 3106,
      "Ġkind": 3107,
      "oly": 3108,
      "ging": 3109,
      "Ġcommonly": 3110,
      "raine": 3111,
      "Ġreplaced": 3112,
      "Ġmethods": 3113,
      "plic": 3114,
      "oney": 3115,
      "porary": 3116,
      "imedia": 3117,
      "ĠDep": 3118,
      "Ġrelease": 3119,
      "ĠSince": 3120,
      "Ġcause": 3121,
      "igr": 3122,
      "Ġhtt": 3123,
      "Ġmakes": 3124,
      "Ġperformance": 3125,
      "idents": 3126,
      "Ġtarget": 3127,
      "ĠCatholic": 3128,
      "Ġsecurity": 3129,
      "Ġacqu": 3130,
      "rian": 3131,
      "Ġnotable": 3132,
      "Ġassist": 3133,
      "Ġsymb": 3134,
      "Ġdivid": 3135,
      "Ġregist": 3136,
      "Ġmechan": 3137,
      "Reason": 3138,
      "ĠMinister": 3139,
      "Ġ1980": 3140,
      "Ġ1970": 3141,
      "Ġdraft": 3142,
      "Ġsimply": 3143,
      "eth": 3144,
      "yl": 3145,
      "Ġmob": 3146,
      "Ġbrought": 3147,
      "ancial": 3148,
      "uck": 3149,
      "ĠBengal": 3150,
      "ipl": 3151,
      "vant": 3152,
      "itor": 3153,
      "ĠGl": 3154,
      "amer": 3155,
      "200": 3156,
      "Ġprincip": 3157,
      "Ġopin": 3158,
      "part": 3159,
      "Ġaim": 3160,
      "Ġnecessary": 3161,
      "ray": 3162,
      "Ġemb": 3163,
      "Ġhy": 3164,
      "Ġsurv": 3165,
      "orge": 3166,
      "Ġmostly": 3167,
      "Ġnation": 3168,
      "Ġsubsequ": 3169,
      "67": 3170,
      "Ġlevels": 3171,
      "Ġideas": 3172,
      "oper": 3173,
      "Ġstri": 3174,
      "aving": 3175,
      "Ġactive": 3176,
      "Ġspecies": 3177,
      "ĠParliament": 3178,
      "Ġ2004": 3179,
      "Ġtopic": 3180,
      "ĠIslamic": 3181,
      "ole": 3182,
      "ĠNo": 3183,
      "Ġconditions": 3184,
      "lying": 3185,
      "Ġcreation": 3186,
      "Ġwent": 3187,
      "asons": 3188,
      "vey": 3189,
      "atically": 3190,
      "Ġcross": 3191,
      "Ġbelieve": 3192,
      "Ġlargely": 3193,
      "Ġpieces": 3194,
      "ĠCamb": 3195,
      "rative": 3196,
      "Ġfri": 3197,
      ":[": 3198,
      "Ġmanufact": 3199,
      "ression": 3200,
      "Ġrap": 3201,
      "rim": 3202,
      "year": 3203,
      "rovers": 3204,
      "Ġserved": 3205,
      "69": 3206,
      "roy": 3207,
      "Ġrout": 3208,
      "urban": 3209,
      "urs": 3210,
      "Ġability": 3211,
      "Some": 3212,
      "Ġaver": 3213,
      "Ġneeds": 3214,
      "ricult": 3215,
      "ma": 3216,
      "Ġcast": 3217,
      "aching": 3218,
      "Ġethnic": 3219,
      "Ġreached": 3220,
      "ids": 3221,
      "Ġconflict": 3222,
      "Ġbox": 3223,
      "Ġhistorical": 3224,
      "ĠArt": 3225,
      "Ġtravel": 3226,
      "ls": 3227,
      "Ġlisted": 3228,
      "ĠJewish": 3229,
      "ĠUpload": 3230,
      "Ġelse": 3231,
      "Ġupload": 3232,
      "65": 3233,
      "Ġ29": 3234,
      "Ġclaimed": 3235,
      "mon": 3236,
      "73": 3237,
      "Ġstop": 3238,
      "Ġwhole": 3239,
      "wide": 3240,
      "ĠTurk": 3241,
      "Ġsem": 3242,
      "Ġcourse": 3243,
      "Ġlearning": 3244,
      "Ġearlier": 3245,
      "ĠMc": 3246,
      "ĠFran": 3247,
      "Ġcenturies": 3248,
      "time": 3249,
      "Ġquick": 3250,
      "Ġpropos": 3251,
      "Ġreform": 3252,
      "Ġseems": 3253,
      "Ġgrant": 3254,
      "Ġuseful": 3255,
      "olved": 3256,
      "Ġdialect": 3257,
      "Ġcandid": 3258,
      "66": 3259,
      "Ġbelieved": 3260,
      "Ġdied": 3261,
      "ĠCount": 3262,
      "Ġ1960": 3263,
      "Ġeventually": 3264,
      "ĠMiddle": 3265,
      "ĠUkraine": 3266,
      "Ġsuff": 3267,
      "Ġprovides": 3268,
      "ĠProt": 3269,
      "utes": 3270,
      "alled": 3271,
      "Ġformal": 3272,
      "Ġfamil": 3273,
      "Ġcaused": 3274,
      "Ġrock": 3275,
      "Ġquestions": 3276,
      "ĠUsed": 3277,
      "Ġtre": 3278,
      "sw": 3279,
      "Ġjournal": 3280,
      "ĠAc": 3281,
      "back": 3282,
      "come": 3283,
      "ĠUN": 3284,
      "Ġrail": 3285,
      "Ġunits": 3286,
      "Ġadopted": 3287,
      "ĠRoyal": 3288,
      "Ġcategories": 3289,
      "arc": 3290,
      "ude": 3291,
      "Ġinn": 3292,
      "Ġpreviously": 3293,
      "Ġhighest": 3294,
      "Ġtri": 3295,
      "ford": 3296,
      "ĠGod": 3297,
      "ĠRev": 3298,
      "Ġappropriate": 3299,
      "64": 3300,
      "hood": 3301,
      "wikipedia": 3302,
      "Ġspread": 3303,
      "Ġmatter": 3304,
      "ĠHist": 3305,
      "ander": 3306,
      "Ġallows": 3307,
      "ronic": 3308,
      "CC": 3309,
      "Ġintended": 3310,
      "ĠStreet": 3311,
      "Ġqual": 3312,
      "Un": 3313,
      "68": 3314,
      "edom": 3315,
      "embly": 3316,
      "Ġz": 3317,
      "iter": 3318,
      "Ġpict": 3319,
      "ĠThanks": 3320,
      "Ġprotect": 3321,
      "ino": 3322,
      "Ġprofessional": 3323,
      "Ġlaunched": 3324,
      "Ġdemonst": 3325,
      "Ġhous": 3326,
      "Ġprimarily": 3327,
      "Ġaspect": 3328,
      "aval": 3329,
      "Ġseven": 3330,
      "Ġorganizations": 3331,
      "Ġlarger": 3332,
      "Ġpaper": 3333,
      "AS": 3334,
      "Ġdam": 3335,
      "Ġintellig": 3336,
      "Ġappears": 3337,
      "Ġtournament": 3338,
      "Ġmis": 3339,
      "Ġactivities": 3340,
      "Ġcell": 3341,
      "Ġpurpose": 3342,
      "ta": 3343,
      "Ġimmed": 3344,
      "During": 3345,
      "Ġbasic": 3346,
      "Ġliber": 3347,
      "Ġgave": 3348,
      "empl": 3349,
      "Ġlay": 3350,
      "Ġever": 3351,
      "ĠGoogle": 3352,
      "light": 3353,
      "airs": 3354,
      "Ġtaking": 3355,
      "Ġbasis": 3356,
      "ĠCommittee": 3357,
      "ĠAlex": 3358,
      "ĠEastern": 3359,
      "ivity": 3360,
      "ris": 3361,
      "Ġbran": 3362,
      "leb": 3363,
      "OS": 3364,
      "ĠBel": 3365,
      "inary": 3366,
      "Wiki": 3367,
      "gen": 3368,
      "ĠCollege": 3369,
      "Ġdisp": 3370,
      "AT": 3371,
      "Ġfederal": 3372,
      "76": 3373,
      "box": 3374,
      "resp": 3375,
      "ĠMor": 3376,
      "Ġways": 3377,
      "Ġinvestig": 3378,
      "Ġround": 3379,
      "Ġactually": 3380,
      "Ġanalysis": 3381,
      "phas": 3382,
      "Ġimpact": 3383,
      "Ġvari": 3384,
      "head": 3385,
      "Ġyet": 3386,
      "Ġcharacters": 3387,
      "Ġaway": 3388,
      "Ġcle": 3389,
      "ords": 3390,
      "ĠCont": 3391,
      "Ġball": 3392,
      "ĠEm": 3393,
      "Ġexamples": 3394,
      "spe": 3395,
      "hold": 3396,
      "ĠBang": 3397,
      "61": 3398,
      "ĠAssoci": 3399,
      "Ġsat": 3400,
      "Ġtrue": 3401,
      "ategory": 3402,
      "ML": 3403,
      "Ġregions": 3404,
      "Ġ(\"": 3405,
      "Ġelections": 3406,
      "Ġinstitutions": 3407,
      "Ġapprox": 3408,
      "ĠLaw": 3409,
      "Ġloss": 3410,
      "Ġhimself": 3411,
      "Ġtemplates": 3412,
      "ially": 3413,
      "ĠDes": 3414,
      "Ġdigital": 3415,
      "Ġcreating": 3416,
      "Ġtroops": 3417,
      "board": 3418,
      "Ġrecently": 3419,
      "Is": 3420,
      "Ġencour": 3421,
      "ĠCanada": 3422,
      "Ġcy": 3423,
      "Ġfeatured": 3424,
      "Ġphilosophy": 3425,
      "Ġapplied": 3426,
      "ĠMy": 3427,
      "Ġfinancial": 3428,
      "Ġtherefore": 3429,
      "ĠThat": 3430,
      "Ġreject": 3431,
      "Ġexisting": 3432,
      "ĠGeorge": 3433,
      "Ġterritory": 3434,
      "63": 3435,
      "erc": 3436,
      "Ġidentity": 3437,
      "Ġful": 3438,
      "Ġhighly": 3439,
      "Ġstory": 3440,
      "umn": 3441,
      "88": 3442,
      "ĠSim": 3443,
      "ĠAfghanistan": 3444,
      "ortun": 3445,
      "Ġpeace": 3446,
      "62": 3447,
      "Ġdistinct": 3448,
      "Ġband": 3449,
      "ĠQu": 3450,
      "Ġweek": 3451,
      "Ġpolice": 3452,
      "Ġproperty": 3453,
      "iab": 3454,
      "Ġarri": 3455,
      "Ġneigh": 3456,
      "rec": 3457,
      "edic": 3458,
      "Ġgreater": 3459,
      "Ġredirect": 3460,
      "Ġpen": 3461,
      "Ġcontrovers": 3462,
      "ĠSl": 3463,
      "ev": 3464,
      "Ġauthority": 3465,
      "Ġeight": 3466,
      "Ġfemale": 3467,
      "Ġwebsite": 3468,
      "Ġoperations": 3469,
      "Ġconstruct": 3470,
      "cul": 3471,
      "89": 3472,
      "su": 3473,
      "ĠPark": 3474,
      "earch": 3475,
      "Ġnumerous": 3476,
      "Ġindependence": 3477,
      "free": 3478,
      "where": 3479,
      "Ġvote": 3480,
      "Ġaverage": 3481,
      "75": 3482,
      "According": 3483,
      "Ġappeared": 3484,
      "ĠUkrain": 3485,
      "Ġreb": 3486,
      "Ġsens": 3487,
      "ĠItalian": 3488,
      "Ġproduce": 3489,
      "77": 3490,
      "unic": 3491,
      "Ġcontrast": 3492,
      "Ġenergy": 3493,
      "Ġseem": 3494,
      "Ġ190": 3495,
      "Ġweap": 3496,
      "Ġera": 3497,
      "Ġscholars": 3498,
      "alism": 3499,
      "Ġdivided": 3500,
      "ĠSen": 3501,
      "force": 3502,
      "Ġartists": 3503,
      "Ġson": 3504,
      "inn": 3505,
      "Ġbase": 3506,
      "ously": 3507,
      "Ġgoing": 3508,
      "rown": 3509,
      "ĠMet": 3510,
      "Ġdefinition": 3511,
      "tit": 3512,
      "uel": 3513,
      "Ġprogress": 3514,
      "ĠFound": 3515,
      "Ġremove": 3516,
      "ĠMod": 3517,
      "Ġprojects": 3518,
      "ĠHam": 3519,
      "Ġfilms": 3520,
      "ĠBudd": 3521,
      "off": 3522,
      "ĠSm": 3523,
      "Ġsure": 3524,
      "ground": 3525,
      "Ġdestroy": 3526,
      "Ġanyone": 3527,
      "Ġlines": 3528,
      "Ġshare": 3529,
      "ension": 3530,
      "Ġpassed": 3531,
      "ĠMac": 3532,
      "Ġnewsp": 3533,
      "Ġperman": 3534,
      "Project": 3535,
      "Ġchem": 3536,
      "rad": 3537,
      "Ġsil": 3538,
      "Ġshown": 3539,
      "Ġliterature": 3540,
      "ĠChampionship": 3541,
      "Ġconstruction": 3542,
      "hic": 3543,
      "Ġidentify": 3544,
      "Ġpiece": 3545,
      "oon": 3546,
      "Ġsaf": 3547,
      "Ġcontains": 3548,
      "uge": 3549,
      "reland": 3550,
      "Ġcounter": 3551,
      "Ġproducts": 3552,
      "When": 3553,
      "racy": 3554,
      "Ġresources": 3555,
      "78": 3556,
      "antic": 3557,
      "71": 3558,
      "aging": 3559,
      "Ġtour": 3560,
      "Ġstep": 3561,
      "Ġbirth": 3562,
      "Ġsimple": 3563,
      "ĠItaly": 3564,
      "Ġsoldiers": 3565,
      "hi": 3566,
      "ollowing": 3567,
      "change": 3568,
      "Ġ40": 3569,
      "lection": 3570,
      "Ġcomments": 3571,
      "Ġplat": 3572,
      "Ġflag": 3573,
      "Ġmoves": 3574,
      "Ġseason": 3575,
      "uth": 3576,
      "ĠCharles": 3577,
      "Ġemphas": 3578,
      "overed": 3579,
      "Ġcred": 3580,
      ",\"": 3581,
      "ables": 3582,
      "wise": 3583,
      "Ġprotection": 3584,
      "Ġsus": 3585,
      "Ġcontinu": 3586,
      "Ġarm": 3587,
      "Ġeffects": 3588,
      "ica": 3589,
      "Ġsubm": 3590,
      "Ġprobably": 3591,
      "ecause": 3592,
      "respond": 3593,
      "Ġparties": 3594,
      "omp": 3595,
      "Ġfront": 3596,
      "ĠFre": 3597,
      "ĠRiver": 3598,
      "Ġregional": 3599,
      "ifically": 3600,
      "iverse": 3601,
      "With": 3602,
      "ech": 3603,
      "ĠPers": 3604,
      "known": 3605,
      "Ġmind": 3606,
      "ĠConstitution": 3607,
      "Ġadministration": 3608,
      "Ġcontinue": 3609,
      "Ġpun": 3610,
      "Ġthous": 3611,
      "Ġappointed": 3612,
      "ĠHigh": 3613,
      "Ġopened": 3614,
      "ĠRober": 3615,
      "Ġcollabor": 3616,
      "95": 3617,
      "Ġgraph": 3618,
      "ĠJames": 3619,
      "pper": 3620,
      "Ġresponsible": 3621,
      "Ġcontributors": 3622,
      "Ġtransport": 3623,
      "Ġsigned": 3624,
      "Ġurban": 3625,
      "Ġteams": 3626,
      "vention": 3627,
      "ĠIreland": 3628,
      "ees": 3629,
      "Ġrecomm": 3630,
      "hab": 3631,
      "Ġpsychology": 3632,
      "Ġrepe": 3633,
      "Ġforced": 3634,
      "Ġquant": 3635,
      "Ġactions": 3636,
      "Ġinform": 3637,
      "undred": 3638,
      "72": 3639,
      "lymp": 3640,
      "Ġhon": 3641,
      "Ġque": 3642,
      "ashington": 3643,
      "ean": 3644,
      "ĠFirst": 3645,
      "Ġmodels": 3646,
      "Ġremains": 3647,
      "Ġsituation": 3648,
      "Ġattacks": 3649,
      "Ġobjects": 3650,
      "Ġparliament": 3651,
      "ĠGovernment": 3652,
      "ĠCor": 3653,
      "Ġacademic": 3654,
      "Ġrisk": 3655,
      "Ġcat": 3656,
      "ĠSch": 3657,
      "ĠServ": 3658,
      "asty": 3659,
      "rang": 3660,
      "Ġnotice": 3661,
      "Ġsoon": 3662,
      "ĠPeople": 3663,
      "Ġefforts": 3664,
      "Ġleader": 3665,
      "Ġconfir": 3666,
      "ĠDavid": 3667,
      "que": 3668,
      "Ġmainly": 3669,
      "Ġcontact": 3670,
      "ĠUkrainian": 3671,
      "ĠNet": 3672,
      "ographic": 3673,
      "haps": 3674,
      "ĠIm": 3675,
      "Ġactivity": 3676,
      "Ġoriginally": 3677,
      "iance": 3678,
      "87": 3679,
      "cript": 3680,
      "Ġplaying": 3681,
      "Ġreally": 3682,
      "ij": 3683,
      "Ġbreak": 3684,
      "Ġtrib": 3685,
      "oud": 3686,
      "raw": 3687,
      "Ġrapid": 3688,
      "ĠKore": 3689,
      "ĠJews": 3690,
      "Ġagricult": 3691,
      "ĠCup": 3692,
      "ĠNations": 3693,
      "Ġargued": 3694,
      "ĠLeague": 3695,
      "rong": 3696,
      "ĠSpanish": 3697,
      "\")": 3698,
      "round": 3699,
      "ĠPat": 3700,
      "Ġmale": 3701,
      "Ġreplace": 3702,
      "onents": 3703,
      "Ġcut": 3704,
      "Ġmoney": 3705,
      "ĠCenter": 3706,
      "Ġadapt": 3707,
      "ĠMag": 3708,
      "ĠPlease": 3709,
      "Ġcenter": 3710,
      "clusion": 3711,
      "ein": 3712,
      "mad": 3713,
      "ietn": 3714,
      "Ġbig": 3715,
      ";[": 3716,
      "500": 3717,
      "fficient": 3718,
      "Ġfell": 3719,
      "83": 3720,
      "ores": 3721,
      "ĠOlymp": 3722,
      "utch": 3723,
      "gor": 3724,
      "Ġfather": 3725,
      "ĠJapanese": 3726,
      "Ġ31": 3727,
      "Ġyoung": 3728,
      "Ġbrow": 3729,
      "Ġreliable": 3730,
      "aled": 3731,
      "Ġcustom": 3732,
      "rate": 3733,
      "Ġattention": 3734,
      "olit": 3735,
      "Ġpoor": 3736,
      "Ġreasons": 3737,
      "ĠZe": 3738,
      "Ġconnect": 3739,
      "Ġsmaller": 3740,
      "Ġremov": 3741,
      "aper": 3742,
      "Ġperformed": 3743,
      "ga": 3744,
      "Ġworked": 3745,
      "Ġworkers": 3746,
      "Ġpowers": 3747,
      "Ġleaders": 3748,
      "Ġvehic": 3749,
      "79": 3750,
      "ĠIran": 3751,
      "ĠWashington": 3752,
      "Ġapplication": 3753,
      "lis": 3754,
      "Ġchurch": 3755,
      "86": 3756,
      "den": 3757,
      "Ġnuc": 3758,
      "ĠPri": 3759,
      "Ġcorrespond": 3760,
      "Ġbring": 3761,
      "Ġnoted": 3762,
      "Ġprec": 3763,
      "81": 3764,
      "ĠDo": 3765,
      "Ġ2001": 3766,
      "Ġstation": 3767,
      "ĠFrom": 3768,
      "Ġstage": 3769,
      "Ġcollection": 3770,
      "Ġbroadcast": 3771,
      "Ġdeclared": 3772,
      "onom": 3773,
      "Ġincorpor": 3774,
      "AN": 3775,
      "Ġpattern": 3776,
      "Ġrise": 3777,
      "escription": 3778,
      "Ġguidelines": 3779,
      "orial": 3780,
      "Ġdise": 3781,
      "85": 3782,
      "Ġlists": 3783,
      "Ġsettle": 3784,
      "Ġceleb": 3785,
      "74": 3786,
      "Ġpawn": 3787,
      "ĠEncyclopedia": 3788,
      "ĠWikimedia": 3789,
      "Ġbuildings": 3790,
      "Im": 3791,
      "Ġdr": 3792,
      "onic": 3793,
      "Ġdemand": 3794,
      "Ġreturned": 3795,
      "Ġdiss": 3796,
      "Ġcoast": 3797,
      "Ġcompared": 3798,
      "Ġsuggested": 3799,
      "Ġestimated": 3800,
      "At": 3801,
      "Ġprocesses": 3802,
      "Ġplatform": 3803,
      "Ġcricket": 3804,
      "Ġspoken": 3805,
      "OV": 3806,
      "bre": 3807,
      "ĠFoundation": 3808,
      "Ġtool": 3809,
      "ĠTalk": 3810,
      "Ġexplain": 3811,
      "Ġadding": 3812,
      "Ġsites": 3813,
      "Ġnar": 3814,
      "estic": 3815,
      "Ġtechnical": 3816,
      "Ġidentified": 3817,
      "Ġnovel": 3818,
      "Ġvill": 3819,
      "Ġneut": 3820,
      "To": 3821,
      "cut": 3822,
      "ĠNorthern": 3823,
      "Ġrespond": 3824,
      "Ġmachine": 3825,
      "ĠWales": 3826,
      "Ġobtain": 3827,
      "ength": 3828,
      "Ġsouthern": 3829,
      "odes": 3830,
      "ĠVietn": 3831,
      "ĠKar": 3832,
      "Ġmanagement": 3833,
      "Ġregarding": 3834,
      "ĠAssociation": 3835,
      "onent": 3836,
      "82": 3837,
      "itors": 3838,
      "which": 3839,
      "pen": 3840,
      "ĠMuseum": 3841,
      "cle": 3842,
      "Ġwhom": 3843,
      "ĠQue": 3844,
      "Ġindustrial": 3845,
      "ĠĠĠĠ": 3846,
      "DP": 3847,
      "hors": 3848,
      "Ġserious": 3849,
      "ares": 3850,
      "now": 3851,
      "Ġreceive": 3852,
      "iques": 3853,
      "Ġwestern": 3854,
      "fered": 3855,
      "Ġmiddle": 3856,
      "Ġunderstanding": 3857,
      "ĠIr": 3858,
      "ocracy": 3859,
      "Ġwind": 3860,
      "Ġinstance": 3861,
      "ĠScot": 3862,
      "Ġjob": 3863,
      "Ġlatter": 3864,
      "Ġopposition": 3865,
      "ĠDay": 3866,
      "Ġpositions": 3867,
      "Ġnorthern": 3868,
      "Ġmagaz": 3869,
      "Ġbound": 3870,
      "Ġbehind": 3871,
      "Ġaccepted": 3872,
      "Ġlocation": 3873,
      "emporary": 3874,
      "uz": 3875,
      "Ġadvant": 3876,
      "Ġnearly": 3877,
      "Ġcommunication": 3878,
      "Ġsports": 3879,
      "ĠRed": 3880,
      "osexual": 3881,
      "ston": 3882,
      "pped": 3883,
      "tical": 3884,
      "oor": 3885,
      "aint": 3886,
      "ĠAlso": 3887,
      "igration": 3888,
      "Ġattribut": 3889,
      "dis": 3890,
      "Ġvirt": 3891,
      "Ġpositive": 3892,
      "Ġended": 3893,
      "och": 3894,
      "Ġgra": 3895,
      "iff": 3896,
      "Ġvalues": 3897,
      "uate": 3898,
      "Ġmental": 3899,
      "Ġcontract": 3900,
      "Ġapproximately": 3901,
      "Ġinfluenced": 3902,
      "ĠRevolution": 3903,
      "RL": 3904,
      "Description": 3905,
      "Ġinj": 3906,
      "Ġunit": 3907,
      "Ġradio": 3908,
      "ients": 3909,
      "Ġtend": 3910,
      "inated": 3911,
      "ĠOff": 3912,
      "Ġdecided": 3913,
      "Ġste": 3914,
      "Ġstaff": 3915,
      "aches": 3916,
      "Ġrat": 3917,
      "Ġmarri": 3918,
      "ners": 3919,
      "Ġviolence": 3920,
      "Ġbecoming": 3921,
      "itable": 3922,
      "from": 3923,
      "Ġconqu": 3924,
      "98": 3925,
      "isms": 3926,
      "Ġapplications": 3927,
      "Ġtools": 3928,
      "ĠMedia": 3929,
      "Ġmix": 3930,
      "Ġpresented": 3931,
      "Ġaffect": 3932,
      "Ġprefer": 3933,
      "ula": 3934,
      "Ġwrite": 3935,
      "Ġretain": 3936,
      "Ġminim": 3937,
      "ĠTw": 3938,
      "Ġminister": 3939,
      "ĠStud": 3940,
      "andom": 3941,
      "Ġ2003": 3942,
      "ĠRobert": 3943,
      "ĠArch": 3944,
      "Ġclaims": 3945,
      "Ġborn": 3946,
      "ibly": 3947,
      "iced": 3948,
      "road": 3949,
      "ume": 3950,
      "Ġagreement": 3951,
      "ĠJust": 3952,
      "rend": 3953,
      "hens": 3954,
      "Ġachieve": 3955,
      "92": 3956,
      "Ġstandards": 3957,
      "ĠAustralian": 3958,
      "irit": 3959,
      "Ġrare": 3960,
      "Ġfactors": 3961,
      "Ġcrim": 3962,
      "field": 3963,
      "lades": 3964,
      "Ġadministrat": 3965,
      "Ġopening": 3966,
      "ieties": 3967,
      "Ġrelevant": 3968,
      "anc": 3969,
      "ĠSecond": 3970,
      "Ġlogo": 3971,
      "Ġborder": 3972,
      "Ġinitially": 3973,
      "ĠOld": 3974,
      "Ġcriteria": 3975,
      "Ġrecorded": 3976,
      "ĠBra": 3977,
      "Ġexpected": 3978,
      "Ġseek": 3979,
      "ĠHen": 3980,
      "reng": 3981,
      "Ġedited": 3982,
      "Ġrelatively": 3983,
      "ologies": 3984,
      "such": 3985,
      "acing": 3986,
      "Ġmeasure": 3987,
      "ĠKen": 3988,
      "Ġcard": 3989,
      "itz": 3990,
      "Ġdiag": 3991,
      "aith": 3992,
      "Ġinternal": 3993,
      "Ġhundred": 3994,
      "encies": 3995,
      "ift": 3996,
      "ĠSystem": 3997,
      "Ġstarting": 3998,
      "91": 3999,
      "Ġconcerns": 4000,
      "Ġagreed": 4001,
      "ĠIts": 4002,
      "Ġdivision": 4003,
      "Ġopinion": 4004,
      "oring": 4005,
      "verted": 4006,
      "Ġwanted": 4007,
      "Ġsequ": 4008,
      "Ġfunctions": 4009,
      "Ġtrack": 4010,
      "IS": 4011,
      "Ġbattle": 4012,
      "Ġalternative": 4013,
      "Ġoffer": 4014,
      "100": 4015,
      "ĠScott": 4016,
      "84": 4017,
      "ider": 4018,
      "Ġbelong": 4019,
      "Ġreferences": 4020,
      "cluding": 4021,
      "Ġsays": 4022,
      "Ġuniversities": 4023,
      "Ġreve": 4024,
      "Ġresulting": 4025,
      "ĠLa": 4026,
      "Ġut": 4027,
      "ĠBuddh": 4028,
      "Ġexternal": 4029,
      "Ġdoing": 4030,
      "Ġplaces": 4031,
      "Ġleave": 4032,
      "Ġallowing": 4033,
      "Ġsaying": 4034,
      "97": 4035,
      "Ġdoesn": 4036,
      "icine": 4037,
      "isted": 4038,
      "94": 4039,
      "iforn": 4040,
      "96": 4041,
      "Ġcompetition": 4042,
      "93": 4043,
      "ĠWeb": 4044,
      "iring": 4045,
      "Ġcentre": 4046,
      "Ġmobile": 4047,
      "Ġtopics": 4048,
      "ĠTest": 4049,
      "Ġhumans": 4050,
      "Ġconstit": 4051,
      "Ġinstru": 4052,
      "ĠLou": 4053,
      "oe": 4054,
      "retary": 4055,
      "Ġfailed": 4056,
      "ĠRom": 4057,
      "book": 4058,
      "Ġansw": 4059,
      "Ġdat": 4060,
      "Ġchief": 4061,
      "Ġrepresented": 4062,
      "Ġdespite": 4063,
      "Ġchann": 4064,
      "apers": 4065,
      "ĠCompany": 4066,
      "Ġones": 4067,
      "arent": 4068,
      "more": 4069,
      "Ġrequires": 4070,
      "Ġelement": 4071,
      "Ġjoined": 4072,
      "ĠSud": 4073,
      "Ġult": 4074,
      "Ġhours": 4075,
      "ĠPaul": 4076,
      "ĠGroup": 4077,
      "Ġexpanded": 4078,
      "burg": 4079,
      "ĠThom": 4080,
      "Ġquickly": 4081,
      "war": 4082,
      "ĠVal": 4083,
      "Ġoil": 4084,
      "ansion": 4085,
      "Ġsort": 4086,
      "Ġedition": 4087,
      "Ġexperien": 4088,
      "Ġfields": 4089,
      "fl": 4090,
      "Ġclub": 4091,
      "rents": 4092,
      "Ġoperating": 4093,
      "Ġwel": 4094,
      "Ġtransfer": 4095,
      "ael": 4096,
      "berg": 4097,
      "Ġclosed": 4098,
      "astic": 4099,
      "Ġbomb": 4100,
      "ĠRich": 4101,
      "ifornia": 4102,
      "ani": 4103,
      "Ġsurround": 4104,
      "Ġversions": 4105,
      "related": 4106,
      "Ġtried": 4107,
      "Ġheav": 4108,
      "Ġintelligence": 4109,
      "Ġlot": 4110,
      "Ġvolun": 4111,
      "By": 4112,
      "Ġwest": 4113,
      "Ġresulted": 4114,
      "title": 4115,
      "indu": 4116,
      "Ġproviding": 4117,
      "ĠSam": 4118,
      "ĠMore": 4119,
      "ĠFrank": 4120,
      "Ġfreedom": 4121,
      "Ġface": 4122,
      "Ġplant": 4123,
      "ux": 4124,
      "aland": 4125,
      "Ġspecifically": 4126,
      "ĠHol": 4127,
      "ĠDutch": 4128,
      "Ġrefers": 4129,
      "Ġcompleted": 4130,
      "Ġauthors": 4131,
      "Ġofficials": 4132,
      "Ġoccurred": 4133,
      "ĠBanglades": 4134,
      "ederation": 4135,
      "AC": 4136,
      "ĠInstitute": 4137,
      "Ġ1950": 4138,
      "Ġfif": 4139,
      "ĠRad": 4140,
      "Ġdistingu": 4141,
      "nd": 4142,
      "xx": 4143,
      "Ġbehavi": 4144,
      "Ġserve": 4145,
      "ĠDel": 4146,
      "gorith": 4147,
      "Ġunique": 4148,
      "Ġstatement": 4149,
      "Ġessential": 4150,
      "eed": 4151,
      "Ġinstruct": 4152,
      "Ġinteract": 4153,
      "Ġfeed": 4154,
      "AR": 4155,
      "ww": 4156,
      "Ġmother": 4157,
      "Ġeast": 4158,
      "Ġgold": 4159,
      "Ġstreng": 4160,
      "Ġmemory": 4161,
      "Ġimportance": 4162,
      "Ġopposed": 4163,
      "asc": 4164,
      "ĠOtt": 4165,
      "Ġextreme": 4166,
      "ĠSup": 4167,
      "ĠCommission": 4168,
      "Ġarchitecture": 4169,
      "SS": 4170,
      "wiki": 4171,
      "Ġfrequently": 4172,
      "Ġexact": 4173,
      "ĠSan": 4174,
      "Ġanaly": 4175,
      "Ġaccur": 4176,
      "ett": 4177,
      "Ġdeveloping": 4178,
      "cluded": 4179,
      "Ġbad": 4180,
      "ĠNot": 4181,
      "Ġhttps": 4182,
      "Ġbillion": 4183,
      "ios": 4184,
      "Ġattract": 4185,
      "rs": 4186,
      "eters": 4187,
      "Ġspeech": 4188,
      "ĠAmericans": 4189,
      "ĠDon": 4190,
      "Ġpublish": 4191,
      "Ġpurch": 4192,
      "ĠPalest": 4193,
      "iately": 4194,
      "Ġassess": 4195,
      "Ġdomestic": 4196,
      "alt": 4197,
      "Ġsquare": 4198,
      "enth": 4199,
      "Ġhosp": 4200,
      "Ġactual": 4201,
      "Ġhyp": 4202,
      "ille": 4203,
      "Ġcritical": 4204,
      "ĠCalifornia": 4205,
      "II": 4206,
      "level": 4207,
      "Ġviews": 4208,
      "Ġtrying": 4209,
      "Ġopportun": 4210,
      "Ġvary": 4211,
      "Ġautomatically": 4212,
      "Ġ...": 4213,
      "ĠDepartment": 4214,
      "ĠMich": 4215,
      "Ġexhib": 4216,
      "Ġdistribut": 4217,
      "CO": 4218,
      "Ġoffered": 4219,
      "ĠBen": 4220,
      "Ġadj": 4221,
      "Ġsen": 4222,
      "Ġlibrary": 4223,
      "ĠInter": 4224,
      "ico": 4225,
      "Ġnote": 4226,
      "bert": 4227,
      "ĠSee": 4228,
      "class": 4229,
      "Ġasked": 4230,
      "Ġanimals": 4231,
      "ĠBattle": 4232,
      "ologists": 4233,
      "Ġpermanent": 4234,
      "wood": 4235,
      "Ġ2002": 4236,
      "ĠForce": 4237,
      "ĠHall": 4238,
      "Ġmentioned": 4239,
      "inistry": 4240,
      "ĠAssembly": 4241,
      "ption": 4242,
      "Ġsubstant": 4243,
      "ĠAcadem": 4244,
      "ĠTal": 4245,
      "rief": 4246,
      "ening": 4247,
      "Ġtakes": 4248,
      "Ġfully": 4249,
      "usion": 4250,
      "Ġtreatment": 4251,
      "ĠDiv": 4252,
      "Ġrecognized": 4253,
      "Ġtechniques": 4254,
      "Ġlicens": 4255,
      "'re": 4256,
      "Ġgoal": 4257,
      "aily": 4258,
      "Ġroad": 4259,
      "ĠCambod": 4260,
      "ĠThank": 4261,
      "ĠIsraeli": 4262,
      "Ġbit": 4263,
      "inate": 4264,
      "icians": 4265,
      "Ġchallen": 4266,
      "Ġspl": 4267,
      "ĠCategory": 4268,
      "izes": 4269,
      "ĠTrans": 4270,
      "lo": 4271,
      "Ġnations": 4272,
      "ĠInst": 4273,
      "Ġscreen": 4274,
      "Ġbank": 4275,
      "aker": 4276,
      "Ġdifferences": 4277,
      "Ġdescription": 4278,
      "Ġdynasty": 4279,
      "Pl": 4280,
      "Sh": 4281,
      "Ġmount": 4282,
      "Ġcontributions": 4283,
      "Ġdevices": 4284,
      "Ġnative": 4285,
      "acc": 4286,
      "Ġpractices": 4287,
      "One": 4288,
      "inet": 4289,
      "Ġapply": 4290,
      "mark": 4291,
      "erve": 4292,
      "Ġalgorith": 4293,
      "Ġrunning": 4294,
      "Ġwik": 4295,
      "Ġsecondary": 4296,
      "Ġolder": 4297,
      "style": 4298,
      "ĠUser": 4299,
      "ĠSpain": 4300,
      "ĠOrgan": 4301,
      "ĠScotland": 4302,
      "ĠPlay": 4303,
      "Ġinsp": 4304,
      "Ġletter": 4305,
      "GB": 4306,
      "Since": 4307,
      "ĠDist": 4308,
      "Ġofficers": 4309,
      "Ġpresence": 4310,
      "lers": 4311,
      "Ġprem": 4312,
      "Ġaccounts": 4313,
      "ĠEarth": 4314,
      "nel": 4315,
      "Ġpublication": 4316,
      "ello": 4317,
      "ĠCounty": 4318,
      "Ġearliest": 4319,
      "Ġfigures": 4320,
      "Ġeffective": 4321,
      "Ġdescribe": 4322,
      "Ġcarried": 4323,
      "arters": 4324,
      "ĠSupreme": 4325,
      "Ġwithd": 4326,
      "ĠSudan": 4327,
      "osc": 4328,
      "ĠZealand": 4329,
      "ellect": 4330,
      "ession": 4331,
      "ĠIsland": 4332,
      "Ġinvolve": 4333,
      "Ġlicense": 4334,
      "Ġfamous": 4335,
      "Ġir": 4336,
      "ĠAI": 4337,
      "Ġtitles": 4338,
      "Ġincreasingly": 4339,
      "Ġhar": 4340,
      "ĠGames": 4341,
      "Ġsignificantly": 4342,
      "ĠPortug": 4343,
      "Ġtheories": 4344,
      "ĠCroat": 4345,
      "Ġcarry": 4346,
      "Ġneutral": 4347,
      "NA": 4348,
      "Ġprominent": 4349,
      "ĠTV": 4350,
      "Ġconsists": 4351,
      "ih": 4352,
      "alse": 4353,
      "Ġbey": 4354,
      "ĠSun": 4355,
      "ishop": 4356,
      "Ġvisual": 4357,
      "Ġlinked": 4358,
      "ĠRome": 4359,
      "pace": 4360,
      "ĠTimes": 4361,
      "Ġmaterials": 4362,
      "ĠCons": 4363,
      "Ġadvert": 4364,
      "Ġgovernments": 4365,
      "Hi": 4366,
      "orders": 4367,
      "emplate": 4368,
      "Ġannual": 4369,
      "Ġcomputers": 4370,
      "Ġclassical": 4371,
      "Ġcompletely": 4372,
      "Ġwrong": 4373,
      "ĠMuslims": 4374,
      "--": 4375,
      "'d": 4376,
      "icit": 4377,
      "Ġmill": 4378,
      "aming": 4379,
      "Ġusage": 4380,
      "Ġgiving": 4381,
      "rus": 4382,
      "osure": 4383,
      "Ġotherwise": 4384,
      "Ġimmediately": 4385,
      "bour": 4386,
      "ĠFin": 4387,
      "Ġmarked": 4388,
      "Ġaspects": 4389,
      "orough": 4390,
      "Ġgain": 4391,
      "ĠAnother": 4392,
      "Ġinterpret": 4393,
      "Ġexecutive": 4394,
      "uted": 4395,
      "Ġweapons": 4396,
      "olk": 4397,
      "eff": 4398,
      "atre": 4399,
      "Ġquot": 4400,
      "Ġlimit": 4401,
      "Ġextended": 4402,
      "ented": 4403,
      "ĠNor": 4404,
      "Ġproced": 4405,
      "vious": 4406,
      "peror": 4407,
      "perial": 4408,
      "Ġraised": 4409,
      "Ġbeyond": 4410,
      "fect": 4411,
      "Ġreaders": 4412,
      "Ġawarded": 4413,
      "Ġfr": 4414,
      "Ġofficially": 4415,
      "cre": 4416,
      "Ġbeg": 4417,
      "Ġrational": 4418,
      "Ġthing": 4419,
      "Ġconvention": 4420,
      "ĠFranc": 4421,
      "ultan": 4422,
      "pass": 4423,
      "Ġissued": 4424,
      "Ġnegative": 4425,
      "Ġdomain": 4426,
      "ava": 4427,
      "Ġjur": 4428,
      "Ġtransm": 4429,
      "Ġfiles": 4430,
      "ĠAsian": 4431,
      "index": 4432,
      "Ġanything": 4433,
      "Ġexpansion": 4434,
      "ĠBangladesh": 4435,
      "enes": 4436,
      "Ġcompar": 4437,
      "Ġhor": 4438,
      "urrent": 4439,
      "ĠHT": 4440,
      "php": 4441,
      "tters": 4442,
      "Ġcere": 4443,
      "Ġadvoc": 4444,
      "Ġpurposes": 4445,
      "Image": 4446,
      "ĠNews": 4447,
      "Ġcriminal": 4448,
      "Many": 4449,
      "Ġmeant": 4450,
      "entions": 4451,
      "Ġconserv": 4452,
      "cks": 4453,
      "uff": 4454,
      "Ġwoman": 4455,
      "ĠCommon": 4456,
      "Ġillust": 4457,
      "Ġmoving": 4458,
      "ception": 4459,
      "Ġdepend": 4460,
      "Ġfamilies": 4461,
      "Ġmonarch": 4462,
      "ĠDemocratic": 4463,
      "ES": 4464,
      "Ġlif": 4465,
      "ĠMass": 4466,
      "ĠCommons": 4467,
      "heast": 4468,
      "Ġinvasion": 4469,
      "ĠHuman": 4470,
      "Ġstudent": 4471,
      "yal": 4472,
      "Ġarrest": 4473,
      "Ġ1999": 4474,
      "ĠAut": 4475,
      "adian": 4476,
      "Ġmeeting": 4477,
      "Ġdetermine": 4478,
      "ĠAp": 4479,
      "igen": 4480,
      "anguage": 4481,
      "Ġmission": 4482,
      "ĠOpen": 4483,
      "ressed": 4484,
      "everal": 4485,
      "Ġreduced": 4486,
      "illed": 4487,
      "Ġnuclear": 4488,
      "ishing": 4489,
      "ĠAdd": 4490,
      "writ": 4491,
      "Ġmarriage": 4492,
      "Ġeastern": 4493,
      "iplom": 4494,
      "itt": 4495,
      "Ġvoc": 4496,
      "Ġprison": 4497,
      "elled": 4498,
      "Ġresearc": 4499,
      "ulpt": 4500,
      "ifying": 4501,
      "Ġreach": 4502,
      "Ġenter": 4503,
      "istance": 4504,
      "ulate": 4505,
      "ĠPrime": 4506,
      "ĠBerlin": 4507,
      "Ġgrowing": 4508,
      "IC": 4509,
      "ĠAv": 4510,
      "verse": 4511,
      "Ġlength": 4512,
      "Ġpainting": 4513,
      "ĠNaz": 4514,
      "Ġmuseum": 4515,
      "Ġruns": 4516,
      "Ġauthorities": 4517,
      "Ġnor": 4518,
      "Ġcogn": 4519,
      "oul": 4520,
      "Ġsections": 4521,
      "Ġrestrict": 4522,
      "ĠConf": 4523,
      "Ġcontest": 4524,
      "Ġago": 4525,
      "Ġerror": 4526,
      "Ġcoverage": 4527,
      "etry": 4528,
      "ĠHindu": 4529,
      "ĠResearch": 4530,
      "iar": 4531,
      "FA": 4532,
      "wa": 4533,
      "Ġcorpor": 4534,
      "Ġcircum": 4535,
      "Ġclick": 4536,
      "elt": 4537,
      "ĠParis": 4538,
      "ras": 4539,
      "emic": 4540,
      "Ġreports": 4541,
      "Ġvalid": 4542,
      "ircraft": 4543,
      "Ġadvantage": 4544,
      "Ġkingdom": 4545,
      "Ġcouncil": 4546,
      "Ġcontemporary": 4547,
      "ĠOffice": 4548,
      "mes": 4549,
      "Ġmatches": 4550,
      "Ġremaining": 4551,
      "Ġruled": 4552,
      "ĠLouis": 4553,
      "Ġpoll": 4554,
      "ĠForces": 4555,
      "Ġmusical": 4556,
      "Ġbal": 4557,
      "Ġlaunch": 4558,
      "Ġvo": 4559,
      "ĠFederal": 4560,
      "Ġplans": 4561,
      "Ġcombined": 4562,
      "Ġproposal": 4563,
      "min": 4564,
      "Ġpack": 4565,
      "Ġvand": 4566,
      "Ġartist": 4567,
      "duc": 4568,
      "ĠSociety": 4569,
      "ias": 4570,
      "%)": 4571,
      "Ġoverall": 4572,
      "Ġhit": 4573,
      "Ġgot": 4574,
      "ĠDrag": 4575,
      "century": 4576,
      "aught": 4577,
      "ĠThomas": 4578,
      "Ġund": 4579,
      "Ġsynt": 4580,
      "ams": 4581,
      "Ġsum": 4582,
      "igrants": 4583,
      "Ġexistence": 4584,
      "Ġesc": 4585,
      "Ġparameter": 4586,
      "ctr": 4587,
      "odies": 4588,
      "ĠWhat": 4589,
      "antry": 4590,
      "Ġorganized": 4591,
      "Ġgained": 4592,
      "Ġfavor": 4593,
      "ena": 4594,
      "bon": 4595,
      "ka": 4596,
      "uty": 4597,
      "Ġquite": 4598,
      "Ġprime": 4599,
      "Ġoperation": 4600,
      "icted": 4601,
      "pread": 4602,
      "Ġconsequ": 4603,
      "ĠWil": 4604,
      "Ġemot": 4605,
      "Ġdetails": 4606,
      "Ġdatab": 4607,
      "Ġdiscovered": 4608,
      "ĠSum": 4609,
      "Ġdead": 4610,
      "onym": 4611,
      "ĠInt": 4612,
      "Ġdocuments": 4613,
      "Ġfigure": 4614,
      "ieval": 4615,
      "ĠClass": 4616,
      "Ġexperienced": 4617,
      "Ġnetworks": 4618,
      "Ġshared": 4619,
      "ĠTrump": 4620,
      "Ġfighting": 4621,
      "Ġamb": 4622,
      "estival": 4623,
      "ĠMary": 4624,
      "Ġgranted": 4625,
      "ĠSocial": 4626,
      "Ġprovin": 4627,
      "ĠPre": 4628,
      "No": 4629,
      "Ġfarm": 4630,
      "Ġfaith": 4631,
      "vered": 4632,
      "Ġdecades": 4633,
      "enty": 4634,
      "Ġ00": 4635,
      "Ġtask": 4636,
      "Ġfollows": 4637,
      "Ġpressure": 4638,
      "Ġevolution": 4639,
      "iat": 4640,
      "ĠCivil": 4641,
      "ocks": 4642,
      "ĠJud": 4643,
      "Ġsurface": 4644,
      "Ġsubjects": 4645,
      "While": 4646,
      "Ġcoup": 4647,
      "idespread": 4648,
      "ĠAnt": 4649,
      "Ġisland": 4650,
      "equ": 4651,
      "ĠHenry": 4652,
      "ken": 4653,
      "Ġdecre": 4654,
      "Ġnormal": 4655,
      "ĠTra": 4656,
      "Ġsubs": 4657,
      "Ġbrother": 4658,
      "tra": 4659,
      "ĠUnder": 4660,
      "Please": 4661,
      "Ġign": 4662,
      "Ġfir": 4663,
      "Ġlabor": 4664,
      "iary": 4665,
      "Ġterritories": 4666,
      "date": 4667,
      "Ġ/": 4668,
      "ĠWind": 4669,
      "Ġrandom": 4670,
      "Ġcolumn": 4671,
      "Ġeasily": 4672,
      "ĠSing": 4673,
      "ĠMa": 4674,
      "ĠBos": 4675,
      "Ġitems": 4676,
      "Ġcomes": 4677,
      "ĠHealth": 4678,
      "Ġcolonial": 4679,
      "Ġcultures": 4680,
      "Ġworldwide": 4681,
      "Ġconducted": 4682,
      "edy": 4683,
      "Ġwood": 4684,
      "ĠSouthern": 4685,
      "ĠMiss": 4686,
      "ipment": 4687,
      "Ġinterested": 4688,
      "ĠCE": 4689,
      "Ġletters": 4690,
      "ĠIS": 4691,
      "Ġincome": 4692,
      "Ġreduce": 4693,
      "Ġepis": 4694,
      "Ġfalse": 4695,
      "Ġdram": 4696,
      "ellectual": 4697,
      "ĠMark": 4698,
      "ĠPublic": 4699,
      "Ġcareer": 4700,
      "Ġpaid": 4701,
      "Be": 4702,
      "Ġwall": 4703,
      "Ġdeploy": 4704,
      "with": 4705,
      "Ġmessages": 4706,
      "Ġempire": 4707,
      "Ġeffic": 4708,
      "ĠProv": 4709,
      "ĠService": 4710,
      "ĠBank": 4711,
      "Ġsitu": 4712,
      "Ġeval": 4713,
      "uit": 4714,
      "Ġaid": 4715,
      "Ġspirit": 4716,
      "Ġleadership": 4717,
      "Ġfourth": 4718,
      "ticles": 4719,
      "ago": 4720,
      "Ġ1991": 4721,
      "Ġfundament": 4722,
      "Ġdoub": 4723,
      "Ġhelped": 4724,
      "Ġdistribution": 4725,
      "Ġsculpt": 4726,
      "Ġdirector": 4727,
      "Ġarmed": 4728,
      "osen": 4729,
      "Ġrepublic": 4730,
      "Ġfootball": 4731,
      "rie": 4732,
      "ube": 4733,
      "Ġwidespread": 4734,
      "Ġextra": 4735,
      "axim": 4736,
      "Ġlingu": 4737,
      "Ġslow": 4738,
      "BS": 4739,
      "Ġsport": 4740,
      "Ġbrief": 4741,
      "rates": 4742,
      "ĠBecause": 4743,
      "Ġroyal": 4744,
      "Ad": 4745,
      "Ġconvers": 4746,
      "iven": 4747,
      "Ġ60": 4748,
      "ceived": 4749,
      "ĠLibrary": 4750,
      "Ġtheore": 4751,
      "Ġwiki": 4752,
      "Ġheavy": 4753,
      "Ġstrategy": 4754,
      "Ġbranch": 4755,
      "AF": 4756,
      "work": 4757,
      "Ġ<": 4758,
      "Ġrecon": 4759,
      "ĠMicro": 4760,
      "Ġwealth": 4761,
      "Ġmathematics": 4762,
      "Ġnegot": 4763,
      "Ġmagazine": 4764,
      "Ġdebate": 4765,
      "Ġpicture": 4766,
      "Ġperhaps": 4767,
      "Ġsche": 4768,
      "Ġregarded": 4769,
      "Ġaircraft": 4770,
      "Ġhop": 4771,
      "Ġgun": 4772,
      "ĠMo": 4773,
      "abul": 4774,
      "Ġenem": 4775,
      "Ġconcent": 4776,
      "ĠMah": 4777,
      "ĠWall": 4778,
      "Ġdedic": 4779,
      "Ġresidents": 4780,
      ");": 4781,
      "inian": 4782,
      "Ġinput": 4783,
      "Ġec": 4784,
      "inter": 4785,
      "irection": 4786,
      "Ġdiscussions": 4787,
      "Ġphen": 4788,
      "Ġpowerful": 4789,
      "Ġengineering": 4790,
      "Ġthousands": 4791,
      "ĠSea": 4792,
      "Ġcrime": 4793,
      "Ġbott": 4794,
      "Man": 4795,
      "Ġadvance": 4796,
      "Ġcontrolled": 4797,
      "Ġstructures": 4798,
      "Ġbur": 4799,
      "Ġdrug": 4800,
      "Ġpresidential": 4801,
      "Ġast": 4802,
      "ĠVir": 4803,
      "Ġdefeated": 4804,
      "Ġexerc": 4805,
      "Ġcollege": 4806,
      "ĠWikiProject": 4807,
      "You": 4808,
      "ĠAcademy": 4809,
      "bs": 4810,
      "ĠSpecial": 4811,
      "ĠArmen": 4812,
      "Ġexperim": 4813,
      "EC": 4814,
      "oldid": 4815,
      "Ġdestroyed": 4816,
      "ĠMad": 4817,
      "uls": 4818,
      "Ġpolitics": 4819,
      "Ġreading": 4820,
      "uild": 4821,
      "ĠBur": 4822,
      "Ġequal": 4823,
      "Ġrecords": 4824,
      "Ġobserv": 4825,
      "oes": 4826,
      "Ġadult": 4827,
      "Ġexpressed": 4828,
      "Ġcompl": 4829,
      "odox": 4830,
      "ician": 4831,
      "Ġcommission": 4832,
      "ifications": 4833,
      "Ġcoal": 4834,
      "ĠGrand": 4835,
      "From": 4836,
      "no": 4837,
      "Ġstar": 4838,
      "Ġinstitution": 4839,
      "Ġ1996": 4840,
      "Ġwish": 4841,
      "Ġclimate": 4842,
      "Ġentered": 4843,
      "Ġprinciples": 4844,
      "Ġsplit": 4845,
      "Ġcitation": 4846,
      "Ġequival": 4847,
      "Ġcards": 4848,
      "Ġscore": 4849,
      "Ġprose": 4850,
      "ĠNavy": 4851,
      "grad": 4852,
      "Ġentry": 4853,
      "Ġrevision": 4854,
      "Ġhol": 4855,
      "Ġleaving": 4856,
      "Ġrevolution": 4857,
      "Ġweeks": 4858,
      "Ġrespectively": 4859,
      "Ġjuris": 4860,
      "Ġarts": 4861,
      "itionally": 4862,
      "Ġemerged": 4863,
      "Ġinterview": 4864,
      "Ġdistrict": 4865,
      "ala": 4866,
      "Ġrob": 4867,
      "Ġadvanced": 4868,
      "Ġpaint": 4869,
      "omew": 4870,
      "Ġnothing": 4871,
      "aza": 4872,
      "Ġharm": 4873,
      "Ġcamer": 4874,
      "Ġentirely": 4875,
      "Ġmur": 4876,
      "Ġvictim": 4877,
      "Ġbackground": 4878,
      "acity": 4879,
      "ĠTreat": 4880,
      "ĠSat": 4881,
      "ĠOper": 4882,
      "Ġsty": 4883,
      "Ġdiscussed": 4884,
      "Ġadministrative": 4885,
      "ĠRec": 4886,
      "lig": 4887,
      "Although": 4888,
      "Ġexclus": 4889,
      "Ġcomposed": 4890,
      "ĠVict": 4891,
      "Ġcoord": 4892,
      "Ġmyth": 4893,
      "ĠApple": 4894,
      "lav": 4895,
      "oration": 4896,
      "Ġarrang": 4897,
      "kh": 4898,
      "arsh": 4899,
      "Ġsought": 4900,
      "het": 4901,
      "Ġshowed": 4902,
      "Ġattempted": 4903,
      "ensions": 4904,
      "Ġ1992": 4905,
      "going": 4906,
      "ĠKhan": 4907,
      "Ġsan": 4908,
      "Ġdifference": 4909,
      "Ġoldest": 4910,
      "Ġparticipate": 4911,
      "We": 4912,
      "fully": 4913,
      "Ġemerg": 4914,
      "Ġsurvey": 4915,
      "Ġprotest": 4916,
      "Ġrejected": 4917,
      "Ġpath": 4918,
      "Ġban": 4919,
      "Ġhosted": 4920,
      "Ġlooking": 4921,
      "top": 4922,
      "opy": 4923,
      "unicip": 4924,
      "aud": 4925,
      "Ġcaptured": 4926,
      "Ġmut": 4927,
      "ĠTun": 4928,
      "Ġrestric": 4929,
      "Ġwinning": 4930,
      "Ġexplan": 4931,
      "Ġchoice": 4932,
      "Ġchemical": 4933,
      "ĠHow": 4934,
      "soft": 4935,
      "ĠPen": 4936,
      "Ġexchange": 4937,
      "comm": 4938,
      "ĠAdm": 4939,
      "asks": 4940,
      "Ġsufficient": 4941,
      "wan": 4942,
      "Ġwatch": 4943,
      "),[": 4944,
      "Ġattempts": 4945,
      "igenous": 4946,
      "stein": 4947,
      "Ġcovered": 4948,
      "Ġensure": 4949,
      "Ġpublis": 4950,
      "ĠAlexander": 4951,
      "ĠArabic": 4952,
      "rors": 4953,
      "Ġexists": 4954,
      "ĠGold": 4955,
      "Ġgoods": 4956,
      "Ġgrew": 4957,
      "Ġinnov": 4958,
      "antly": 4959,
      "Ġrace": 4960,
      "Ġsuc": 4961,
      "Ġdefense": 4962,
      "Ġextensive": 4963,
      "Ġprep": 4964,
      "Ġcounty": 4965,
      "Ġdefault": 4966,
      "He": 4967,
      "MF": 4968,
      "ĠGreen": 4969,
      "Ġ1998": 4970,
      "Ġil": 4971,
      "Ġalph": 4972,
      "ĠWomen": 4973,
      "Ġey": 4974,
      "tery": 4975,
      "ister": 4976,
      "Ġscale": 4977,
      "iding": 4978,
      "Ġmov": 4979,
      "Ġdecisions": 4980,
      "Ġargument": 4981,
      "rd": 4982,
      "Ġequipment": 4983,
      "Ġcombat": 4984,
      "Ġdisease": 4985,
      "term": 4986,
      "Ġoutput": 4987,
      "ĠIII": 4988,
      "overy": 4989,
      "Ġskills": 4990,
      "Ġachieved": 4991,
      "ĠScience": 4992,
      "ĠDivision": 4993,
      "ĠTechn": 4994,
      "rees": 4995,
      "ĠMat": 4996,
      "raq": 4997,
      "Ġroles": 4998,
      "ĠDistrict": 4999,
      "Ġcited": 5000,
      "Ġlearn": 5001,
      "Ġnav": 5002,
      "ĠBoth": 5003,
      "Ġprogramming": 5004,
      "Ġaffected": 5005,
      "ship": 5006,
      "Ġdetermined": 5007,
      "Ġsubsequent": 5008,
      "Ġsucceed": 5009,
      "ambig": 5010,
      "ĠSwed": 5011,
      "oral": 5012,
      "Ġbeliefs": 5013,
      "Ġhun": 5014,
      "ĠDan": 5015,
      "Ġ.": 5016,
      "Ġranked": 5017,
      "eg": 5018,
      "Ġblue": 5019,
      "Ġheadqu": 5020,
      "Ġfixed": 5021,
      "ĠThus": 5022,
      "Ġagree": 5023,
      "Ġblood": 5024,
      "ĠShah": 5025,
      "Ġsentence": 5026,
      "ĠSur": 5027,
      "Ġmathematical": 5028,
      "page": 5029,
      "Ġalone": 5030,
      "ĠRights": 5031,
      "ĠEach": 5032,
      "ĠSuper": 5033,
      "ĠBay": 5034,
      "Ġrates": 5035,
      "Ġlived": 5036,
      "ĠSuch": 5037,
      "Ġgives": 5038,
      "',": 5039,
      "add": 5040,
      "apsed": 5041,
      "Ġnight": 5042,
      "Ġaudience": 5043,
      "akh": 5044,
      "Ġship": 5045,
      "Ġ1995": 5046,
      "Ġneighbor": 5047,
      "oo": 5048,
      "Ġriver": 5049,
      "Ġarms": 5050,
      "band": 5051,
      "ĠMinistry": 5052,
      "ĠHel": 5053,
      "Ġfocused": 5054,
      "].": 5055,
      "Ġnine": 5056,
      "Ġrepeated": 5057,
      "Ġcore": 5058,
      "ĠAlb": 5059,
      "miss": 5060,
      "Ġtold": 5061,
      "thodox": 5062,
      "Ġdisput": 5063,
      "Ġselected": 5064,
      "Ġprohib": 5065,
      "Ġconsc": 5066,
      "Ġproperties": 5067,
      "Ġalle": 5068,
      "claim": 5069,
      "pective": 5070,
      "Ġsymbol": 5071,
      "ifies": 5072,
      "ĠFurther": 5073,
      "ferences": 5074,
      "Ġacts": 5075,
      "Ġoption": 5076,
      "Ġchance": 5077,
      "ĠScottish": 5078,
      "Ġjurisd": 5079,
      "ĠGre": 5080,
      "ĠSal": 5081,
      "ida": 5082,
      "Ġcas": 5083,
      "Ġconcepts": 5084,
      "Ġdiplom": 5085,
      "ola": 5086,
      "issance": 5087,
      "ĠStand": 5088,
      "Ġclasses": 5089,
      "ĠSub": 5090,
      "abled": 5091,
      "Ġjoint": 5092,
      "Ġdeclined": 5093,
      "ĠHistory": 5094,
      "Ġinside": 5095,
      "ĠPersian": 5096,
      "Ġconfirmed": 5097,
      "Ġilleg": 5098,
      "ĠHaw": 5099,
      "Ġpopulations": 5100,
      "Ġclosely": 5101,
      "ped": 5102,
      "SR": 5103,
      "Ġdro": 5104,
      "ĠOb": 5105,
      "Ġdevice": 5106,
      "Ġphilosop": 5107,
      "Ġphenomen": 5108,
      "kin": 5109,
      "ĠGra": 5110,
      "Ġblocked": 5111,
      "Ġmom": 5112,
      "Ġmissile": 5113,
      "Ġvolunte": 5114,
      "Ġresearchers": 5115,
      "icial": 5116,
      "Ġgreen": 5117,
      "Ġmaintained": 5118,
      "Ġnewspaper": 5119,
      "Ġdepart": 5120,
      "ĠBosn": 5121,
      "ĠIraq": 5122,
      "Ġunless": 5123,
      "Ġdepending": 5124,
      "Ġelim": 5125,
      "IP": 5126,
      "bian": 5127,
      "sole": 5128,
      "oned": 5129,
      "Ġgay": 5130,
      "Ġsomew": 5131,
      "Ġfriend": 5132,
      "ĠEduc": 5133,
      "Ġreality": 5134,
      "Ġturned": 5135,
      "Ġstream": 5136,
      "Ġextent": 5137,
      "Ġ80": 5138,
      "Ġexplicit": 5139,
      "],": 5140,
      "Ġcensus": 5141,
      "Ġstations": 5142,
      "Ġships": 5143,
      "Ġabst": 5144,
      "Ġplays": 5145,
      "Ġ1993": 5146,
      "Ġexpression": 5147,
      "ĠAngel": 5148,
      "ruption": 5149,
      "Ġsummary": 5150,
      "aments": 5151,
      "Ġcris": 5152,
      "including": 5153,
      "Ġhope": 5154,
      "Ġconnected": 5155,
      "Ġheavily": 5156,
      "ĠLiber": 5157,
      "ĠTheir": 5158,
      "Ġtexts": 5159,
      "Ġsector": 5160,
      "Ġformation": 5161,
      "Ġimproved": 5162,
      "Ġpan": 5163,
      "Ġbodies": 5164,
      "imal": 5165,
      "Ġintellectual": 5166,
      "load": 5167,
      "Ġbul": 5168,
      "ĠPenn": 5169,
      "ĠPeter": 5170,
      "velopment": 5171,
      "Ġchoose": 5172,
      "ĠMichael": 5173,
      "Ġbottom": 5174,
      "ictions": 5175,
      "Ġabuse": 5176,
      "Ġinvolves": 5177,
      "ĠAny": 5178,
      "Ġinternet": 5179,
      "ĠFil": 5180,
      "Ġrural": 5181,
      "Ġdirection": 5182,
      "ĠMel": 5183,
      "ĠMem": 5184,
      "ĠMex": 5185,
      "teen": 5186,
      "amples": 5187,
      "Ġpromote": 5188,
      "Ġinstructions": 5189,
      "ura": 5190,
      "ĠCanadian": 5191,
      "ĠPan": 5192,
      "Ġkept": 5193,
      "ĠBill": 5194,
      "enue": 5195,
      "ĠGame": 5196,
      "Ġvictory": 5197,
      "ĠFore": 5198,
      "ĠProtest": 5199,
      "ĠBal": 5200,
      "Ġplanned": 5201,
      "ilitary": 5202,
      "Ġcrisis": 5203,
      "Ġtell": 5204,
      "\"[": 5205,
      "Ġapproved": 5206,
      "Ġcitations": 5207,
      "En": 5208,
      "Ġtoward": 5209,
      "Ġsevere": 5210,
      "Ġserver": 5211,
      "Ġ1994": 5212,
      "Ġprocessing": 5213,
      "Ġ01": 5214,
      "Ġinhab": 5215,
      "ĠLord": 5216,
      "Ġdim": 5217,
      "cean": 5218,
      "ĠIrish": 5219,
      "can": 5220,
      "Ġjoin": 5221,
      "Ġsets": 5222,
      "Ġeducational": 5223,
      "Ġparent": 5224,
      "ĠAtl": 5225,
      "Ġdouble": 5226,
      "ĠAD": 5227,
      "ety": 5228,
      "hy": 5229,
      "{\\": 5230,
      "Ġmere": 5231,
      "Ġmarried": 5232,
      "Ġphr": 5233,
      "Ġconcerned": 5234,
      "name": 5235,
      "Ġsolution": 5236,
      "Ġmist": 5237,
      "Ġsupply": 5238,
      "Ġautonom": 5239,
      "ĠBoard": 5240,
      "Americ": 5241,
      "Ġdates": 5242,
      "olf": 5243,
      "urches": 5244,
      "Ġthinking": 5245,
      "uzz": 5246,
      "Ġmetal": 5247,
      "Ġdedicated": 5248,
      "Ġstay": 5249,
      "Ġcompr": 5250,
      "Ġindex": 5251,
      "orian": 5252,
      "ashion": 5253,
      "Ġclearly": 5254,
      "Ġspeakers": 5255,
      "Ġ1997": 5256,
      "ĠBas": 5257,
      "Ġmedicine": 5258,
      "Ġcondition": 5259,
      "Ġwife": 5260,
      "ĠEU": 5261,
      "Ġdominant": 5262,
      "ĠRichard": 5263,
      "itude": 5264,
      "ĠDar": 5265,
      "place": 5266,
      "ructure": 5267,
      "Ġsubsequently": 5268,
      "Ġresolution": 5269,
      "Ġdecline": 5270,
      "ĠDespite": 5271,
      "Ġemail": 5272,
      "Ġprotected": 5273,
      "cell": 5274,
      "ĠPost": 5275,
      "Ġtele": 5276,
      "Ġ1989": 5277,
      "Ġappearance": 5278,
      "New": 5279,
      "sour": 5280,
      "Ġcauses": 5281,
      "Ġmeasures": 5282,
      "ĠMin": 5283,
      "Ġsac": 5284,
      "ĠSmith": 5285,
      "oday": 5286,
      "Ġpron": 5287,
      "Ġcriticism": 5288,
      "Ġpersons": 5289,
      "Ġminority": 5290,
      "Ġinterests": 5291,
      "Ġfear": 5292,
      "Ġprinciple": 5293,
      "ĠSenate": 5294,
      "alle": 5295,
      "ading": 5296,
      "Ġsea": 5297,
      "auc": 5298,
      "Ġtherap": 5299,
      "Ġplanning": 5300,
      "Ġbecomes": 5301,
      "list": 5302,
      "ying": 5303,
      "erved": 5304,
      "Ġgod": 5305,
      "Ġenj": 5306,
      "ampion": 5307,
      "point": 5308,
      "oser": 5309,
      "Ġprovince": 5310,
      "obox": 5311,
      "rison": 5312,
      "Ġfle": 5313,
      "Ġmaster": 5314,
      "oples": 5315,
      "cel": 5316,
      "hesis": 5317,
      "Ġconnection": 5318,
      "Ġnominated": 5319,
      "uration": 5320,
      "ĠRel": 5321,
      "Ġprice": 5322,
      "ĠHTML": 5323,
      "BM": 5324,
      "unction": 5325,
      "Ġcontributed": 5326,
      "Ex": 5327,
      "ua": 5328,
      "ym": 5329,
      "Ġindicate": 5330,
      "ĠVirgin": 5331,
      "west": 5332,
      "ĠTwo": 5333,
      "ĠGreece": 5334,
      "col": 5335,
      "Ġmicro": 5336,
      "ĠBroad": 5337,
      "Ġdispute": 5338,
      "bar": 5339,
      "itage": 5340,
      "Ġorient": 5341,
      "Ġchanging": 5342,
      "Ġmanner": 5343,
      "Ġsetting": 5344,
      "Ġrelationships": 5345,
      "Ġgas": 5346,
      "ĠMart": 5347,
      "Ġordered": 5348,
      "lv": 5349,
      "Ġpopularity": 5350,
      "ancy": 5351,
      "ĠMount": 5352,
      "Ġcandidates": 5353,
      "raction": 5354,
      "Ġelectronic": 5355,
      "ographical": 5356,
      "ĠSecretary": 5357,
      "ĠEconom": 5358,
      "Ġabol": 5359,
      "Ġderived": 5360,
      "Ġvast": 5361,
      "iban": 5362,
      "operation": 5363,
      "rical": 5364,
      "ĠCap": 5365,
      "Ġmovements": 5366,
      "Ġlove": 5367,
      "otic": 5368,
      "Ġsemi": 5369,
      "IT": 5370,
      "itarian": 5371,
      "aling": 5372,
      "ĠSir": 5373,
      "ĠOver": 5374,
      "Or": 5375,
      "Ġapparent": 5376,
      "Ġupdated": 5377,
      "Ġstories": 5378,
      "120": 5379,
      "Ġgrand": 5380,
      "ita": 5381,
      "Ġowned": 5382,
      "Ġstatements": 5383,
      "Ġmaxim": 5384,
      "ĠDis": 5385,
      "oke": 5386,
      "Ġinfluential": 5387,
      "ĠSecurity": 5388,
      "rich": 5389,
      "adel": 5390,
      "rations": 5391,
      "ĠSte": 5392,
      "ĠVietnam": 5393,
      "pre": 5394,
      "urt": 5395,
      "101": 5396,
      "Ġdemocracy": 5397,
      "Ġmedieval": 5398,
      "know": 5399,
      "Ġhomosexual": 5400,
      "Ġcourts": 5401,
      "Ġrecognition": 5402,
      "Ġslight": 5403,
      "Ġfram": 5404,
      "Ġforward": 5405,
      "Ġfunding": 5406,
      "ĠOttoman": 5407,
      "Ġalt": 5408,
      "Ġshowing": 5409,
      "idden": 5410,
      "IDE": 5411,
      "Ġparents": 5412,
      "Ġwa": 5413,
      "Ġenforce": 5414,
      "ĠProject": 5415,
      "ocol": 5416,
      "Ġdescribes": 5417,
      "well": 5418,
      "ĠFollowing": 5419,
      "Ġplants": 5420,
      "ĠGeorg": 5421,
      "Ġisn": 5422,
      "Ġcapacity": 5423,
      "Ġintroduction": 5424,
      "Ġaccused": 5425,
      "Ġdrag": 5426,
      "agement": 5427,
      "ĠTreaty": 5428,
      "Ġrelative": 5429,
      "Ġsimpl": 5430,
      "lar": 5431,
      "Ġtim": 5432,
      "Ġshot": 5433,
      "erman": 5434,
      "antine": 5435,
      "Ġlabel": 5436,
      "ĠLab": 5437,
      "All": 5438,
      "abilities": 5439,
      "Ġ1930": 5440,
      "tr": 5441,
      "etro": 5442,
      "Ġaband": 5443,
      "ĠChristianity": 5444,
      "Ġlegislation": 5445,
      "Ġhouses": 5446,
      "ba": 5447,
      "ĠHind": 5448,
      "ĠYear": 5449,
      "Ġcontroversial": 5450,
      "Ġdegrees": 5451,
      "Ġmixed": 5452,
      "ĠAge": 5453,
      "Ġencyclopedia": 5454,
      "ĠDefense": 5455,
      "Ġvehicles": 5456,
      "Ġrefused": 5457,
      "Ġcontribute": 5458,
      "olitan": 5459,
      "Ġequivalent": 5460,
      "yan": 5461,
      "Ġcolonies": 5462,
      "aughter": 5463,
      "Ġfast": 5464,
      "Ġwhereas": 5465,
      "ĠAward": 5466,
      "throp": 5467,
      "ĠEv": 5468,
      "Ġcategor": 5469,
      "prof": 5470,
      "Ġpromoted": 5471,
      "Ed": 5472,
      "iled": 5473,
      "Ġnewly": 5474,
      "Ġfundamental": 5475,
      "Ph": 5476,
      "ulg": 5477,
      "Ġnormally": 5478,
      "greg": 5479,
      "ĠRepublican": 5480,
      "Ġimplemented": 5481,
      "mental": 5482,
      "ĠMicrosoft": 5483,
      "htt": 5484,
      "iations": 5485,
      "Ġgram": 5486,
      "Ġofficer": 5487,
      "Ġemployed": 5488,
      "Ġphoto": 5489,
      "Ġfelt": 5490,
      "ĠEven": 5491,
      "Ġnotability": 5492,
      "Ġapprec": 5493,
      "Ġalongside": 5494,
      "Ġtruth": 5495,
      "Ġelectric": 5496,
      "ĠEdward": 5497,
      "Ġsusp": 5498,
      "ĠWindows": 5499,
      "Hello": 5500,
      "Ġ=": 5501,
      "Ġfine": 5502,
      "ĠArticle": 5503,
      "Ġcombination": 5504,
      "onn": 5505,
      "Ġwear": 5506,
      "iform": 5507,
      "ĠIndones": 5508,
      "gle": 5509,
      "icon": 5510,
      "Ġcriticized": 5511,
      "GBT": 5512,
      "Ġtasks": 5513,
      "Ġsuggests": 5514,
      "igation": 5515,
      "ĠLater": 5516,
      "Ġworth": 5517,
      "Ġcharge": 5518,
      "Ġ02": 5519,
      "ĠQueen": 5520,
      "ework": 5521,
      "Ġcontinues": 5522,
      "Ġpossibly": 5523,
      "Ġoccupied": 5524,
      "Ġtraditions": 5525,
      "ĠTunis": 5526,
      "uan": 5527,
      "itter": 5528,
      "ĠTer": 5529,
      "ĠCat": 5530,
      "Ġgir": 5531,
      "Cl": 5532,
      "Ġtrust": 5533,
      "Ġupper": 5534,
      "vereign": 5535,
      "Ġunable": 5536,
      "Ġchosen": 5537,
      "Ġrefuge": 5538,
      "Ġoccasion": 5539,
      "edd": 5540,
      "Ġpric": 5541,
      "ĠJose": 5542,
      "Ġpersonnel": 5543,
      "ĠElect": 5544,
      "Ġlives": 5545,
      "ĠCre": 5546,
      "ĠDirect": 5547,
      "Ġheart": 5548,
      "Ġstudied": 5549,
      "Ġ70": 5550,
      "ĠKorea": 5551,
      "Ġviewed": 5552,
      "Ġur": 5553,
      "illa": 5554,
      "Ġcapture": 5555,
      "Ġalphab": 5556,
      "ĠRail": 5557,
      "Ġselection": 5558,
      "Ġrating": 5559,
      "ĠNether": 5560,
      "Ġbrain": 5561,
      "stream": 5562,
      "Ġdirected": 5563,
      "Ġancest": 5564,
      "hat": 5565,
      "clar": 5566,
      "Ġfit": 5567,
      "Ġparameters": 5568,
      "Ġbow": 5569,
      "using": 5570,
      "Ġstyles": 5571,
      "Ġdaily": 5572,
      "olve": 5573,
      "utin": 5574,
      "rence": 5575,
      "Ġgeneration": 5576,
      "Ġvisit": 5577,
      "ĠSpe": 5578,
      "osite": 5579,
      "Ġmulti": 5580,
      "Ġcommittee": 5581,
      "Ġparticipants": 5582,
      "chester": 5583,
      "Ġdamage": 5584,
      "adium": 5585,
      "Ġproport": 5586,
      "Ġgreatly": 5587,
      "ĠPac": 5588,
      "Ġpreced": 5589,
      "Ġgenerate": 5590,
      "ĠMain": 5591,
      "ĠTaliban": 5592,
      "Ġsides": 5593,
      "aria": 5594,
      "cons": 5595,
      "Ġrequirements": 5596,
      "AM": 5597,
      "Ġnotes": 5598,
      "Ġcognitive": 5599,
      "Ġalleged": 5600,
      "Ġsal": 5601,
      "Ġacquired": 5602,
      "Ġtact": 5603,
      "ĠSultan": 5604,
      "Ġfacilities": 5605,
      "Ġclean": 5606,
      "anda": 5607,
      "Ġscene": 5608,
      "Ġnomination": 5609,
      "Ġsole": 5610,
      "Ġdialects": 5611,
      "gender": 5612,
      "ĠTri": 5613,
      "Ġsovereign": 5614,
      "ĠLeg": 5615,
      "Ġcontaining": 5616,
      "Ġsales": 5617,
      "Ġrein": 5618,
      "ĠSqu": 5619,
      "Ġstra": 5620,
      "ĠLos": 5621,
      "Ġ90": 5622,
      "Ġenvironmental": 5623,
      "down": 5624,
      "Ġlibr": 5625,
      "Ġchair": 5626,
      "asters": 5627,
      "Ġcommit": 5628,
      "'ll": 5629,
      "ĠBest": 5630,
      "Ġpoly": 5631,
      "Ġexpert": 5632,
      "Ġeasy": 5633,
      "omy": 5634,
      "Ġ1920": 5635,
      "Ġiniti": 5636,
      "Ġspeedy": 5637,
      "Ġmunicip": 5638,
      "Ġproceed": 5639,
      "Ġtemper": 5640,
      "Ġrestrictions": 5641,
      "Ġfriends": 5642,
      "ĠEducation": 5643,
      "akers": 5644,
      "Ġsecret": 5645,
      "aur": 5646,
      "Ġregime": 5647,
      "Ġestablishment": 5648,
      "Ġcru": 5649,
      "Ġstrug": 5650,
      "Ġresistance": 5651,
      "Ġlogic": 5652,
      "ĠRadio": 5653,
      "oured": 5654,
      "Ġhardware": 5655,
      "ĠCambodia": 5656,
      "Ġprocessed": 5657,
      "Ġfactor": 5658,
      "Ġsurrounding": 5659,
      "ĠSar": 5660,
      "ĠFile": 5661,
      "Ġ500": 5662,
      "Ġexception": 5663,
      "Ġunion": 5664,
      "Ġsciences": 5665,
      "Ġdecade": 5666,
      "Ġ03": 5667,
      "ĠMusic": 5668,
      "Ġscientists": 5669,
      "Ġenjoy": 5670,
      "Ġmotion": 5671,
      "uilding": 5672,
      "01": 5673,
      "Ġeasier": 5674,
      "Ġsuppl": 5675,
      "FC": 5676,
      "ĠBet": 5677,
      "ĠNig": 5678,
      "Ġerrors": 5679,
      "Most": 5680,
      "intend": 5681,
      "ĠClub": 5682,
      "Ġobserved": 5683,
      "Ġsettlement": 5684,
      "log": 5685,
      "aly": 5686,
      "fix": 5687,
      "ĠFort": 5688,
      "ĠSega": 5689,
      "Ġstrength": 5690,
      "Ġmoment": 5691,
      "rep": 5692,
      "ĠDefence": 5693,
      "ATO": 5694,
      "bed": 5695,
      "ican": 5696,
      "Ġchart": 5697,
      "Ġreprodu": 5698,
      "sylv": 5699,
      "Ġhousehold": 5700,
      "Ġbrowser": 5701,
      "Ġrepresentation": 5702,
      "Ġchannel": 5703,
      "outheast": 5704,
      "Ġdisplayed": 5705,
      "Ġsenior": 5706,
      "cles": 5707,
      "Ġprotests": 5708,
      "Ġregistered": 5709,
      "Ġwelcome": 5710,
      "Ġrough": 5711,
      "OVID": 5712,
      "Ġdatabase": 5713,
      "Ġ#": 5714,
      "rehens": 5715,
      "Ġwikipedia": 5716,
      "arter": 5717,
      "Ġdefend": 5718,
      "uese": 5719,
      "Ġdistinction": 5720,
      "olute": 5721,
      "Ġassigned": 5722,
      "116": 5723,
      "Ġagricultural": 5724,
      "Ġheadquarters": 5725,
      "ĠMil": 5726,
      "standing": 5727,
      "Ġoccurs": 5728,
      "note": 5729,
      "uing": 5730,
      "Ġhypot": 5731,
      "bur": 5732,
      "Ind": 5733,
      "ĠArts": 5734,
      "ki": 5735,
      "Ġnotably": 5736,
      "Ġgovernor": 5737,
      "Ġentertain": 5738,
      "ackson": 5739,
      "Ġmanufacture": 5740,
      "ĠCricket": 5741,
      "Ġroom": 5742,
      "Ġdu": 5743,
      "ĠRo": 5744,
      "Ġwriters": 5745,
      "Ġexperiment": 5746,
      "ranean": 5747,
      "Ġsongs": 5748,
      "Ġinspired": 5749,
      "ĠHill": 5750,
      "display": 5751,
      "wing": 5752,
      "ĠMer": 5753,
      "102": 5754,
      "Ġwars": 5755,
      "Ġweight": 5756,
      "Ġteaching": 5757,
      "Ġmoral": 5758,
      "Ġvandalism": 5759,
      "ĠBook": 5760,
      "ĠVol": 5761,
      "ĠGuard": 5762,
      "Ġhands": 5763,
      "Ġgetting": 5764,
      "Ġfinally": 5765,
      "Ġstrongly": 5766,
      "Ġcandidate": 5767,
      "IA": 5768,
      "ED": 5769,
      "ET": 5770,
      "OC": 5771,
      "ayer": 5772,
      "Ġwebsites": 5773,
      "SA": 5774,
      "Ġhot": 5775,
      "Ġpeoples": 5776,
      "Ġinvolving": 5777,
      "gl": 5778,
      "uses": 5779,
      "ĠAh": 5780,
      "Ġfort": 5781,
      "Ġdeep": 5782,
      "ĠChief": 5783,
      "Ġrequests": 5784,
      "Ġpublishing": 5785,
      "ĠInf": 5786,
      "Ġcontained": 5787,
      "Ġenemy": 5788,
      "Ġreign": 5789,
      "sylvania": 5790,
      "ping": 5791,
      "Ġsust": 5792,
      "Ġintention": 5793,
      "Ġcausing": 5794,
      "Other": 5795,
      "ĠURL": 5796,
      "ĠIndepend": 5797,
      "isf": 5798,
      "Ġweak": 5799,
      "ĠBh": 5800,
      "104": 5801,
      "Ġpractical": 5802,
      "Ġtrend": 5803,
      "amm": 5804,
      "Ġhospital": 5805,
      "Ġunlike": 5806,
      "Ġgoals": 5807,
      "riptions": 5808,
      "Ġtechnologies": 5809,
      "Ġanswer": 5810,
      "stood": 5811,
      "\",[": 5812,
      "ĠHung": 5813,
      "Ġtraffic": 5814,
      "Ġeffectively": 5815,
      "Ġcircumst": 5816,
      "RC": 5817,
      "run": 5818,
      "Ġattend": 5819,
      "Ġfailure": 5820,
      "aks": 5821,
      "pir": 5822,
      "ville": 5823,
      "amic": 5824,
      "ĠLGBT": 5825,
      "Ġteac": 5826,
      "110": 5827,
      "hammad": 5828,
      "Ġdance": 5829,
      "Ġrang": 5830,
      "ĠJul": 5831,
      "iterranean": 5832,
      "set": 5833,
      "ancing": 5834,
      "ĠCOVID": 5835,
      "ĠHit": 5836,
      "ĠFire": 5837,
      "rastructure": 5838,
      "Ġstring": 5839,
      "oted": 5840,
      "puter": 5841,
      "Ġconstructed": 5842,
      "body": 5843,
      "care": 5844,
      "vest": 5845,
      "ounder": 5846,
      "Ġexisted": 5847,
      "Ġarguments": 5848,
      "ĠModern": 5849,
      "Ġreader": 5850,
      "Ġbenefit": 5851,
      "va": 5852,
      "ĠHan": 5853,
      "aka": 5854,
      "iability": 5855,
      ")[": 5856,
      "Ġdidn": 5857,
      "Ġperiods": 5858,
      "ĠNetherlands": 5859,
      "Ġaccomp": 5860,
      "gets": 5861,
      "Ġ1940": 5862,
      "Ġphysics": 5863,
      "Ġliterary": 5864,
      "hem": 5865,
      "Ġcoming": 5866,
      "ogue": 5867,
      "103": 5868,
      "DF": 5869,
      "orter": 5870,
      "ĠTemplate": 5871,
      "Ġmedium": 5872,
      "Ġresponsibility": 5873,
      "Ġtowns": 5874,
      "Ġconstitutional": 5875,
      "gu": 5876,
      "Ġimag": 5877,
      "Ġparticipation": 5878,
      "Ġrenamed": 5879,
      "za": 5880,
      "Ġobvious": 5881,
      "ĠCommunity": 5882,
      "Ġunf": 5883,
      "Ġdisag": 5884,
      "Ġlands": 5885,
      "ĠInc": 5886,
      "ounded": 5887,
      "ils": 5888,
      "ropolitan": 5889,
      "Ġpsychological": 5890,
      "Ġanimal": 5891,
      "la": 5892,
      "Ġtransition": 5893,
      "Ġhyd": 5894,
      "sub": 5895,
      "Ġovers": 5896,
      "ologist": 5897,
      "Ġearth": 5898,
      "Ġmembership": 5899,
      "Ġfashion": 5900,
      "Ġstrict": 5901,
      "Ġbrand": 5902,
      "Ġbenefits": 5903,
      "Ġmap": 5904,
      "112": 5905,
      "oric": 5906,
      "ĠFIDE": 5907,
      "ikiped": 5908,
      "Ġflow": 5909,
      "Ġsettled": 5910,
      "upp": 5911,
      "ulf": 5912,
      "ĠGaza": 5913,
      "108": 5914,
      "Ġqueen": 5915,
      "ĠOrganization": 5916,
      "adelph": 5917,
      "Ġstub": 5918,
      "Ġunc": 5919,
      "ĠOf": 5920,
      "dering": 5921,
      "111": 5922,
      "106": 5923,
      "Ġinterface": 5924,
      "Ġiron": 5925,
      "ĠPrince": 5926,
      "Ġcharacteristics": 5927,
      "zh": 5928,
      "ĠJes": 5929,
      "Ġ32": 5930,
      "Ġsupporting": 5931,
      "Ġpossess": 5932,
      "ikh": 5933,
      "Ġshape": 5934,
      "105": 5935,
      "ĠDevelopment": 5936,
      "Ġslaves": 5937,
      "Ġdang": 5938,
      "wealth": 5939,
      "Ġcivilians": 5940,
      "Ġcalc": 5941,
      "ĠKe": 5942,
      "ĠChristians": 5943,
      "aded": 5944,
      "Ġdiscrim": 5945,
      "ĠAsh": 5946,
      "Ġcosts": 5947,
      "Ġsummer": 5948,
      "Ġoffers": 5949,
      "Ġroll": 5950,
      "Ġstudio": 5951,
      "ato": 5952,
      "ĠGal": 5953,
      "Ġformally": 5954,
      "kes": 5955,
      "ĠPennsylvania": 5956,
      "game": 5957,
      "ĠOrthodox": 5958,
      "intendo": 5959,
      "ixt": 5960,
      "ĠList": 5961,
      "Ġchurches": 5962,
      "house": 5963,
      "Ġmatters": 5964,
      "Ġminutes": 5965,
      "ĠAbd": 5966,
      "oscow": 5967,
      "fare": 5968,
      "ĠLand": 5969,
      "ricts": 5970,
      "Ġspent": 5971,
      "sex": 5972,
      "ograp": 5973,
      "issions": 5974,
      "zil": 5975,
      "Ġmand": 5976,
      "Ġdark": 5977,
      "Ġillegal": 5978,
      "Le": 5979,
      "Ġtree": 5980,
      "Ġcry": 5981,
      "ĠAlger": 5982,
      "PA": 5983,
      "ĠCamp": 5984,
      "ĠPortuguese": 5985,
      "NG": 5986,
      "resents": 5987,
      "109": 5988,
      "ĠMediterranean": 5989,
      "eds": 5990,
      "rog": 5991,
      "Ġcommitted": 5992,
      "American": 5993,
      "IV": 5994,
      "ĠVen": 5995,
      "Ġarrived": 5996,
      "Ġshoot": 5997,
      "ificial": 5998,
      "Ġmanufacturing": 5999,
      "Ġcod": 6000,
      "Ġeveryone": 6001,
      "Ġemployees": 6002,
      "ador": 6003,
      "idency": 6004,
      "aped": 6005,
      "ĠStar": 6006,
      "107": 6007,
      "Ġ06": 6008,
      "Ġreact": 6009,
      "ĠOut": 6010,
      "Ġforest": 6011,
      "ĠByz": 6012,
      "ĠAngeles": 6013,
      "displaystyle": 6014,
      "CA": 6015,
      "Ġprofession": 6016,
      "Ġpal": 6017,
      "ĠPoland": 6018,
      "born": 6019,
      "ĠLu": 6020,
      "Ġaffil": 6021,
      "Ġtranslation": 6022,
      "Ġrevealed": 6023,
      "mod": 6024,
      "iling": 6025,
      "Ġmotiv": 6026,
      "Ġprinted": 6027,
      "rif": 6028,
      "inisters": 6029,
      "Ġchalleng": 6030,
      "PL": 6031,
      "vis": 6032,
      "Ġoutl": 6033,
      "123": 6034,
      "icense": 6035,
      "Ġcomponents": 6036,
      "ensity": 6037,
      "Ġtribes": 6038,
      "Ġple": 6039,
      "ĠUTC": 6040,
      "Another": 6041,
      "ĠMuhammad": 6042,
      "king": 6043,
      "ugh": 6044,
      "ros": 6045,
      "ĠJustice": 6046,
      "ĠMur": 6047,
      "ĠGh": 6048,
      "Ġholds": 6049,
      "Ġvotes": 6050,
      "ctors": 6051,
      "Ġargues": 6052,
      "ĠKhmer": 6053,
      "Ġultimately": 6054,
      "craft": 6055,
      "Ġdiverse": 6056,
      "ĠTim": 6057,
      "Ġsubstantial": 6058,
      "uated": 6059,
      "ĠInformation": 6060,
      "ĠKong": 6061,
      "Ġinstall": 6062,
      "Ġgreatest": 6063,
      "Ġliberal": 6064,
      "also": 6065,
      "ĠBre": 6066,
      "Ġclassified": 6067,
      "called": 6068,
      "Ġbanned": 6069,
      "Ġpros": 6070,
      "Ġseats": 6071,
      "Ġshall": 6072,
      "Ġuniversal": 6073,
      "Ġopportunity": 6074,
      "nce": 6075,
      "uties": 6076,
      "Ġpure": 6077,
      "ĠKn": 6078,
      "117": 6079,
      "Ġfacilit": 6080,
      "ĠMediaWiki": 6081,
      "rant": 6082,
      "ĠTai": 6083,
      "Ġsubsc": 6084,
      "Ġtreated": 6085,
      "Ġstone": 6086,
      "Ġrepresents": 6087,
      "ache": 6088,
      "Ġmagn": 6089,
      "alem": 6090,
      "Ġvoting": 6091,
      "Ġencouraged": 6092,
      "uous": 6093,
      "Ġburn": 6094,
      "ĠSaint": 6095,
      "Ġincorporated": 6096,
      "Ġextremely": 6097,
      "pet": 6098,
      "ighter": 6099,
      "Ġdrawn": 6100,
      "Ġdeaths": 6101,
      "02": 6102,
      "ĠOx": 6103,
      "Ġinfrastructure": 6104,
      "Ġtrain": 6105,
      "ĠHoly": 6106,
      "endar": 6107,
      "igade": 6108,
      "Ġcontribution": 6109,
      "ĠTor": 6110,
      "ĠMoscow": 6111,
      "Ġvillage": 6112,
      "organ": 6113,
      "Ġargue": 6114,
      "rency": 6115,
      "Ġmissing": 6116,
      "iy": 6117,
      "These": 6118,
      "Ġevolved": 6119,
      "Ġupdate": 6120,
      "ĠCast": 6121,
      "Ġcalls": 6122,
      "Ġisol": 6123,
      "Ġhundreds": 6124,
      "ambiguation": 6125,
      "ĠJackson": 6126,
      "Ġagencies": 6127,
      "07": 6128,
      "ĠICC": 6129,
      "etary": 6130,
      "ĠJeff": 6131,
      "Ġacknow": 6132,
      "CP": 6133,
      "Note": 6134,
      "ĠAtt": 6135,
      "ĠJer": 6136,
      "Ġhistorians": 6137,
      "Ġexpanding": 6138,
      "115": 6139,
      "Ġdrawing": 6140,
      "Ġarbit": 6141,
      "Ġenh": 6142,
      "Ġchallenge": 6143,
      "Ġprovinces": 6144,
      "Ġwild": 6145,
      "Ġoperated": 6146,
      "Ġdispl": 6147,
      "Ġdismiss": 6148,
      "Ġcivilian": 6149,
      "Ġdefeat": 6150,
      "Ġcells": 6151,
      "state": 6152,
      "Ġongoing": 6153,
      "Ġperceived": 6154,
      "Ġ04": 6155,
      "Ġnecessarily": 6156,
      "Ġfifth": 6157,
      "inem": 6158,
      "ĠCult": 6159,
      "ĠPhilipp": 6160,
      "ĠGall": 6161,
      "Ġbias": 6162,
      "inite": 6163,
      "Ġpra": 6164,
      "ĠCorpor": 6165,
      "Ġtypical": 6166,
      "113": 6167,
      "Ġconsiderable": 6168,
      "Ġsafety": 6169,
      "OR": 6170,
      "ĠAS": 6171,
      "ĠCD": 6172,
      "Ġstating": 6173,
      "Ġran": 6174,
      "Ġpunish": 6175,
      "Ġperfect": 6176,
      "ĠMalays": 6177,
      "Ġelsewhere": 6178,
      "Ġalgorithm": 6179,
      "Ġcircumstances": 6180,
      "ini": 6181,
      "aya": 6182,
      "ĠRu": 6183,
      "ossible": 6184,
      "Ġsuccessfully": 6185,
      "Ġpaintings": 6186,
      "Ġconscious": 6187,
      "TV": 6188,
      "Ġbishop": 6189,
      "Ġreceiving": 6190,
      "Ġalphabet": 6191,
      "ny": 6192,
      "Ġhier": 6193,
      "talion": 6194,
      "Ġrecommend": 6195,
      "bi": 6196,
      "Ġbud": 6197,
      "ĠDen": 6198,
      "Ġscholar": 6199,
      "User": 6200,
      "Ġsand": 6201,
      "ĠVis": 6202,
      "ĠNintendo": 6203,
      "Ġtransform": 6204,
      "Ġmissiles": 6205,
      "However": 6206,
      "bra": 6207,
      "arant": 6208,
      "ĠBab": 6209,
      "ĠRoad": 6210,
      "ĠAtari": 6211,
      "Ġvisited": 6212,
      "onia": 6213,
      "Ġtrial": 6214,
      "Ġeleph": 6215,
      "Ġpredomin": 6216,
      "Ġserves": 6217,
      "ĠAustria": 6218,
      "What": 6219,
      "nership": 6220,
      "ĠConst": 6221,
      "Ġaffairs": 6222,
      "Ġrapidly": 6223,
      "iph": 6224,
      "Ġsituations": 6225,
      "Ġprices": 6226,
      "win": 6227,
      "Ġlik": 6228,
      "ĠJava": 6229,
      "unk": 6230,
      "ĠEngine": 6231,
      "Ġdominated": 6232,
      "Ġexplanation": 6233,
      "ĠRaj": 6234,
      "Ġserving": 6235,
      "Ġmodified": 6236,
      "ĠManchester": 6237,
      "Ġagriculture": 6238,
      "Ġfirm": 6239,
      "ĠSeveral": 6240,
      "Ġfeedback": 6241,
      "Ġtal": 6242,
      "Ġmanaged": 6243,
      "Ġtags": 6244,
      "ĠAdminist": 6245,
      "iant": 6246,
      "Ġindigenous": 6247,
      "ds": 6248,
      "ĠGDP": 6249,
      "aph": 6250,
      "Ġattacked": 6251,
      "text": 6252,
      "Ġadvice": 6253,
      "zech": 6254,
      "Ġimmigrants": 6255,
      "Ġassumed": 6256,
      "ĠNATO": 6257,
      "Ġbutton": 6258,
      "Ġassociation": 6259,
      "118": 6260,
      "icking": 6261,
      "Ġbehaviour": 6262,
      "03": 6263,
      "Ġclin": 6264,
      "Ġoverl": 6265,
      "Ġglass": 6266,
      "Ġaware": 6267,
      "ĠDisc": 6268,
      "125": 6269,
      "Ġpreferred": 6270,
      "ĠInstead": 6271,
      "ĠCommonwealth": 6272,
      "Ġconcluded": 6273,
      "Ġconsult": 6274,
      "Ġadministrators": 6275,
      "114": 6276,
      "Ġreforms": 6277,
      "Ġpatterns": 6278,
      "Rel": 6279,
      "ĠAre": 6280,
      "Ġcrimes": 6281,
      "Ġmachines": 6282,
      "ĠNazi": 6283,
      "ĠJoseph": 6284,
      "Following": 6285,
      "itals": 6286,
      "Ġgar": 6287,
      "Ġscope": 6288,
      "Ġdesk": 6289,
      "Ġtechnique": 6290,
      "ĠMcC": 6291,
      "ĠPalestinian": 6292,
      "Ġreviews": 6293,
      "ĠFlor": 6294,
      "Ġgradually": 6295,
      "Ġarc": 6296,
      "ĠLeb": 6297,
      "Ġneither": 6298,
      "Ġclar": 6299,
      "):": 6300,
      "Ġbill": 6301,
      "Ġconsole": 6302,
      "amese": 6303,
      "Ġflu": 6304,
      "Ġpossibility": 6305,
      "Ġopponent": 6306,
      "Ġphotograph": 6307,
      "ĠProtestant": 6308,
      "inity": 6309,
      "Ġbra": 6310,
      "Ġspaces": 6311,
      "ĠWars": 6312,
      "Ġgoes": 6313,
      "Ġconsol": 6314,
      "scale": 6315,
      "inations": 6316,
      "Ġporn": 6317,
      "Ġnom": 6318,
      "ĠFederation": 6319,
      "Ġrequested": 6320,
      "Ġcommander": 6321,
      "adelphia": 6322,
      "ĠĠĊ": 6323,
      "aters": 6324,
      "ĠTime": 6325,
      "ribs": 6326,
      "Ġvisible": 6327,
      "Ġassistance": 6328,
      "Ġsilver": 6329,
      "ĠKenya": 6330,
      "Ġproof": 6331,
      "ellow": 6332,
      "ĠEth": 6333,
      "Ġunderstood": 6334,
      "ĠArist": 6335,
      "oria": 6336,
      "Ġload": 6337,
      "ocal": 6338,
      "Ġ1945": 6339,
      "Ġsuffered": 6340,
      "making": 6341,
      "roid": 6342,
      "Ġstress": 6343,
      "Ġexc": 6344,
      "Ġprepar": 6345,
      "Ġsocieties": 6346,
      "Ġexplo": 6347,
      "Ġlooks": 6348,
      "Ġinterpre": 6349,
      "Ġshell": 6350,
      "Ġabsolute": 6351,
      "ĠGood": 6352,
      "Ġath": 6353,
      "abinet": 6354,
      "Ġcritics": 6355,
      "Ġcart": 6356,
      "Ġwick": 6357,
      "istical": 6358,
      "Ġinvestment": 6359,
      "Ġengaged": 6360,
      "Ġoptions": 6361,
      "\"),": 6362,
      "ER": 6363,
      "Ġunknown": 6364,
      "Ġdistance": 6365,
      "Ġoperate": 6366,
      "ione": 6367,
      "Ġdefence": 6368,
      "enaissance": 6369,
      "Ġkings": 6370,
      "othing": 6371,
      "Ġcapable": 6372,
      "Ġwithdraw": 6373,
      "ĠUp": 6374,
      "illery": 6375,
      "124": 6376,
      "Ġlocations": 6377,
      "Ġtraditionally": 6378,
      "130": 6379,
      "ĠBrazil": 6380,
      "Ġlibraries": 6381,
      "hire": 6382,
      "Ġdistricts": 6383,
      "Ġterror": 6384,
      "ĠAmong": 6385,
      "ĠHamas": 6386,
      "rone": 6387,
      "ĠValley": 6388,
      "SF": 6389,
      "but": 6390,
      "Cont": 6391,
      "Ġhistorian": 6392,
      "ii": 6393,
      "utation": 6394,
      "Ġdiscip": 6395,
      "ĠHitler": 6396,
      "ĠChic": 6397,
      "Ġhttp": 6398,
      "Ġprincipal": 6399,
      "Sc": 6400,
      "ivery": 6401,
      "ĠPsych": 6402,
      "Ġfoundation": 6403,
      "Ġdetailed": 6404,
      "ĠTurkey": 6405,
      "Ġtesting": 6406,
      "Ġacceptable": 6407,
      "Ġparliamentary": 6408,
      "ĠAdditionally": 6409,
      "06": 6410,
      "ersey": 6411,
      "ĠProgram": 6412,
      "Ġastron": 6413,
      "Ġfaced": 6414,
      "Ġagency": 6415,
      "ĠConvention": 6416,
      "ĠCarol": 6417,
      "Ġox": 6418,
      "ules": 6419,
      "ipped": 6420,
      "Ġslightly": 6421,
      "Bot": 6422,
      "ĠHa": 6423,
      "room": 6424,
      "Ġvon": 6425,
      "Ġvice": 6426,
      "Ġnoticed": 6427,
      "ĠBosnia": 6428,
      "lor": 6429,
      "oslav": 6430,
      "Ġrecru": 6431,
      "122": 6432,
      "Ġnewspapers": 6433,
      "Ġperspective": 6434,
      "Ġexplained": 6435,
      "ishes": 6436,
      "ĠHun": 6437,
      "ĠRob": 6438,
      "Ġlegit": 6439,
      "Ġconsistent": 6440,
      "Ġuploaded": 6441,
      "speaking": 6442,
      "Ġabstract": 6443,
      "OM": 6444,
      "sen": 6445,
      "Ġhall": 6446,
      "Ġapproaches": 6447,
      "Ġcopies": 6448,
      "Ġhistoric": 6449,
      "Ġadministrator": 6450,
      "agan": 6451,
      "agraph": 6452,
      "Ġphase": 6453,
      "ometimes": 6454,
      "Ġ1975": 6455,
      "achel": 6456,
      "Ġcalling": 6457,
      "Ġmarkets": 6458,
      "Che": 6459,
      "ĠFe": 6460,
      "ĠFried": 6461,
      "osm": 6462,
      "ĠCzech": 6463,
      "ĠRh": 6464,
      "Ġremoving": 6465,
      "bal": 6466,
      "ati": 6467,
      "Ġsail": 6468,
      "Ġfought": 6469,
      "Ġdepartment": 6470,
      "Ġarchae": 6471,
      "Ġhousing": 6472,
      "ĠPacific": 6473,
      "Ġpand": 6474,
      "ĠFace": 6475,
      "ums": 6476,
      "oston": 6477,
      "Ġeverything": 6478,
      "osis": 6479,
      "Ġpatients": 6480,
      "Ġconsisting": 6481,
      "ĠEmperor": 6482,
      "osh": 6483,
      "Ġdisrupt": 6484,
      "apse": 6485,
      "Ġacting": 6486,
      "Ġposted": 6487,
      "Ġphilosophical": 6488,
      "04": 6489,
      "Ġfinding": 6490,
      "wer": 6491,
      "Ġnaval": 6492,
      "Ġcomplic": 6493,
      "ultane": 6494,
      "Ġtitled": 6495,
      "ĠSpace": 6496,
      "Ġaddresses": 6497,
      "119": 6498,
      "Ġdefine": 6499,
      "Ġ05": 6500,
      "PP": 6501,
      "alog": 6502,
      "ĠCyp": 6503,
      "uther": 6504,
      "Ġproved": 6505,
      "ĠChild": 6506,
      "Ġruling": 6507,
      "Ġmerch": 6508,
      "Ġnumer": 6509,
      "121": 6510,
      "phan": 6511,
      "ranch": 6512,
      "party": 6513,
      "iency": 6514,
      "burgh": 6515,
      "ses": 6516,
      "ĠSol": 6517,
      "ĠRenaissance": 6518,
      "ĠBCE": 6519,
      "opyright": 6520,
      "Ġyouth": 6521,
      "avery": 6522,
      "rary": 6523,
      "Ġoffices": 6524,
      "Ġgeomet": 6525,
      "Ġsell": 6526,
      "ĠHong": 6527,
      "ette": 6528,
      "ĠMexico": 6529,
      "ĠEp": 6530,
      "Ġgenerated": 6531,
      "Ġinfantry": 6532,
      "Ġdemocratic": 6533,
      "Ġjudg": 6534,
      "ĠSimilar": 6535,
      "uscript": 6536,
      "ĠWay": 6537,
      "ĠKy": 6538,
      "ounds": 6539,
      "Ġcrop": 6540,
      "ĠVer": 6541,
      "Ġpoetry": 6542,
      "ĠAges": 6543,
      "ĠCode": 6544,
      "Ġ09": 6545,
      "Ġsteps": 6546,
      "Ġleads": 6547,
      "Ġwarfare": 6548,
      "Ġinterpretation": 6549,
      "Ġvoice": 6550,
      "Ġwid": 6551,
      "lets": 6552,
      "Ġshif": 6553,
      "Ġdoctr": 6554,
      "ĠMilitary": 6555,
      "Ġslave": 6556,
      "Ġnamespace": 6557,
      "\").": 6558,
      "%,": 6559,
      "Ġfolk": 6560,
      "Ġpeer": 6561,
      "Ġinfobox": 6562,
      "ĠPhiladelphia": 6563,
      "Ġnone": 6564,
      "ĠCy": 6565,
      "ĠOS": 6566,
      "Ġcomprehens": 6567,
      "ĠStat": 6568,
      "127": 6569,
      "Ġwriter": 6570,
      "ĠEgyptian": 6571,
      "Ġpenal": 6572,
      "Ġuniform": 6573,
      "Ġrot": 6574,
      "PS": 6575,
      "ĠPun": 6576,
      "ĠWikiped": 6577,
      "Ġpublications": 6578,
      "Ġprinting": 6579,
      "ĠStandard": 6580,
      "ĠKas": 6581,
      "Ġportion": 6582,
      "while": 6583,
      "ĠOlympic": 6584,
      "apore": 6585,
      "Ġintegrated": 6586,
      "Ġrepresenting": 6587,
      "Ġgenetic": 6588,
      "Ġinvestigation": 6589,
      "Ġ300": 6590,
      "Ġtwice": 6591,
      "Ġconsumer": 6592,
      "ĠHawai": 6593,
      "ĠJournal": 6594,
      "ĠIslands": 6595,
      "theless": 6596,
      "orrect": 6597,
      "under": 6598,
      "Ġexactly": 6599,
      "Ġcouple": 6600,
      "language": 6601,
      "mosp": 6602,
      "ugoslav": 6603,
      "ĠFestival": 6604,
      "Ġmode": 6605,
      "Ġ1979": 6606,
      "Ġsafe": 6607,
      "Ġbridge": 6608,
      "enses": 6609,
      "Ġdropped": 6610,
      "ĠAtlantic": 6611,
      "ĠChicago": 6612,
      "Ġrecording": 6613,
      "Ġdeleg": 6614,
      "ested": 6615,
      "Ġhappened": 6616,
      "Ġnarrow": 6617,
      "Ġsequence": 6618,
      "ĠBuddhist": 6619,
      "Ġcamera": 6620,
      "Ġtaught": 6621,
      "umber": 6622,
      "And": 6623,
      "ĠCroatia": 6624,
      "Ġonto": 6625,
      "Ġexperiences": 6626,
      "Ġhonor": 6627,
      "Not": 6628,
      "Ġconsent": 6629,
      "Ġopposite": 6630,
      "ĠMugh": 6631,
      "pan": 6632,
      "ĠUr": 6633,
      "phone": 6634,
      "Ġbranches": 6635,
      "ĠPage": 6636,
      "dule": 6637,
      "Ġrow": 6638,
      "Ġdecide": 6639,
      "chang": 6640,
      "istry": 6641,
      "uled": 6642,
      "128": 6643,
      "Ġstatistics": 6644,
      "Ġdesigns": 6645,
      "lem": 6646,
      "Ġcolors": 6647,
      "126": 6648,
      "Ġspecified": 6649,
      "Ġcharacterized": 6650,
      "Ġremoval": 6651,
      "iveness": 6652,
      "Ġvictims": 6653,
      "Ġhierarch": 6654,
      "Ġconverted": 6655,
      "ĠMoh": 6656,
      "Ġstreet": 6657,
      "ĠThough": 6658,
      "Ġprompt": 6659,
      "Ġholding": 6660,
      "ĠEarly": 6661,
      "ja": 6662,
      "enh": 6663,
      "ĠTex": 6664,
      "Ġalleg": 6665,
      "Ġcontroversy": 6666,
      "Ġinhabit": 6667,
      "08": 6668,
      "Ġkid": 6669,
      "129": 6670,
      "Ġfacts": 6671,
      "Ġemphasis": 6672,
      "Ġchampionship": 6673,
      "orship": 6674,
      "Ġpatent": 6675,
      "Ġaimed": 6676,
      "icks": 6677,
      "ĠSund": 6678,
      "ĠEr": 6679,
      "tenance": 6680,
      "Ġdevelopers": 6681,
      "Ġpermission": 6682,
      "Ġadvertising": 6683,
      "Ġtables": 6684,
      "Ġsuitable": 6685,
      "Ġjustice": 6686,
      "Ġcorresponding": 6687,
      "Ġsucceeded": 6688,
      "Ġimpossible": 6689,
      "ĠOxford": 6690,
      "ĠRock": 6691,
      "ĠLib": 6692,
      "Ġcontents": 6693,
      "Ġdiscour": 6694,
      "Ġinfluences": 6695,
      "ĠPolice": 6696,
      "ĠEc": 6697,
      "Ġartistic": 6698,
      "Ġasser": 6699,
      "Ġ1971": 6700,
      "ĠCoast": 6701,
      "jan": 6702,
      "onian": 6703,
      "Ġ35": 6704,
      "Ġhistorically": 6705,
      "Ġrecommended": 6706,
      "Ġattributed": 6707,
      "Ġspiritual": 6708,
      "Ġguarant": 6709,
      "Ġbroken": 6710,
      "Ġdelay": 6711,
      "Ġgenre": 6712,
      "Ġepisode": 6713,
      "ĠLeban": 6714,
      "ko": 6715,
      "Ġinser": 6716,
      "update": 6717,
      "Ġtreaty": 6718,
      "Ġpandemic": 6719,
      "Ġapproval": 6720,
      "Ġstrategic": 6721,
      "ĠFlorida": 6722,
      "nes": 6723,
      "ĠBoston": 6724,
      "ĠGar": 6725,
      "ĠDr": 6726,
      "Ġattended": 6727,
      "Ġtournaments": 6728,
      "Ġmerely": 6729,
      "ĠTaiwan": 6730,
      "ĠBah": 6731,
      "09": 6732,
      "Ġfounding": 6733,
      "Ġpublicly": 6734,
      "Ġdesignated": 6735,
      "Ġrestricted": 6736,
      "AD": 6737,
      "icism": 6738,
      "Ġmort": 6739,
      "Ġexport": 6740,
      "Ġ1985": 6741,
      "OT": 6742,
      "Ġimpl": 6743,
      "Ġelapsed": 6744,
      "Ġinclusion": 6745,
      "ĠYugoslav": 6746,
      "Ġconcerning": 6747,
      "Ġparticipated": 6748,
      "Ġenable": 6749,
      "Ġbroke": 6750,
      "Ġaccurate": 6751,
      "Ġprecise": 6752,
      "des": 6753,
      "igious": 6754,
      "ĠThree": 6755,
      "Ġrelation": 6756,
      "Ġobtained": 6757,
      "Ġneighborhood": 6758,
      "De": 6759,
      "ĠAwards": 6760,
      "Ġbiological": 6761,
      "Ġconservative": 6762,
      "ether": 6763,
      "Ġrich": 6764,
      "Ġsupposed": 6765,
      "herent": 6766,
      "Ġhelpful": 6767,
      "ĠFI": 6768,
      "access": 6769,
      "rics": 6770,
      "ĠProf": 6771,
      "Ġ1972": 6772,
      "Ġdelivery": 6773,
      "Ġvoted": 6774,
      "Ġranks": 6775,
      "Ġclassification": 6776,
      "Ġindicated": 6777,
      "ĠDemocrat": 6778,
      "ĠTurkish": 6779,
      "05": 6780,
      "Ġinsc": 6781,
      "Ġcarbon": 6782,
      "Ġmerged": 6783,
      "Ġsend": 6784,
      "ĠGermans": 6785,
      "avalry": 6786,
      "Ġdistributed": 6787,
      "unc": 6788,
      "Ġfeat": 6789,
      "Ġmanuscript": 6790,
      "Ġparagraph": 6791,
      "ĠSyria": 6792,
      "Ġexposure": 6793,
      "Ġcalendar": 6794,
      "Ġroute": 6795,
      "ĠCorporation": 6796,
      "Ġending": 6797,
      "NS": 6798,
      "Ġsymbols": 6799,
      "Ġhab": 6800,
      "ĠMaster": 6801,
      "Ġartificial": 6802,
      "Ġsimultane": 6803,
      "Ġorientation": 6804,
      "ĠMill": 6805,
      "idential": 6806,
      "Ġapart": 6807,
      "Ġoccupation": 6808,
      "Ġsomewhat": 6809,
      "Ġtherapy": 6810,
      "urance": 6811,
      "Ġaccord": 6812,
      "roll": 6813,
      "Ġextension": 6814,
      "Ġnearby": 6815,
      "Ġcolleges": 6816,
      "Ġconflicts": 6817,
      "ĠKorean": 6818,
      "Ġminimum": 6819,
      "Ġuniverse": 6820,
      "Ġwinner": 6821,
      "Ġbudget": 6822,
      "Ġdaughter": 6823,
      "Ġproducing": 6824,
      "Ġmonitor": 6825,
      "Ġmassive": 6826,
      "Ġexercise": 6827,
      "itual": 6828,
      "ĠEnter": 6829,
      "131": 6830,
      "Ġexplos": 6831,
      "Ġimplementation": 6832,
      "Ġislands": 6833,
      "Ġsched": 6834,
      "Ġmovie": 6835,
      "ĠVirginia": 6836,
      "134": 6837,
      "orage": 6838,
      "ĠRf": 6839,
      "Ġvess": 6840,
      "Ġguide": 6841,
      "Ġmunicipal": 6842,
      "itative": 6843,
      "amin": 6844,
      "uten": 6845,
      "agon": 6846,
      "nex": 6847,
      "bury": 6848,
      "ĠAP": 6849,
      "ĠSony": 6850,
      "Ġroughly": 6851,
      "ĠSil": 6852,
      "ĠVar": 6853,
      "Ġassault": 6854,
      "irds": 6855,
      "Ġrenew": 6856,
      "Ġretained": 6857,
      "bai": 6858,
      "lyn": 6859,
      "Ġowner": 6860,
      "def": 6861,
      "Ġax": 6862,
      "iti": 6863,
      "itness": 6864,
      "Ġpil": 6865,
      "Ġthorough": 6866,
      "Ġdivisions": 6867,
      "Ġutil": 6868,
      "ads": 6869,
      "Ġmole": 6870,
      "Ġcenters": 6871,
      "Ġentit": 6872,
      "ĠTherefore": 6873,
      "Ġinstruments": 6874,
      "Ġpeak": 6875,
      "Ġ1988": 6876,
      "Ġsatisf": 6877,
      "Ġjobs": 6878,
      "ali": 6879,
      "ĠNorm": 6880,
      "ĠAbb": 6881,
      "Ġsolid": 6882,
      "Ġcoalition": 6883,
      "bro": 6884,
      "Ġx": 6885,
      "ĠBru": 6886,
      "ĠAristot": 6887,
      "ĠUnivers": 6888,
      "Ġsuccessor": 6889,
      "Ġpair": 6890,
      "ĠWell": 6891,
      "Ġslavery": 6892,
      "Ġarchive": 6893,
      "Bl": 6894,
      "uer": 6895,
      "ĠBus": 6896,
      "ĠSingapore": 6897,
      "Ġhuge": 6898,
      "Ġincident": 6899,
      "obe": 6900,
      "Ġfinished": 6901,
      "Ġorders": 6902,
      "ĠByzantine": 6903,
      "ĠCr": 6904,
      "Ġperforming": 6905,
      "Ġcondem": 6906,
      "ournals": 6907,
      "Ġcasual": 6908,
      "eless": 6909,
      "ivered": 6910,
      "Ġagents": 6911,
      "https": 6912,
      "Ġrarely": 6913,
      "Ġarrested": 6914,
      "Ġsup": 6915,
      "ortion": 6916,
      "Ġimperial": 6917,
      "133": 6918,
      "etwork": 6919,
      "ĠGovernor": 6920,
      "Ġregularly": 6921,
      "CS": 6922,
      "Ġdrop": 6923,
      "ĠMes": 6924,
      "Ġengage": 6925,
      "Ġfavour": 6926,
      "ĠFacebook": 6927,
      "Ġstock": 6928,
      "ĠPope": 6929,
      "inton": 6930,
      "ĠForm": 6931,
      "Ġclient": 6932,
      "150": 6933,
      "Ġengines": 6934,
      "Ġfamiliar": 6935,
      "Ġvehicle": 6936,
      "ĠTwitter": 6937,
      "ĠTexas": 6938,
      "kins": 6939,
      "tar": 6940,
      "Ġspeaking": 6941,
      "Ġwilling": 6942,
      "Ġvarieties": 6943,
      "Ġcampus": 6944,
      "ĠSlov": 6945,
      "Ġphrase": 6946,
      "Ġframework": 6947,
      "mas": 6948,
      "ĠHy": 6949,
      "Ġrook": 6950,
      "ĠPlan": 6951,
      "ĠPolit": 6952,
      "Ġadjust": 6953,
      "rons": 6954,
      "Ġbann": 6955,
      "Ġentries": 6956,
      "Ġdiffer": 6957,
      "Ġreplacement": 6958,
      "Paul": 6959,
      "Ġmail": 6960,
      "Ġkilling": 6961,
      "endment": 6962,
      "phy": 6963,
      "zerbai": 6964,
      "ĠCub": 6965,
      "Ġoblig": 6966,
      "ĠPruss": 6967,
      "Ġsuspect": 6968,
      "Ġpuzz": 6969,
      "Ġcomponent": 6970,
      "132": 6971,
      "136": 6972,
      "Ġ1982": 6973,
      "Ġwider": 6974,
      "ĠSoutheast": 6975,
      "izations": 6976,
      "Ġempt": 6977,
      "Ġprogramme": 6978,
      "Ġtrading": 6979,
      "BA": 6980,
      "link": 6981,
      "ĠFour": 6982,
      "ictionary": 6983,
      "ĠGlobal": 6984,
      "Ġefficient": 6985,
      "ova": 6986,
      "Ġlearned": 6987,
      "reement": 6988,
      "ĠBell": 6989,
      "Ġshift": 6990,
      "obby": 6991,
      "Ġmainstream": 6992,
      "www": 6993,
      "Ġmal": 6994,
      "Ġstim": 6995,
      "ĠIndust": 6996,
      "Ġ08": 6997,
      "Ġ1983": 6998,
      "matic": 6999,
      "Ġimproving": 7000,
      "Ġcollaboration": 7001,
      "ela": 7002,
      "Ġblocks": 7003,
      "Ġappeal": 7004,
      "ĠPolish": 7005,
      "Ġaudio": 7006,
      "onymous": 7007,
      "Non": 7008,
      "ĠTom": 7009,
      "Ġboy": 7010,
      "Ġrevol": 7011,
      "Ġindustries": 7012,
      "ĠAndrew": 7013,
      "Ġstraight": 7014,
      "PR": 7015,
      "Ġang": 7016,
      "ĠWork": 7017,
      "Ġimplic": 7018,
      "do": 7019,
      "jab": 7020,
      "ĠJim": 7021,
      "Ġ07": 7022,
      "Ġ1986": 7023,
      "ĠCentre": 7024,
      "Ġvariant": 7025,
      "Ġdiagn": 7026,
      "138": 7027,
      "Ġentertainment": 7028,
      "ication": 7029,
      "clude": 7030,
      "aug": 7031,
      "Ġconference": 7032,
      "ĠHere": 7033,
      "Ġatmosp": 7034,
      "Ġ64": 7035,
      "Ġswitch": 7036,
      "Ġpotentially": 7037,
      "Ġgraphics": 7038,
      "orrow": 7039,
      "ĠReport": 7040,
      "Ġbrows": 7041,
      "gent": 7042,
      "Ġtheatre": 7043,
      "ĠLife": 7044,
      "active": 7045,
      "Ġdetect": 7046,
      "space": 7047,
      "Ġpictures": 7048,
      "Ġtransferred": 7049,
      "See": 7050,
      "igg": 7051,
      "Ġoverse": 7052,
      "ĠCommunist": 7053,
      "Eng": 7054,
      "anian": 7055,
      "illing": 7056,
      "Ġsupports": 7057,
      "pring": 7058,
      "parov": 7059,
      "ĠColumb": 7060,
      "appe": 7061,
      "ften": 7062,
      "Ġ1974": 7063,
      "Ġconstitu": 7064,
      "Ġbegun": 7065,
      "icide": 7066,
      "ĠWood": 7067,
      "Ġmaintenance": 7068,
      "135": 7069,
      "Ġvirtual": 7070,
      "Ġvir": 7071,
      "Ġpartnership": 7072,
      "Ġsym": 7073,
      "137": 7074,
      "certain": 7075,
      "Ġdefinitions": 7076,
      "Ġvariants": 7077,
      "iop": 7078,
      "Ġreaction": 7079,
      "Ġ1984": 7080,
      "Ġconsisted": 7081,
      "Ġcalcul": 7082,
      "ctive": 7083,
      "urally": 7084,
      "Ġspecialized": 7085,
      "pur": 7086,
      "ĠMove": 7087,
      "prise": 7088,
      "Ġintervention": 7089,
      "Ġhappen": 7090,
      "Ġtwenty": 7091,
      "ulner": 7092,
      "ĠPress": 7093,
      "rome": 7094,
      "ĠHas": 7095,
      "Ġassign": 7096,
      "Ġstanding": 7097,
      "Ġpurs": 7098,
      "Ġnut": 7099,
      "Ġbeaut": 7100,
      "Ġgall": 7101,
      "Ġlegislative": 7102,
      "iny": 7103,
      "itting": 7104,
      "Ġbug": 7105,
      "ĠPop": 7106,
      "Ps": 7107,
      "ĠAli": 7108,
      "}},": 7109,
      "Ġlimits": 7110,
      "asi": 7111,
      "isting": 7112,
      "umes": 7113,
      "pport": 7114,
      "Ġcomposition": 7115,
      "140": 7116,
      "Ġhighlight": 7117,
      "Ġrepresentatives": 7118,
      "Com": 7119,
      "cient": 7120,
      "ĠMajor": 7121,
      "seud": 7122,
      "ĠDu": 7123,
      "Ġchampion": 7124,
      "Ġinvited": 7125,
      "Ġ1973": 7126,
      "Ġmaximum": 7127,
      "MD": 7128,
      "ĠAnn": 7129,
      "Ġdecor": 7130,
      "Ġdrive": 7131,
      "Ġbalance": 7132,
      "eline": 7133,
      "emed": 7134,
      "ĠDou": 7135,
      "Ġ1969": 7136,
      "Ġgrounds": 7137,
      "Ġdiscipline": 7138,
      "ĠArmed": 7139,
      "Ġhus": 7140,
      "Ġteach": 7141,
      "Ġreputation": 7142,
      "Ġdestruction": 7143,
      "ĠToday": 7144,
      "Ġexperts": 7145,
      "Ġ1968": 7146,
      "zero": 7147,
      "Ġseeking": 7148,
      "ĠBible": 7149,
      "Ġuns": 7150,
      "Ġpartner": 7151,
      "dered": 7152,
      "hist": 7153,
      "person": 7154,
      "Ġ1978": 7155,
      "Ġconven": 7156,
      "Ġinvented": 7157,
      "llor": 7158,
      "Ġrestored": 7159,
      "apping": 7160,
      "Ġfemin": 7161,
      "spec": 7162,
      "Ġdiscrimination": 7163,
      "Ġinhabitants": 7164,
      "han": 7165,
      "mail": 7166,
      "ĠMen": 7167,
      "Ġemergency": 7168,
      "ĠSquare": 7169,
      "Ġstore": 7170,
      "resh": 7171,
      "141": 7172,
      "Ġorganis": 7173,
      "struct": 7174,
      "abs": 7175,
      "Ġcovers": 7176,
      "Ġsecular": 7177,
      "ĠExp": 7178,
      "US": 7179,
      "oln": 7180,
      "Ġdesire": 7181,
      "Ġoffering": 7182,
      "Ġassass": 7183,
      "Ġwave": 7184,
      "Ġreverted": 7185,
      "Ġskin": 7186,
      "Ġsubsid": 7187,
      "Ġdeployed": 7188,
      "Ġtheoretical": 7189,
      "Ġenforcement": 7190,
      "employ": 7191,
      "ĠJersey": 7192,
      "Ġparalle": 7193,
      "Ġcrew": 7194,
      "Ġimmediate": 7195,
      "urrently": 7196,
      "Ġitem": 7197,
      "Ġundert": 7198,
      "Ġsigns": 7199,
      "bot": 7200,
      "non": 7201,
      "hered": 7202,
      "angel": 7203,
      "Ġ45": 7204,
      "ronze": 7205,
      "ĠGrant": 7206,
      "ĠTown": 7207,
      "ĠNon": 7208,
      "Ġradical": 7209,
      "Ġdocumentation": 7210,
      "Ġapplies": 7211,
      "Ġles": 7212,
      "ader": 7213,
      "Ġstages": 7214,
      "emen": 7215,
      "ĠVietnamese": 7216,
      "Ġabandoned": 7217,
      "Ġsun": 7218,
      "Ġpus": 7219,
      "Ġrepresentative": 7220,
      "Ġquantum": 7221,
      "ĠTechnology": 7222,
      "long": 7223,
      "ĠTre": 7224,
      "Ġseat": 7225,
      "139": 7226,
      "Ġ1987": 7227,
      "Ġregardless": 7228,
      "Ġprobability": 7229,
      "ĠAgency": 7230,
      "Ġborders": 7231,
      "Ġneuro": 7232,
      "ĠTeam": 7233,
      "ĠAuthor": 7234,
      "Ġexplicitly": 7235,
      "TA": 7236,
      "ĠFront": 7237,
      "Ġdepends": 7238,
      "Ġseparated": 7239,
      "Ġcomplexity": 7240,
      "Ġinher": 7241,
      "rav": 7242,
      "Ġdelete": 7243,
      "Ġplatforms": 7244,
      "Ġpark": 7245,
      "ĠAzerbai": 7246,
      "ĠSri": 7247,
      "Ġoriginated": 7248,
      "Ġacknowled": 7249,
      "ĠLong": 7250,
      "ĠDelhi": 7251,
      "ĠFair": 7252,
      "Ġshut": 7253,
      "Ġeconomics": 7254,
      "Ġreferend": 7255,
      "Ġmales": 7256,
      "Ġdiagram": 7257,
      "TP": 7258,
      "har": 7259,
      "ni": 7260,
      "Ġlandsc": 7261,
      "Ġhosts": 7262,
      "fficial": 7263,
      "Ġmurder": 7264,
      "Ġstorage": 7265,
      "ĠForeign": 7266,
      "Ġfiction": 7267,
      "Ġjournals": 7268,
      "ĠOnly": 7269,
      "Ġopinions": 7270,
      "Ġfuel": 7271,
      "Ġthir": 7272,
      "lywood": 7273,
      "Ġritual": 7274,
      "Ġtrained": 7275,
      "Ġobjective": 7276,
      "ĠBengali": 7277,
      "Ġvariations": 7278,
      "ĠFurthermore": 7279,
      "ao": 7280,
      "gov": 7281,
      "icy": 7282,
      "ĠTheatre": 7283,
      "ĠLar": 7284,
      "Ġquarter": 7285,
      "ĠArticles": 7286,
      "ĠDev": 7287,
      "144": 7288,
      "Ġ1948": 7289,
      "ĠSweden": 7290,
      "Ġfeaturing": 7291,
      "Se": 7292,
      "Ġhyper": 7293,
      "Des": 7294,
      "Go": 7295,
      "Ġaggress": 7296,
      "Ġoccas": 7297,
      "Ġpercentage": 7298,
      "ĠBelg": 7299,
      "erry": 7300,
      "142": 7301,
      "Talk": 7302,
      "ĠBig": 7303,
      "Ġprefix": 7304,
      "bat": 7305,
      "ĠHeb": 7306,
      "govern": 7307,
      "rance": 7308,
      "ero": 7309,
      "Ġsn": 7310,
      "elve": 7311,
      "Ġvariation": 7312,
      "Ġproperly": 7313,
      "Ġasking": 7314,
      "Ġvolume": 7315,
      "Ġdisputes": 7316,
      "iology": 7317,
      "Ġbusinesses": 7318,
      "So": 7319,
      "Ġcrow": 7320,
      "Ġconc": 7321,
      "Ġpartly": 7322,
      "ĠStep": 7323,
      "Ġtheme": 7324,
      "Ġrulers": 7325,
      "Ġrecognize": 7326,
      "Ġrival": 7327,
      "Ġcycle": 7328,
      "My": 7329,
      "Us": 7330,
      "ĠRace": 7331,
      "Ġwalk": 7332,
      "Ġmanip": 7333,
      "Ġdeliber": 7334,
      "Ġpromotion": 7335,
      "met": 7336,
      "Ġdisambiguation": 7337,
      "arer": 7338,
      "Ġoffensive": 7339,
      "Ġtraff": 7340,
      "Ġ1976": 7341,
      "ĠCarth": 7342,
      "Ġrailway": 7343,
      "Ġaddressed": 7344,
      "ĠBuddhism": 7345,
      "Ġentitled": 7346,
      "Ġrevers": 7347,
      "Ġstre": 7348,
      "Ġenabled": 7349,
      "Ġportray": 7350,
      "ĠĠĠĠĠĠĠĠ": 7351,
      "Con": 7352,
      "Ġannex": 7353,
      "ĠRem": 7354,
      "incoln": 7355,
      "Ġfewer": 7356,
      "Ġaccompan": 7357,
      "enues": 7358,
      "istent": 7359,
      "Ġsevent": 7360,
      "ĠGermanic": 7361,
      "Ġpermitted": 7362,
      "Ġdenied": 7363,
      "ĠIndonesia": 7364,
      "town": 7365,
      "abeth": 7366,
      "149": 7367,
      "Ġyourself": 7368,
      "Ġexperimental": 7369,
      "inals": 7370,
      "Ġcars": 7371,
      "pping": 7372,
      "Ġinteraction": 7373,
      "Ġincreases": 7374,
      "ĠExamples": 7375,
      "Ġautomated": 7376,
      "ĠCorps": 7377,
      "Ġvillages": 7378,
      "Ġprox": 7379,
      "Ġracial": 7380,
      "water": 7381,
      "Ġsav": 7382,
      "Ġaccom": 7383,
      "azz": 7384,
      "ĠRecords": 7385,
      "Ġpronoun": 7386,
      "ns": 7387,
      "148": 7388,
      "compass": 7389,
      "Ġtests": 7390,
      "Ġreasoning": 7391,
      "Ġdebut": 7392,
      "Ġsettings": 7393,
      "ĠDue": 7394,
      "Ġinvolvement": 7395,
      "etition": 7396,
      "ĠDun": 7397,
      "146": 7398,
      "Ġtemporary": 7399,
      "Ġdiplomatic": 7400,
      "Can": 7401,
      "gn": 7402,
      "agn": 7403,
      "Ġenact": 7404,
      "Ġrelief": 7405,
      "Ġcreative": 7406,
      "Ġorganisation": 7407,
      "ĠGeorgia": 7408,
      "Ġcert": 7409,
      "Ġadvis": 7410,
      "ĠJohnson": 7411,
      "Arch": 7412,
      "Ġimmigration": 7413,
      "Ġestablishing": 7414,
      "hand": 7415,
      "produ": 7416,
      "eral": 7417,
      "Ġconver": 7418,
      "Ġartillery": 7419,
      "Ġdelivered": 7420,
      "Ġapplicable": 7421,
      "ĠSlav": 7422,
      "ĠFilm": 7423,
      "Ġempty": 7424,
      "Am": 7425,
      "then": 7426,
      "hetic": 7427,
      "ĠCP": 7428,
      "Ġimprovement": 7429,
      "Ġarmies": 7430,
      "Ġhydro": 7431,
      "Ġaccompl": 7432,
      "real": 7433,
      "ĠAk": 7434,
      "ota": 7435,
      "Ġvulner": 7436,
      "ibilities": 7437,
      "Ġweather": 7438,
      "Ġtemple": 7439,
      "Ġguideline": 7440,
      "Ġdistinguish": 7441,
      "isp": 7442,
      "ĠTop": 7443,
      "ĠLike": 7444,
      "iang": 7445,
      "Ġtransgender": 7446,
      "Ġorigins": 7447,
      "Ġrecognised": 7448,
      "ĠBrown": 7449,
      "Ġunsu": 7450,
      "arden": 7451,
      "Ġcorruption": 7452,
      "Ġdownload": 7453,
      "Ġhomes": 7454,
      "Ġcraft": 7455,
      "verty": 7456,
      "ĠMid": 7457,
      "irs": 7458,
      "ĠPutin": 7459,
      "ogy": 7460,
      "Ġentities": 7461,
      "ĠCommand": 7462,
      "ĠTrade": 7463,
      "%),": 7464,
      "Ġawards": 7465,
      "ĠMaced": 7466,
      "atever": 7467,
      "ĠRet": 7468,
      "Ġincorrect": 7469,
      "Ġtempor": 7470,
      "Ġmotor": 7471,
      "word": 7472,
      "omer": 7473,
      "ady": 7474,
      "Ġprote": 7475,
      "owned": 7476,
      "Ġ1967": 7477,
      "Ġsculpture": 7478,
      "rey": 7479,
      "asy": 7480,
      "143": 7481,
      "145": 7482,
      "asure": 7483,
      "Ġstored": 7484,
      "ĠThen": 7485,
      "udes": 7486,
      "Ġcolony": 7487,
      "Ġexpensive": 7488,
      "Ġ1977": 7489,
      "ropri": 7490,
      "Ġcollections": 7491,
      "Ġjurisdiction": 7492,
      "ĠMartin": 7493,
      "achelor": 7494,
      "Ġcodes": 7495,
      "ogether": 7496,
      "Ġfloor": 7497,
      "Ġreducing": 7498,
      "Ġdemonstrated": 7499,
      "Ġassessment": 7500,
      "Ġprocedure": 7501,
      "Ġahead": 7502,
      "inf": 7503,
      "Ġpoverty": 7504,
      "isexual": 7505,
      "Ġflood": 7506,
      "Ġzone": 7507,
      "Ġod": 7508,
      "Ġfat": 7509,
      "Ġdoll": 7510,
      "Ġmos": 7511,
      "Ġknight": 7512,
      "Ġconfig": 7513,
      "after": 7514,
      "nik": 7515,
      "Ġgather": 7516,
      "rier": 7517,
      "ĠHot": 7518,
      "ĠUl": 7519,
      "Ġreligions": 7520,
      "Ġlosing": 7521,
      "imens": 7522,
      "ĠFar": 7523,
      "Ġcolour": 7524,
      "Ġelig": 7525,
      "ĠFA": 7526,
      "Ġcontribs": 7527,
      "Ġhelping": 7528,
      "Ġrespective": 7529,
      "Ġboundaries": 7530,
      "ĠMughal": 7531,
      "Ġpione": 7532,
      "Ġ1964": 7533,
      "ĠColon": 7534,
      "Ġcollapse": 7535,
      "Ġmarketing": 7536,
      "arus": 7537,
      "Ġstars": 7538,
      "apes": 7539,
      "ĠConference": 7540,
      "Ġpropag": 7541,
      "ĠCambridge": 7542,
      "ĠMax": 7543,
      "Ġexcess": 7544,
      "inking": 7545,
      "claimed": 7546,
      "Ġphilosophers": 7547,
      "Ġsle": 7548,
      "Ġaccessible": 7549,
      "Ġemployment": 7550,
      "Ġrefugees": 7551,
      "Ġvow": 7552,
      "Ġwarning": 7553,
      "Ġsecure": 7554,
      "Ġprivacy": 7555,
      "Ġepist": 7556,
      "Ġchose": 7557,
      "Ġeditions": 7558,
      "Ġpassing": 7559,
      "Ġpsychologists": 7560,
      "Ġprivile": 7561,
      "isco": 7562,
      "heim": 7563,
      "Ġremember": 7564,
      "Ġdescribing": 7565,
      "stone": 7566,
      "ĠAff": 7567,
      "Ġagent": 7568,
      "IN": 7569,
      "erior": 7570,
      "Ġwins": 7571,
      "ĠSign": 7572,
      "Ġsuit": 7573,
      "inding": 7574,
      "ails": 7575,
      "Ġ1947": 7576,
      "Ġstrike": 7577,
      "Ġsubmitted": 7578,
      "ĠImperial": 7579,
      "Ġresponded": 7580,
      "ĠGen": 7581,
      "ĠNap": 7582,
      "quir": 7583,
      "Ġbuy": 7584,
      "Ġadvent": 7585,
      "ĠBefore": 7586,
      "ĠMedical": 7587,
      "Ġsatell": 7588,
      "Comm": 7589,
      "Tr": 7590,
      "da": 7591,
      "orb": 7592,
      "orate": 7593,
      "usalem": 7594,
      "Ġtargets": 7595,
      "Ġcommunications": 7596,
      "crete": 7597,
      "Ġproportion": 7598,
      "dney": 7599,
      "ĠStyle": 7600,
      "Ġcloser": 7601,
      "Ġperformances": 7602,
      "Ġjudges": 7603,
      "ket": 7604,
      "ĠTem": 7605,
      "rait": 7606,
      "ĠNow": 7607,
      "Ġshop": 7608,
      "Ġmarks": 7609,
      "brev": 7610,
      "Plan": 7611,
      "lines": 7612,
      "Ġcrown": 7613,
      "Ġdating": 7614,
      "Ġdiscovery": 7615,
      "Ġjudge": 7616,
      "Ġadults": 7617,
      "Ġsympt": 7618,
      "cult": 7619,
      "Ġrom": 7620,
      "Ġcite": 7621,
      "ĠMot": 7622,
      "cers": 7623,
      "imb": 7624,
      "Ġinstalled": 7625,
      "Ġproducer": 7626,
      "yself": 7627,
      "Ġmanual": 7628,
      "Ġdescend": 7629,
      "hr": 7630,
      "ĠLank": 7631,
      "Ġcompat": 7632,
      "Ġthanks": 7633,
      "Ġfocuses": 7634,
      "Ġsustain": 7635,
      "Ġfrag": 7636,
      "Ġlie": 7637,
      "ĠLuther": 7638,
      "Ġheter": 7639,
      "iana": 7640,
      "Ġplus": 7641,
      "Ġshar": 7642,
      "Ġimprison": 7643,
      "insula": 7644,
      "Ġclubs": 7645,
      "rating": 7646,
      "unt": 7647,
      "hips": 7648,
      "ĠRepresent": 7649,
      "Ġaims": 7650,
      "Ġcredit": 7651,
      "ĠEconomic": 7652,
      "rem": 7653,
      "Ġduties": 7654,
      "ĠSand": 7655,
      "ĠKabul": 7656,
      "Ġom": 7657,
      "Ġservers": 7658,
      "ĠMarx": 7659,
      "AP": 7660,
      "western": 7661,
      "ĠLincoln": 7662,
      "152": 7663,
      "Ġannounce": 7664,
      "Ġthousand": 7665,
      "ĠKasparov": 7666,
      "ĠBlue": 7667,
      "Ġkinds": 7668,
      "Ġties": 7669,
      "eries": 7670,
      "Ġfounder": 7671,
      "Ġbehalf": 7672,
      "OL": 7673,
      "bles": 7674,
      "abad": 7675,
      "Ġkeeping": 7676,
      "Europe": 7677,
      "Hist": 7678,
      "ĠHon": 7679,
      "Ġvision": 7680,
      "ĠOh": 7681,
      "ullah": 7682,
      "Ġsolve": 7683,
      "Ġprocedures": 7684,
      "erves": 7685,
      "ĠCold": 7686,
      "ĠEs": 7687,
      "Ġvac": 7688,
      "ocated": 7689,
      "Ġ1965": 7690,
      "Ġcourses": 7691,
      "ennis": 7692,
      "ĠPunjab": 7693,
      "rolled": 7694,
      "Ġideal": 7695,
      "Articles": 7696,
      "Ġfunds": 7697,
      "Ġly": 7698,
      "Ġstable": 7699,
      "Ġphotos": 7700,
      "attan": 7701,
      "Ġtranslated": 7702,
      "Ġcontinuing": 7703,
      "ek": 7704,
      "oom": 7705,
      "ĠBulg": 7706,
      "Ġencompass": 7707,
      "151": 7708,
      "Ġsignificance": 7709,
      "Ġcou": 7710,
      "ighth": 7711,
      "Ġincom": 7712,
      "Ġends": 7713,
      "Ġ1981": 7714,
      "Ġcomprehensive": 7715,
      "itzer": 7716,
      "Ġactors": 7717,
      "Ġdiscover": 7718,
      "ĠRomani": 7719,
      "ĠAirport": 7720,
      "Ġoccasionally": 7721,
      "Ġroutes": 7722,
      "Ġgrown": 7723,
      "Ġsharing": 7724,
      "apter": 7725,
      "ugby": 7726,
      "Ġessentially": 7727,
      "oster": 7728,
      "Ġinstruction": 7729,
      "gery": 7730,
      "Ġposts": 7731,
      "ĠEliz": 7732,
      "profit": 7733,
      "ĠMont": 7734,
      "Ġheight": 7735,
      "ribed": 7736,
      "Ġblog": 7737,
      "Ġrevenue": 7738,
      "Ġreporting": 7739,
      "Ġsurvived": 7740,
      "Ġconquest": 7741,
      "Ġexperiments": 7742,
      "URL": 7743,
      "Ġmac": 7744,
      "ĠHead": 7745,
      "147": 7746,
      "Ġindicates": 7747,
      "Ġtaxes": 7748,
      "Ġconnections": 7749,
      "Ġwalls": 7750,
      "Ġnegotiations": 7751,
      "Ġexclusively": 7752,
      "Ġchallenges": 7753,
      "dam": 7754,
      "hard": 7755,
      "Ġmir": 7756,
      "ĠMand": 7757,
      "sored": 7758,
      "rators": 7759,
      "Ġreduction": 7760,
      "ĠAnglo": 7761,
      "Ġalgorithms": 7762,
      "ĠPC": 7763,
      "Ġencourage": 7764,
      "Ġbringing": 7765,
      "ĠHebrew": 7766,
      "Ġanthrop": 7767,
      "Ġperception": 7768,
      "Ġvideos": 7769,
      "Ġceremon": 7770,
      "vin": 7771,
      "Ġbond": 7772,
      "Ġdisorder": 7773,
      "Ġinfring": 7774,
      "Ġbehaviors": 7775,
      "mond": 7776,
      "pg": 7777,
      "Ġdisorders": 7778,
      "ansk": 7779,
      "ĠOnce": 7780,
      "ĠLee": 7781,
      "Ġsettlers": 7782,
      "Ġpurchase": 7783,
      "Ġbegins": 7784,
      "ĠWal": 7785,
      "illage": 7786,
      "ĠThrough": 7787,
      "Ġdefines": 7788,
      "'.": 7789,
      "life": 7790,
      "Ġuncon": 7791,
      "ailed": 7792,
      "160": 7793,
      "Ġownership": 7794,
      "Ġpatient": 7795,
      "cher": 7796,
      "disc": 7797,
      "ĠPash": 7798,
      "ĠIndo": 7799,
      "Ġrequiring": 7800,
      "Ġobsc": 7801,
      "ĠMovement": 7802,
      "Ġlaid": 7803,
      "ĠIC": 7804,
      "ulating": 7805,
      "aints": 7806,
      "Ġdoctor": 7807,
      "Ġattached": 7808,
      "153": 7809,
      "Ġcharges": 7810,
      "Ġpersonality": 7811,
      "ĠSydney": 7812,
      "block": 7813,
      "Ġprepared": 7814,
      "Ġawa": 7815,
      "inally": 7816,
      "ĠBrook": 7817,
      "pool": 7818,
      "Ġcosm": 7819,
      "Ġunus": 7820,
      "ĠKenn": 7821,
      "eping": 7822,
      "orer": 7823,
      "Ġscheme": 7824,
      "ĠLabour": 7825,
      "ĠJerusalem": 7826,
      "FD": 7827,
      "iday": 7828,
      "Ġplot": 7829,
      "Ġworship": 7830,
      "Ġphon": 7831,
      "Ġciting": 7832,
      "ST": 7833,
      "ref": 7834,
      "esh": 7835,
      "Ġmigration": 7836,
      "Ġministers": 7837,
      "Ġrig": 7838,
      "hedral": 7839,
      "Ġoutcome": 7840,
      "Ġassembly": 7841,
      "elsh": 7842,
      "Ġviolent": 7843,
      "ĠBroadway": 7844,
      "fire": 7845,
      "erly": 7846,
      "Ġpick": 7847,
      "ĠIll": 7848,
      "etts": 7849,
      "Ġproduces": 7850,
      "Ġcharged": 7851,
      "Ġreferring": 7852,
      "Ġvoters": 7853,
      "WikiProject": 7854,
      "Ġsister": 7855,
      "Ġmyself": 7856,
      "Ġnet": 7857,
      "ĠEuro": 7858,
      "ĠGreg": 7859,
      "Ġimposed": 7860,
      "Ġshortly": 7861,
      "Ġlabour": 7862,
      "ĠPhilippines": 7863,
      "master": 7864,
      "ĠMarsh": 7865,
      "Ġresolve": 7866,
      "}}.": 7867,
      "Ġsolutions": 7868,
      "Ġchannels": 7869,
      "Ġdependent": 7870,
      "?]": 7871,
      "Ġanch": 7872,
      "ĠTro": 7873,
      "ĠMong": 7874,
      "Ġnotion": 7875,
      "Ġregulations": 7876,
      "Ġconquered": 7877,
      "ĠFrancis": 7878,
      "Ġreferendum": 7879,
      "Tube": 7880,
      "ĠCorn": 7881,
      "Ġvent": 7882,
      "Ġtrou": 7883,
      "Ġelev": 7884,
      "Ġready": 7885,
      "Ġwindow": 7886,
      "ona": 7887,
      "ittle": 7888,
      "Ġbands": 7889,
      "amation": 7890,
      "Ġscenes": 7891,
      "Ġphone": 7892,
      "Ġinteresting": 7893,
      "contin": 7894,
      "Ġgrammar": 7895,
      "stra": 7896,
      "celer": 7897,
      "Ġdealing": 7898,
      "Ġmillenn": 7899,
      "Ġconsequences": 7900,
      "zy": 7901,
      "enger": 7902,
      "ĠHosp": 7903,
      "anta": 7904,
      "Ġresign": 7905,
      "Ġillness": 7906,
      "Ġresource": 7907,
      "ĠBridge": 7908,
      "ques": 7909,
      "Ġcontinuous": 7910,
      "ĠArmenian": 7911,
      "ĠMalaysia": 7912,
      "Ġtort": 7913,
      "achus": 7914,
      "Ġpret": 7915,
      "Ġcontrols": 7916,
      "Chess": 7917,
      "ĠHo": 7918,
      "Ġformats": 7919,
      "obile": 7920,
      "Ġheritage": 7921,
      "Ġruler": 7922,
      "Ġconstant": 7923,
      "Ġassume": 7924,
      "Ġnarrative": 7925,
      "inating": 7926,
      "char": 7927,
      "Ġconclusion": 7928,
      "Ġdeemed": 7929,
      "Ġlooked": 7930,
      "Ġimprovements": 7931,
      "Ġpromoting": 7932,
      "Ġconventional": 7933,
      "gener": 7934,
      "Ġpapers": 7935,
      "ĠStr": 7936,
      "Ġscored": 7937,
      "Ġflo": 7938,
      "Ġflat": 7939,
      "Ġhandle": 7940,
      "Ġproposals": 7941,
      "Ġdated": 7942,
      "Ġdiet": 7943,
      "Ġdict": 7944,
      "ĠPy": 7945,
      "ocial": 7946,
      "Ġcontrad": 7947,
      "155": 7948,
      "ĠConn": 7949,
      "ĠAmaz": 7950,
      "IM": 7951,
      "fort": 7952,
      "Ġspelling": 7953,
      "Ġseeing": 7954,
      "ĠOrder": 7955,
      "who": 7956,
      "Ġlinguistic": 7957,
      "pop": 7958,
      "Ġdiversity": 7959,
      "olith": 7960,
      "Ġoperational": 7961,
      "Ġcomparison": 7962,
      "Ġgirls": 7963,
      "hol": 7964,
      "iot": 7965,
      "Ġdog": 7966,
      "amil": 7967,
      "ĠHell": 7968,
      "Ġforming": 7969,
      "Ġentity": 7970,
      "Ġreplacing": 7971,
      "amber": 7972,
      "oking": 7973,
      "Ġeditorial": 7974,
      "ĠSerb": 7975,
      "Ġexecuted": 7976,
      "Ġopportunities": 7977,
      "ĠJefferson": 7978,
      "acent": 7979,
      "Ġaccident": 7980,
      "Ġdeliver": 7981,
      "Ġfacult": 7982,
      "Ġyounger": 7983,
      "ĠAristotle": 7984,
      "Ġdress": 7985,
      "esty": 7986,
      "Ġdigit": 7987,
      "ĠIranian": 7988,
      "ĠCroatian": 7989,
      "ĠHelp": 7990,
      "hattan": 7991,
      "Ġbeat": 7992,
      "ĠSa": 7993,
      "Ġ36": 7994,
      "Ġ150": 7995,
      "Ġstatistical": 7996,
      "Ġtrees": 7997,
      "ĠFranklin": 7998,
      "edu": 7999,
      "Ġfired": 8000,
      "Ġleaves": 8001,
      "oked": 8002,
      "awa": 8003,
      "166": 8004,
      "Ġpropose": 8005,
      "Ġabsence": 8006,
      "Ġmechanism": 8007,
      "Ġemotional": 8008,
      "Ġaccompanied": 8009,
      "ora": 8010,
      "Ġ499": 8011,
      "Ġsuperior": 8012,
      "Ġdistinguished": 8013,
      "Ġtab": 8014,
      "Ġhidden": 8015,
      "Ġreaching": 8016,
      "ĠNetwork": 8017,
      "ĠIndex": 8018,
      "156": 8019,
      "Ġdepartments": 8020,
      "eenth": 8021,
      "Ġheard": 8022,
      "Ġcounties": 8023,
      "Ġthoughts": 8024,
      "Ġlasted": 8025,
      "forced": 8026,
      "Ġprofessor": 8027,
      "post": 8028,
      "eded": 8029,
      "Ġpartially": 8030,
      "Ġovert": 8031,
      "Ġredirects": 8032,
      "uable": 8033,
      "inger": 8034,
      "ĠBush": 8035,
      "neg": 8036,
      "Ġclaiming": 8037,
      "ischer": 8038,
      "Ġbatt": 8039,
      "Ġattracted": 8040,
      "ĠSunday": 8041,
      "DI": 8042,
      "mouth": 8043,
      "ĠRog": 8044,
      "ĠComputer": 8045,
      "Ġtransportation": 8046,
      "Ġadapted": 8047,
      "era": 8048,
      "Ġcancer": 8049,
      "athy": 8050,
      "Ġ400": 8051,
      "Ġblank": 8052,
      "154": 8053,
      "Ġtemples": 8054,
      "Ġordinary": 8055,
      "Ġcinem": 8056,
      "ĠCard": 8057,
      "ollo": 8058,
      "Ġcovering": 8059,
      "Ġguidance": 8060,
      "Ġrepeatedly": 8061,
      "Ġzero": 8062,
      "Ġpul": 8063,
      "Ġpseud": 8064,
      "ĠLicense": 8065,
      "Ġrecip": 8066,
      "Ġinvention": 8067,
      "WithNo": 8068,
      "ManWithNo": 8069,
      "ĠElizabeth": 8070,
      "ManWithNoPlan": 8071,
      "law": 8072,
      "ĠIBM": 8073,
      "iments": 8074,
      "ĠPower": 8075,
      "ĠLith": 8076,
      "Ġrose": 8077,
      "arked": 8078,
      "165": 8079,
      "Ġpreval": 8080,
      "Ġsyntax": 8081,
      "mony": 8082,
      "ĠSax": 8083,
      "coming": 8084,
      "Ġindependently": 8085,
      "Ġparallel": 8086,
      "161": 8087,
      "Ġoperates": 8088,
      "Ġconsumption": 8089,
      "abulary": 8090,
      "Ġabolished": 8091,
      "ding": 8092,
      "Ġfish": 8093,
      "ĠMic": 8094,
      "ĠFoot": 8095,
      "Ġnotation": 8096,
      "Ġdevelopments": 8097,
      "Ġcreates": 8098,
      "Ġtransp": 8099,
      "Ġhorse": 8100,
      "Ġped": 8101,
      "Ġrequirement": 8102,
      "Ġlicensed": 8103,
      "ĠJesus": 8104,
      "zen": 8105,
      "iginal": 8106,
      "reness": 8107,
      "Ġ65": 8108,
      "Ġveget": 8109,
      "ĠCrown": 8110,
      "Ġfarmers": 8111,
      "300": 8112,
      "esides": 8113,
      "ĠRomans": 8114,
      "ĠVan": 8115,
      "163": 8116,
      "168": 8117,
      "Ġformerly": 8118,
      "Ġtransmission": 8119,
      "Ġorganisations": 8120,
      "ca": 8121,
      "struction": 8122,
      "ĠRam": 8123,
      "umer": 8124,
      "ĠAncient": 8125,
      "Ġheads": 8126,
      "Ġlogical": 8127,
      "ĠPrize": 8128,
      "nings": 8129,
      "rish": 8130,
      "ĠKos": 8131,
      "Ġcomprom": 8132,
      "ĠYoun": 8133,
      "Ġsquares": 8134,
      "ĠOlympics": 8135,
      "Ġchairman": 8136,
      "ĠFIFA": 8137,
      "Ġscheduled": 8138,
      "Ġhelps": 8139,
      "Ġlegally": 8140,
      "Ġphenomenon": 8141,
      "Ġflight": 8142,
      "Ġ1963": 8143,
      "Ġradar": 8144,
      "Ġmaintaining": 8145,
      "Ġhappens": 8146,
      "Ġcarrying": 8147,
      "Ġinitiative": 8148,
      "star": 8149,
      "ureau": 8150,
      "2023": 8151,
      "Ġsignal": 8152,
      "Ġcomputing": 8153,
      "ĠAz": 8154,
      "ĠBuilding": 8155,
      "ĠNever": 8156,
      "ĠLat": 8157,
      "ella": 8158,
      "Ġstopped": 8159,
      "Ġinterpreted": 8160,
      "phaned": 8161,
      "Ġcens": 8162,
      "ĠThose": 8163,
      "ientific": 8164,
      "158": 8165,
      "Ġidentical": 8166,
      "Ġpredict": 8167,
      "ĠRegiment": 8168,
      "Ġfellow": 8169,
      "xxxx": 8170,
      "Ġdrugs": 8171,
      "Mus": 8172,
      "ON": 8173,
      "inct": 8174,
      "ĠDNA": 8175,
      "Ġclothing": 8176,
      "Ġunderlying": 8177,
      "Ġcurrency": 8178,
      "Ġretail": 8179,
      "Ġadoption": 8180,
      "Ġamounts": 8181,
      "Ġcitizenship": 8182,
      "Ġweapon": 8183,
      "Ġmillions": 8184,
      "achusetts": 8185,
      "~~": 8186,
      "Ġperpet": 8187,
      "ovo": 8188,
      "Ġempir": 8189,
      "Ġestimates": 8190,
      "Ġconsumers": 8191,
      "Ġhusband": 8192,
      "van": 8193,
      "Ġgets": 8194,
      "Ġvan": 8195,
      "ĠKal": 8196,
      "Ġrelating": 8197,
      "ints": 8198,
      "Ġgoverned": 8199,
      "164": 8200,
      "Ġ1962": 8201,
      "Ġviolation": 8202,
      "ĠBarb": 8203,
      "ĠBrigade": 8204,
      "Ġneighbour": 8205,
      "tes": 8206,
      "Ġcul": 8207,
      "rose": 8208,
      "Ġcorner": 8209,
      "Ġcorporate": 8210,
      "iatric": 8211,
      "graduate": 8212,
      "Ġexclusive": 8213,
      "ĠSic": 8214,
      "Ġgamb": 8215,
      "Ġemperor": 8216,
      "170": 8217,
      "Ġtradem": 8218,
      "Ġattempting": 8219,
      "Ġsounds": 8220,
      "Ġclinical": 8221,
      "How": 8222,
      "Res": 8223,
      "Ġthread": 8224,
      "emit": 8225,
      "Ġconspir": 8226,
      "Ġoptim": 8227,
      "Ġcollected": 8228,
      "ĠAlgeria": 8229,
      "jpg": 8230,
      "ĠUnlike": 8231,
      "Ġsixth": 8232,
      "enesis": 8233,
      "Ġdoctrine": 8234,
      "oen": 8235,
      "Ġtheor": 8236,
      "Ġnick": 8237,
      "Ġlose": 8238,
      "ĠBan": 8239,
      "ĠEston": 8240,
      "Ġcompete": 8241,
      "Ġranking": 8242,
      "Ġcoastal": 8243,
      "utenant": 8244,
      "Ġswe": 8245,
      "Ġfaster": 8246,
      "amily": 8247,
      "Ġusual": 8248,
      "Ġinstances": 8249,
      "157": 8250,
      "Ġamongst": 8251,
      "ĠPatri": 8252,
      "ĠBruce": 8253,
      "Ġocean": 8254,
      "ĠWelsh": 8255,
      "162": 8256,
      "Ġ1949": 8257,
      "ĠAnderson": 8258,
      "Ġnorms": 8259,
      "Ġstrategies": 8260,
      "Ġpawns": 8261,
      "Ġmountain": 8262,
      "ĠMassachusetts": 8263,
      "ĠOperation": 8264,
      "Ġstruggle": 8265,
      "Ġcommunist": 8266,
      "Ġcapabilities": 8267,
      "plete": 8268,
      "Ġfunded": 8269,
      "Ġreportedly": 8270,
      "Ġexceptions": 8271,
      "Ġintegration": 8272,
      "Ġdisplays": 8273,
      "Ġeld": 8274,
      "Ġconcrete": 8275,
      "Ġcooperation": 8276,
      "Ġsupporters": 8277,
      "RS": 8278,
      "ois": 8279,
      "Ġsave": 8280,
      "ĠAManWithNoPlan": 8281,
      "ĠCross": 8282,
      "ĠYouTube": 8283,
      "mann": 8284,
      "ĠLin": 8285,
      "ĠArm": 8286,
      "Ġprovision": 8287,
      "Ġopponents": 8288,
      "Ġheaded": 8289,
      "Ġfrequent": 8290,
      "Ġbiggest": 8291,
      "Ġpurchased": 8292,
      "ĠDemocrats": 8293,
      "%.[": 8294,
      "EM": 8295,
      "ami": 8296,
      "otton": 8297,
      "Ġmeetings": 8298,
      "break": 8299,
      "oys": 8300,
      "ĠHor": 8301,
      "Ġexceed": 8302,
      "Ġdesired": 8303,
      "ysics": 8304,
      "ĠRead": 8305,
      "Ġguard": 8306,
      "bean": 8307,
      "Ġ1956": 8308,
      "Ġceremony": 8309,
      "Ġpublisher": 8310,
      "LP": 8311,
      "Ġbanks": 8312,
      "Ġloyal": 8313,
      "igital": 8314,
      "ĠJack": 8315,
      "Ġ33": 8316,
      "Ġdiscipl": 8317,
      "Ġsurve": 8318,
      "Ġcollective": 8319,
      "Ġpornography": 8320,
      "fe": 8321,
      "igrated": 8322,
      "Ġuncertain": 8323,
      "ĠLew": 8324,
      "Ġplain": 8325,
      "Ġelite": 8326,
      "Ġpatron": 8327,
      "Ġdesktop": 8328,
      "Ġrely": 8329,
      "ĠPur": 8330,
      "abil": 8331,
      "Ġabbrev": 8332,
      "Ġresc": 8333,
      "Ġmarkup": 8334,
      "Ġgrav": 8335,
      "Ġhospitals": 8336,
      "ĠFrancisco": 8337,
      "ĠSaf": 8338,
      "ĠLanguage": 8339,
      "Ġcompens": 8340,
      "Ġraise": 8341,
      "ĠPeace": 8342,
      "Ġlosses": 8343,
      "Ġsacrif": 8344,
      "ais": 8345,
      "vision": 8346,
      "Ġseg": 8347,
      "ĠLake": 8348,
      "Ġrape": 8349,
      "iversary": 8350,
      "159": 8351,
      "ervation": 8352,
      "Ġid": 8353,
      "iga": 8354,
      "ĠBor": 8355,
      "ĠHIV": 8356,
      "ĠDomin": 8357,
      "ĠNative": 8358,
      "Ġunemploy": 8359,
      "167": 8360,
      "Despite": 8361,
      "omic": 8362,
      "ilation": 8363,
      "Ġmetropolitan": 8364,
      "Ġarchitectural": 8365,
      "Script": 8366,
      "quality": 8367,
      "Ġchain": 8368,
      "audi": 8369,
      "comes": 8370,
      "Ġdemands": 8371,
      "ĠManhattan": 8372,
      "Ġcorrectly": 8373,
      "Ġdiseases": 8374,
      "Ġsession": 8375,
      "Ġcavalry": 8376,
      "izon": 8377,
      "Ġorganisms": 8378,
      "Ġ75": 8379,
      "Ġtagged": 8380,
      "Ġdenomin": 8381,
      "Ab": 8382,
      "orous": 8383,
      "Ġmaps": 8384,
      "cha": 8385,
      "ocation": 8386,
      "ĠEnd": 8387,
      "Ġdynamic": 8388,
      "claration": 8389,
      "Ġfled": 8390,
      "Ġfestival": 8391,
      "riers": 8392,
      "ĠDh": 8393,
      "ahar": 8394,
      "Ġelectron": 8395,
      "Ġfreely": 8396,
      "osit": 8397,
      "Ġheat": 8398,
      "ĠClinton": 8399,
      "Ġcompetitive": 8400,
      "Ġcampaigns": 8401,
      "Ġdoubt": 8402,
      "Ġske": 8403,
      "Ġthrone": 8404,
      "ĠDi": 8405,
      "Ġpresidency": 8406,
      "Ġconversion": 8407,
      "Ġautonomous": 8408,
      "ila": 8409,
      "ĠSom": 8410,
      "ĠJones": 8411,
      "zegov": 8412,
      "ĠProvince": 8413,
      "ĠSimilarly": 8414,
      "ĠHospital": 8415,
      "Ġbisexual": 8416,
      "Ġ1941": 8417,
      "Ġfairly": 8418,
      "Ġjournalists": 8419,
      "Ġalliance": 8420,
      "Ġpersec": 8421,
      "bek": 8422,
      "Ġreasonable": 8423,
      "Ġjudicial": 8424,
      "ĠVictoria": 8425,
      "ĠEcu": 8426,
      "ĠProfess": 8427,
      "General": 8428,
      "ĠAccess": 8429,
      "Ġprove": 8430,
      "Ġwritings": 8431,
      "ĠPortugal": 8432,
      "Ġtemperature": 8433,
      "sk": 8434,
      "tun": 8435,
      "iege": 8436,
      "ĠAdv": 8437,
      "Ġelabor": 8438,
      "ĠTrust": 8439,
      "Ġmonarchy": 8440,
      "Ġsanctions": 8441,
      "elect": 8442,
      "only": 8443,
      "estab": 8444,
      "Ġmaybe": 8445,
      "ĠBusiness": 8446,
      "Several": 8447,
      "Te": 8448,
      "ĠBot": 8449,
      "Ġgeographical": 8450,
      "Ġmechanical": 8451,
      "ĠSummer": 8452,
      "Ġinnovation": 8453,
      "human": 8454,
      "Ġwitness": 8455,
      "ĠNep": 8456,
      "ĠExpl": 8457,
      "Ġtwelve": 8458,
      "Ġexhibition": 8459,
      "Ġvocabulary": 8460,
      "Ġvolunteers": 8461,
      "ĠNapole": 8462,
      "pat": 8463,
      "Ġcabinet": 8464,
      "ĠTuring": 8465,
      "Ġsmart": 8466,
      "Ġmaintains": 8467,
      "iables": 8468,
      "Ġprisoners": 8469,
      "rip": 8470,
      "elligence": 8471,
      "Ġmines": 8472,
      "lements": 8473,
      "iral": 8474,
      "ruck": 8475,
      "Ġbroader": 8476,
      "ĠIPv": 8477,
      "that": 8478,
      "Ġkil": 8479,
      "ishops": 8480,
      "175": 8481,
      "Ġdeclar": 8482,
      "Ġskill": 8483,
      "Ġinteractions": 8484,
      "Ġnoun": 8485,
      "Ġalter": 8486,
      "ĠGN": 8487,
      "Ġpartners": 8488,
      "Ġcontributing": 8489,
      "Ġenvironments": 8490,
      "Russ": 8491,
      "oto": 8492,
      "ado": 8493,
      "Ġspot": 8494,
      "Ġremote": 8495,
      "Ġconsidering": 8496,
      "Thanks": 8497,
      "Ġframe": 8498,
      "Ġsymptoms": 8499,
      "gers": 8500,
      "otyp": 8501,
      "ĠCop": 8502,
      "Ġmeets": 8503,
      "Ġcultiv": 8504,
      "Ġidentif": 8505,
      "ommod": 8506,
      "Ġlayer": 8507,
      "ĠCyprus": 8508,
      "Ge": 8509,
      "ecess": 8510,
      "uj": 8511,
      "Ġtoler": 8512,
      "ĠBall": 8513,
      "Ġwhatever": 8514,
      "Ġvariable": 8515,
      "Ġflour": 8516,
      "Ġsuggestions": 8517,
      "ĠMoroc": 8518,
      "ĠHawaii": 8519,
      "zegovina": 8520,
      "sis": 8521,
      "ili": 8522,
      "Ġinitiated": 8523,
      "ĠAndroid": 8524,
      "VD": 8525,
      "Ġsale": 8526,
      "itudes": 8527,
      "arks": 8528,
      "ĠTit": 8529,
      "ĠGener": 8530,
      "Ġdisappe": 8531,
      "ategories": 8532,
      "Under": 8533,
      "ĠAle": 8534,
      "ĠCrit": 8535,
      "quest": 8536,
      "Ġedge": 8537,
      "ridges": 8538,
      "Ġscripts": 8539,
      "Ġrailroad": 8540,
      "ĠGolden": 8541,
      "Ġcoun": 8542,
      "isition": 8543,
      "Ġbold": 8544,
      "Ġassemb": 8545,
      "Ġdifficulty": 8546,
      "Ġconfirm": 8547,
      "Ġbib": 8548,
      "thur": 8549,
      "Ġallies": 8550,
      "ĠDeclaration": 8551,
      "Ġmanage": 8552,
      "180": 8553,
      "Ġlatest": 8554,
      "Ġreflected": 8555,
      "riminal": 8556,
      "Ġsteel": 8557,
      "rank": 8558,
      "Ġfilled": 8559,
      "Ġplacing": 8560,
      "Ġspect": 8561,
      "Ġ34": 8562,
      "Ġgoverning": 8563,
      "Ġfemales": 8564,
      "Ġinjury": 8565,
      "Ġteachers": 8566,
      "ilater": 8567,
      "iration": 8568,
      "ĠWMF": 8569,
      "Ġrising": 8570,
      "Ġroots": 8571,
      "Ġwrites": 8572,
      "Ġbiology": 8573,
      "ĠPalace": 8574,
      "Ġessay": 8575,
      "ĠBelarus": 8576,
      "ĠBetween": 8577,
      "imensional": 8578,
      "lad": 8579,
      "iden": 8580,
      "sey": 8581,
      "ĠLeon": 8582,
      "Ġderiv": 8583,
      "Ġcelebrated": 8584,
      "Ġapparently": 8585,
      "ĠHungary": 8586,
      "lov": 8587,
      "Ġrevert": 8588,
      "ĠHu": 8589,
      "Ġinters": 8590,
      "lation": 8591,
      "Ġanx": 8592,
      "Ġversus": 8593,
      "Ġconcert": 8594,
      "ĠNorway": 8595,
      "Ġeye": 8596,
      "Ġdrew": 8597,
      "group": 8598,
      "Ġvariables": 8599,
      "173": 8600,
      "Ġ1966": 8601,
      "Ġports": 8602,
      "Ġhomosexuality": 8603,
      "how": 8604,
      "new": 8605,
      "rust": 8606,
      "Ġinaug": 8607,
      "Ġthreatened": 8608,
      "ĠLebanon": 8609,
      "Ġhal": 8610,
      "cts": 8611,
      "Ġaccommod": 8612,
      "Ġspin": 8613,
      "Ġvaries": 8614,
      "Ġguess": 8615,
      "Ġadmin": 8616,
      "Ġvaluable": 8617,
      "Ġinstrument": 8618,
      "\";": 8619,
      "German": 8620,
      "rand": 8621,
      "ĠLim": 8622,
      "Ġ1961": 8623,
      "MS": 8624,
      "mate": 8625,
      "vard": 8626,
      "Ġ+": 8627,
      "itime": 8628,
      "Ġrid": 8629,
      "Ġrhy": 8630,
      "ĠJac": 8631,
      "Ġboards": 8632,
      "Ġearned": 8633,
      "Ġantiqu": 8634,
      "Ġdamaged": 8635,
      "Ġcredited": 8636,
      "PC": 8637,
      "ĠThird": 8638,
      "ĠTunisia": 8639,
      "Ġathlet": 8640,
      "AL": 8641,
      "ystem": 8642,
      "ĠJam": 8643,
      "Ġevac": 8644,
      "Ġputting": 8645,
      "Ġlowest": 8646,
      "Ġinformal": 8647,
      "Ġinjured": 8648,
      "ĠRuPaul": 8649,
      "ĠEthiop": 8650,
      "ipher": 8651,
      "asts": 8652,
      "Ġparad": 8653,
      "ĠArabia": 8654,
      "ĠRfC": 8655,
      "ĠAuthority": 8656,
      "DR": 8657,
      "opoly": 8658,
      "Ġpoliticians": 8659,
      "sequently": 8660,
      "Ġprofessionals": 8661,
      "ĠWater": 8662,
      "ector": 8663,
      "Ġexped": 8664,
      "Ġreviewed": 8665,
      "Ġconventions": 8666,
      "Ġsettlements": 8667,
      "ĠDaniel": 8668,
      "Ġeligible": 8669,
      "Ġreply": 8670,
      "ĠObl": 8671,
      "1170": 8672,
      "Ġacceler": 8673,
      "Ġprogrammes": 8674,
      "Ġfunctional": 8675,
      "Ġmechanisms": 8676,
      "Ġfulf": 8677,
      "Ġcustomers": 8678,
      "Ġadjacent": 8679,
      "trans": 8680,
      "Ġhors": 8681,
      "Ġcomedy": 8682,
      "ĠNob": 8683,
      "artic": 8684,
      "Ġ1900": 8685,
      "Ġencyclop": 8686,
      "Ġvisitors": 8687,
      "Ġportal": 8688,
      "Ġmorning": 8689,
      "ĠModel": 8690,
      "Ġsubmit": 8691,
      "olithic": 8692,
      "Ġforb": 8693,
      "agram": 8694,
      "apel": 8695,
      "Ġdepicted": 8696,
      "Ġclassic": 8697,
      "Ġdocumented": 8698,
      "ĠHistor": 8699,
      "Ġpredominantly": 8700,
      "world": 8701,
      "Ġtouch": 8702,
      "ilst": 8703,
      "ĠMach": 8704,
      "ellion": 8705,
      "Ġtechnological": 8706,
      "Ġpromin": 8707,
      "Ġheader": 8708,
      "Ġmagic": 8709,
      "European": 8710,
      "CE": 8711,
      "case": 8712,
      "ĠMir": 8713,
      "agh": 8714,
      "ĠOcean": 8715,
      "Ġresigned": 8716,
      "Ġindeed": 8717,
      "172": 8718,
      "176": 8719,
      "Ġdepth": 8720,
      "inson": 8721,
      "Ġcivilization": 8722,
      "prot": 8723,
      "Ġsurviving": 8724,
      "Ġeyes": 8725,
      "Ġfleet": 8726,
      "Ġstreets": 8727,
      "ĠAN": 8728,
      "ĠReich": 8729,
      "Ġstronger": 8730,
      "Ġlayout": 8731,
      "Ġescape": 8732,
      "TS": 8733,
      "Ġreun": 8734,
      "athan": 8735,
      "Ġprofile": 8736,
      "Ġharass": 8737,
      "ĠKyiv": 8738,
      "zo": 8739,
      "Ġaest": 8740,
      "ĠNAS": 8741,
      "Ġ1918": 8742,
      "ĠStan": 8743,
      "Ġpersonally": 8744,
      "Ġhealthcare": 8745,
      "Ġthreats": 8746,
      "Ġbattles": 8747,
      "nom": 8748,
      "Ġconstitute": 8749,
      "rition": 8750,
      "gebra": 8751,
      "169": 8752,
      "Ġstands": 8753,
      "iverpool": 8754,
      "Ġinnings": 8755,
      "Ġvarying": 8756,
      "gar": 8757,
      "math": 8758,
      "ĠSong": 8759,
      "ĠMos": 8760,
      "ĠVien": 8761,
      "Ġfiled": 8762,
      "174": 8763,
      "Ġarchives": 8764,
      "Ġdocumentary": 8765,
      "ĠContin": 8766,
      "source": 8767,
      "ĠColumbia": 8768,
      "net": 8769,
      "umed": 8770,
      "Ġ1944": 8771,
      "Ġpreserved": 8772,
      "Ġterritorial": 8773,
      "ĠHerzegovina": 8774,
      "ijing": 8775,
      "Ġchallenged": 8776,
      "Before": 8777,
      "Ġjurisdictions": 8778,
      "Ġsimultaneously": 8779,
      "Ġdub": 8780,
      "ĠDec": 8781,
      "Ġmeta": 8782,
      "Ġorganised": 8783,
      "Ġpainted": 8784,
      "Ġregistration": 8785,
      "Ġborrow": 8786,
      "icts": 8787,
      "ĠPot": 8788,
      "ĠUz": 8789,
      "Ġspending": 8790,
      "Ġmanif": 8791,
      "Ġfindings": 8792,
      "Ġwinter": 8793,
      "Ġethics": 8794,
      "Islam": 8795,
      "ĠYugoslavia": 8796,
      "inth": 8797,
      "ĠFund": 8798,
      "Ġprotocol": 8799,
      "Ġkingdoms": 8800,
      "ĠLanka": 8801,
      "Af": 8802,
      "Qu": 8803,
      "urd": 8804,
      "emble": 8805,
      "secut": 8806,
      "Ġpassage": 8807,
      "first": 8808,
      "gal": 8809,
      "Ġselling": 8810,
      "Ġfict": 8811,
      "Ġmamm": 8812,
      "amics": 8813,
      "ĠSaudi": 8814,
      "ĠCSS": 8815,
      "ĠPict": 8816,
      "ĠFiref": 8817,
      "Ġpunishment": 8818,
      "iro": 8819,
      "Ġmine": 8820,
      "Ġhat": 8821,
      "ĠMr": 8822,
      "agues": 8823,
      "ĠGamb": 8824,
      "Ġhero": 8825,
      "ĠStaff": 8826,
      "ferent": 8827,
      "ĠShow": 8828,
      "ĠSciences": 8829,
      "Ġepisodes": 8830,
      "ĠCarolina": 8831,
      "Ġdry": 8832,
      "utive": 8833,
      "ĠEvery": 8834,
      "Ġthereby": 8835,
      "Also": 8836,
      "ĠTerrit": 8837,
      "opher": 8838,
      "apy": 8839,
      "Ġsuburb": 8840,
      "Ġspring": 8841,
      "Ġadmitted": 8842,
      "Ġrestore": 8843,
      "Ġdrum": 8844,
      "ĠCEO": 8845,
      "Ġphilosopher": 8846,
      "don": 8847,
      "ĠCirc": 8848,
      "Ġconj": 8849,
      "aste": 8850,
      "Ġmanager": 8851,
      "Ġdriven": 8852,
      "Ġsummar": 8853,
      "Ġautonomy": 8854,
      "Ġduty": 8855,
      "oded": 8856,
      "Ġleague": 8857,
      "ideo": 8858,
      "Ġinterior": 8859,
      "Ġfilter": 8860,
      "Ġidentification": 8861,
      "Ġ[[": 8862,
      "appropri": 8863,
      "Ġborough": 8864,
      "ĠDub": 8865,
      "ivals": 8866,
      "arta": 8867,
      "acts": 8868,
      "Ġgovernance": 8869,
      "Ġvaried": 8870,
      "airo": 8871,
      "Ġarranged": 8872,
      "Ġsupplies": 8873,
      "Ġconsolid": 8874,
      "ĠAzerbaijan": 8875,
      "Ġlandscape": 8876,
      "pages": 8877,
      "ĠWhere": 8878,
      "ĠVice": 8879,
      "tainment": 8880,
      "ĠXbox": 8881,
      "ĠWilliams": 8882,
      "ĠFer": 8883,
      "Ġpursu": 8884,
      "Ġrocket": 8885,
      "Ġ{": 8886,
      "ĠFischer": 8887,
      "Ġyield": 8888,
      "Ġcitizen": 8889,
      "Ġtied": 8890,
      "Ġhour": 8891,
      "abric": 8892,
      "Ġcharacteristic": 8893,
      "Ġcertainly": 8894,
      "ĠAdministration": 8895,
      "Ġtrafficking": 8896,
      "Ġpig": 8897,
      "Ġbear": 8898,
      "ulum": 8899,
      "ĠDraft": 8900,
      "ĠJo": 8901,
      "Ġpredecess": 8902,
      "ĠHollywood": 8903,
      "Ġconsciousness": 8904,
      "Ġdisciplines": 8905,
      "faces": 8906,
      "Ġtanks": 8907,
      "Ġinner": 8908,
      "Ġmel": 8909,
      "arting": 8910,
      "ĠStein": 8911,
      "ipping": 8912,
      "Station": 8913,
      "Ġtargeted": 8914,
      "Ġambig": 8915,
      "coh": 8916,
      "mit": 8917,
      "worth": 8918,
      "ĠRFC": 8919,
      "Ġmayor": 8920,
      "Ġsupplement": 8921,
      "ĠReview": 8922,
      "ĠAbu": 8923,
      "Ġconsideration": 8924,
      "ĠPhilip": 8925,
      "Ġtourism": 8926,
      "ĠLabor": 8927,
      "ĠAlbert": 8928,
      "Ġintercept": 8929,
      "171": 8930,
      "Ġcontinent": 8931,
      "ESCO": 8932,
      "edded": 8933,
      "quiry": 8934,
      "bn": 8935,
      "Ġsoul": 8936,
      "ester": 8937,
      "ĠCrow": 8938,
      "ĠBir": 8939,
      "Ġwaste": 8940,
      "Ġresponses": 8941,
      "Ġelectricity": 8942,
      "Ġdismissed": 8943,
      "ethe": 8944,
      "Ġadds": 8945,
      "Ġowners": 8946,
      "ographies": 8947,
      "Ġcompeting": 8948,
      "Ġdifficulties": 8949,
      "Ġbriefly": 8950,
      "otype": 8951,
      "Ġgone": 8952,
      "ĠPet": 8953,
      "Ġvs": 8954,
      "Ġinvent": 8955,
      "Ġshel": 8956,
      "Ġtested": 8957,
      "Ġlegislature": 8958,
      "Ġidentifying": 8959,
      "Ġlicenses": 8960,
      "Ġcomplicated": 8961,
      "Ġatmosphere": 8962,
      "Ġhip": 8963,
      "ĠAcc": 8964,
      "ager": 8965,
      "ĠBa": 8966,
      "ĠRay": 8967,
      "Ġindirect": 8968,
      "Ġthemes": 8969,
      "Ġanalog": 8970,
      "ĠSyrian": 8971,
      "Ġgeography": 8972,
      "Ġqueens": 8973,
      "Ġicon": 8974,
      "olics": 8975,
      "ĠSk": 8976,
      "ĠYour": 8977,
      "Ġparticles": 8978,
      "183": 8979,
      "Ġlinking": 8980,
      "Ġmissions": 8981,
      "Ġadopt": 8982,
      "Ġclearer": 8983,
      "Ġaccuracy": 8984,
      "Ġcrowd": 8985,
      "dimensional": 8986,
      "via": 8987,
      "ĠTour": 8988,
      "ource": 8989,
      "Ġconfused": 8990,
      "ilosoph": 8991,
      "chess": 8992,
      "continent": 8993,
      "Ġpremi": 8994,
      "bourne": 8995,
      "Ġbrowsers": 8996,
      "]]": 8997,
      "Ġfest": 8998,
      "ashes": 8999,
      "etime": 9000,
      "Ġdriving": 9001,
      "ĠCulture": 9002,
      "Ġcasualties": 9003,
      "Ġgene": 9004,
      "ĠJon": 9005,
      "ĠAnton": 9006,
      "serv": 9007,
      "ĠWarner": 9008,
      "ĠArmenia": 9009,
      "ĠGuardian": 9010,
      "unciation": 9011,
      "Ġfru": 9012,
      "ĠSchol": 9013,
      "Ġstere": 9014,
      "ĠBund": 9015,
      "ĠOpp": 9016,
      "pha": 9017,
      "Ġoutcomes": 9018,
      "Ġsentences": 9019,
      "Ġrivers": 9020,
      "Ġspoke": 9021,
      "Ġobservation": 9022,
      "Ġhypothesis": 9023,
      "HO": 9024,
      "Ġfresh": 9025,
      "iful": 9026,
      "Ġ38": 9027,
      "ĠBrad": 9028,
      "Ġnavigation": 9029,
      "Ġice": 9030,
      "Ġfranch": 9031,
      "idata": 9032,
      "Ġanywhere": 9033,
      "Ġactor": 9034,
      "Ġmanually": 9035,
      "Ġentering": 9036,
      "Ġadvances": 9037,
      "Ġsecretary": 9038,
      "Ġchoices": 9039,
      "restling": 9040,
      "lsen": 9041,
      "Ġflex": 9042,
      "ĠTay": 9043,
      "ĠLet": 9044,
      "Ġhear": 9045,
      "ĠUse": 9046,
      "Ġdescriptions": 9047,
      "Ġconfusion": 9048,
      "ĠCarl": 9049,
      "Ġmeasured": 9050,
      "Ġarrival": 9051,
      "held": 9052,
      "inder": 9053,
      "Ġbought": 9054,
      "ĠLy": 9055,
      "ĠOs": 9056,
      "Ġpopul": 9057,
      "Ġmainland": 9058,
      "Ġcommunicate": 9059,
      "Ġphenomena": 9060,
      "uits": 9061,
      "whel": 9062,
      "onsored": 9063,
      "Ġmas": 9064,
      "oum": 9065,
      "ĠAud": 9066,
      "olving": 9067,
      "ĠBol": 9068,
      "ika": 9069,
      "Ġactively": 9070,
      "Ġcooper": 9071,
      "182": 9072,
      "177": 9073,
      "Ġdepression": 9074,
      "ĠScots": 9075,
      "Ġstadium": 9076,
      "ĠJoe": 9077,
      "Ġadequ": 9078,
      "Ġscen": 9079,
      "ĠMarath": 9080,
      "Ġphotographs": 9081,
      "Do": 9082,
      "Ġ48": 9083,
      "179": 9084,
      "Ġstudying": 9085,
      "Ġstructural": 9086,
      "Ġcommissioned": 9087,
      "Ġprohibited": 9088,
      "English": 9089,
      "iest": 9090,
      "essions": 9091,
      "Ġsystematic": 9092,
      "Ġconfidence": 9093,
      "ĠUSSR": 9094,
      "Ġreturning": 9095,
      "books": 9096,
      "ĠBattalion": 9097,
      "author": 9098,
      "ye": 9099,
      "Ġfill": 9100,
      "anger": 9101,
      "uster": 9102,
      "Ġcompos": 9103,
      "Ġprest": 9104,
      "Ġanniversary": 9105,
      "shire": 9106,
      "lighten": 9107,
      "ĠSwedish": 9108,
      "ĠDenmark": 9109,
      "BI": 9110,
      "Roman": 9111,
      "Ġlies": 9112,
      "Ġliqu": 9113,
      "Ġ37": 9114,
      "190": 9115,
      "ĠStudies": 9116,
      "Ġhunting": 9117,
      "Ġdangerous": 9118,
      "gg": 9119,
      "sec": 9120,
      "ivism": 9121,
      "ĠDirector": 9122,
      "ĠUniversal": 9123,
      "reens": 9124,
      "ĠBureau": 9125,
      "ups": 9126,
      "common": 9127,
      "Ġ1946": 9128,
      "Ġqualified": 9129,
      "ĠServices": 9130,
      "Sp": 9131,
      "Ġsample": 9132,
      "Ġfer": 9133,
      "ĠLow": 9134,
      "ibbean": 9135,
      "Ġproviders": 9136,
      "Ġdebt": 9137,
      "Ġanalyz": 9138,
      "Ġroads": 9139,
      "lock": 9140,
      "cho": 9141,
      "ĠBow": 9142,
      "Ġmeat": 9143,
      "Ġsoil": 9144,
      "Ġannually": 9145,
      "ĠIndependence": 9146,
      "ĠChildren": 9147,
      "Ġvessels": 9148,
      "Ġawareness": 9149,
      "ĠFootball": 9150,
      "Ġdiver": 9151,
      "olis": 9152,
      "ĠRou": 9153,
      "ĠEntertainment": 9154,
      "ĠCa": 9155,
      "Ġstead": 9156,
      "ĠHome": 9157,
      "Ġjump": 9158,
      "178": 9159,
      "Ġhumanity": 9160,
      "Ġcompetitions": 9161,
      "Ġexecution": 9162,
      "bitration": 9163,
      "sourced": 9164,
      "ĠVienna": 9165,
      "Ne": 9166,
      "Ġconvey": 9167,
      "Ġyellow": 9168,
      "Ġfacto": 9169,
      "Ġagreements": 9170,
      "Ġfacility": 9171,
      "ĠWilson": 9172,
      "specific": 9173,
      "een": 9174,
      "Ġ1939": 9175,
      "Ġhence": 9176,
      "ysical": 9177,
      "ĠControl": 9178,
      "Ġemergence": 9179,
      "Ġoverseas": 9180,
      "ker": 9181,
      "ĠCC": 9182,
      "Ġclosing": 9183,
      "Ġendors": 9184,
      "184": 9185,
      "Ġcurric": 9186,
      "Ġparticipating": 9187,
      "econom": 9188,
      "pton": 9189,
      "aked": 9190,
      "Ġplate": 9191,
      "Ġwheel": 9192,
      "ĠStadium": 9193,
      "Ġboys": 9194,
      "Ġlisting": 9195,
      "ĠQur": 9196,
      "ĠFreedom": 9197,
      "Ġsovereignty": 9198,
      "cour": 9199,
      "hus": 9200,
      "ĠLiverpool": 9201,
      "Thank": 9202,
      "Ġusername": 9203,
      "ĠMedicine": 9204,
      "Ġcease": 9205,
      "largest": 9206,
      "Ġunusual": 9207,
      "ĠNevertheless": 9208,
      "ĠSports": 9209,
      "abb": 9210,
      "ĠLog": 9211,
      "192": 9212,
      "Ġextend": 9213,
      "Ġavail": 9214,
      "Ġcamps": 9215,
      "Ġdisputed": 9216,
      "itzerland": 9217,
      "OI": 9218,
      "chers": 9219,
      "ĠCS": 9220,
      "ureauc": 9221,
      "Ġabroad": 9222,
      "ĠAthens": 9223,
      "Ġlegitimate": 9224,
[...]
