{
  "version": "1.0",
  "truncation": null,
  "padding": null,
  "added_tokens": [],
  "normalizer": null,
  "pre_tokenizer": {
    "type": "ByteLevel",
    "add_prefix_space": false,
    "trim_offsets": true,
    "use_regex": true
  },
  "post_processor": {
    "type": "ByteLevel",
    "add_prefix_space": true,
    "trim_offsets": false,
    "use_regex": true
  },
  "decoder": {
    "type": "ByteLevel",
    "add_prefix_space": true,
    "trim_offsets": true,
    "use_regex": true
  },
  "model": {
    "type": "BPE",
    "dropout": null,
    "unk_token": null,
    "continuing_subword_prefix": null,
    "end_of_word_suffix": null,
    "fuse_unk": false,
    "byte_fallback": false,
    "vocab": {
      "!": 0,
      "\"": 1,
      "#": 2,
      "$": 3,
      "%": 4,
      "&": 5,
      "'": 6,
      "(": 7,
      ")": 8,
      "*": 9,
      "+": 10,
      ",": 11,
      "-": 12,
      ".": 13,
      "/": 14,
      "0": 15,
      "1": 16,
      "2": 17,
      "3": 18,
      "4": 19,
      "5": 20,
      "6": 21,
      "7": 22,
      "8": 23,
      "9": 24,
      ":": 25,
      ";": 26,
      "<": 27,
      "=": 28,
      ">": 29,
      "?": 30,
      "@": 31,
      "A": 32,
      "B": 33,
      "C": 34,
      "D": 35,
      "E": 36,
      "F": 37,
      "G": 38,
      "H": 39,
      "I": 40,
      "J": 41,
      "K": 42,
      "L": 43,
      "M": 44,
      "N": 45,
      "O": 46,
      "P": 47,
      "Q": 48,
      "R": 49,
      "S": 50,
      "T": 51,
      "U": 52,
      "V": 53,
      "W": 54,
      "X": 55,
      "Y": 56,
      "Z": 57,
      "[": 58,
      "\\": 59,
      "]": 60,
      "^": 61,
      "_": 62,
      "`": 63,
      "a": 64,
      "b": 65,
      "c": 66,
      "d": 67,
      "e": 68,
      "f": 69,
      "g": 70,
      "h": 71,
      "i": 72,
      "j": 73,
      "k": 74,
      "l": 75,
      "m": 76,
      "n": 77,
      "o": 78,
      "p": 79,
      "q": 80,
      "r": 81,
      "s": 82,
      "t": 83,
      "u": 84,
      "v": 85,
      "w": 86,
      "x": 87,
      "y": 88,
      "z": 89,
      "{": 90,
      "|": 91,
      "}": 92,
      "~": 93,
      "¡": 94,
      "¢": 95,
      "£": 96,
      "¤": 97,
      "¥": 98,
      "¦": 99,
      "§": 100,
      "¨": 101,
      "©": 102,
      "ª": 103,
      "«": 104,
      "¬": 105,
      "®": 106,
      "¯": 107,
      "°": 108,
      "±": 109,
      "²": 110,
      "³": 111,
      "´": 112,
      "µ": 113,
      "¶": 114,
      "·": 115,
      "¸": 116,
      "¹": 117,
      "º": 118,
      "»": 119,
      "¼": 120,
      "½": 121,
      "¾": 122,
      "¿": 123,
      "À": 124,
      "Á": 125,
      "Â": 126,
      "Ã": 127,
      "Ä": 128,
      "Å": 129,
      "Æ": 130,
      "Ç": 131,
      "È": 132,
      "É": 133,
      "Ê": 134,
      "Ë": 135,
      "Ì": 136,
      "Í": 137,
      "Î": 138,
      "Ï": 139,
      "Ð": 140,
      "Ñ": 141,
      "Ò": 142,
      "Ó": 143,
      "Ô": 144,
      "Õ": 145,
      "Ö": 146,
      "×": 147,
      "Ø": 148,
      "Ù": 149,
      "Ú": 150,
      "Û": 151,
      "Ü": 152,
      "Ý": 153,
      "Þ": 154,
      "ß": 155,
      "à": 156,
      "á": 157,
      "â": 158,
      "ã": 159,
      "ä": 160,
      "å": 161,
      "æ": 162,
      "ç": 163,
      "è": 164,
      "é": 165,
      "ê": 166,
      "ë": 167,
      "ì": 168,
      "í": 169,
      "î": 170,
      "ï": 171,
      "ð": 172,
      "ñ": 173,
      "ò": 174,
      "ó": 175,
      "ô": 176,
      "õ": 177,
      "ö": 178,
      "÷": 179,
      "ø": 180,
      "ù": 181,
      "ú": 182,
      "û": 183,
      "ü": 184,
      "ý": 185,
      "þ": 186,
      "ÿ": 187,
      "Ā": 188,
      "ā": 189,
      "Ă": 190,
      "ă": 191,
      "Ą": 192,
      "ą": 193,
      "Ć": 194,
      "ć": 195,
      "Ĉ": 196,
      "ĉ": 197,
      "Ċ": 198,
      "ċ": 199,
      "Č": 200,
      "č": 201,
      "Ď": 202,
      "ď": 203,
      "Đ": 204,
      "đ": 205,
      "Ē": 206,
      "ē": 207,
      "Ĕ": 208,
      "ĕ": 209,
      "Ė": 210,
      "ė": 211,
      "Ę": 212,
      "ę": 213,
      "Ě": 214,
      "ě": 215,
      "Ĝ": 216,
      "ĝ": 217,
      "Ğ": 218,
      "ğ": 219,
      "Ġ": 220,
      "ġ": 221,
      "Ģ": 222,
      "ģ": 223,
      "Ĥ": 224,
      "ĥ": 225,
      "Ħ": 226,
      "ħ": 227,
      "Ĩ": 228,
      "ĩ": 229,
      "Ī": 230,
      "ī": 231,
      "Ĭ": 232,
      "ĭ": 233,
      "Į": 234,
      "į": 235,
      "İ": 236,
      "ı": 237,
      "Ĳ": 238,
      "ĳ": 239,
      "Ĵ": 240,
      "ĵ": 241,
      "Ķ": 242,
      "ķ": 243,
      "ĸ": 244,
      "Ĺ": 245,
      "ĺ": 246,
      "Ļ": 247,
      "ļ": 248,
      "Ľ": 249,
      "ľ": 250,
      "Ŀ": 251,
      "ŀ": 252,
      "Ł": 253,
      "ł": 254,
      "Ń": 255,
      "Ġt": 256,
      "Ġa": 257,
      "he": 258,
      "in": 259,
      "re": 260,
      "on": 261,
      "Ġthe": 262,
      "er": 263,
      "Ġo": 264,
      "at": 265,
      "Ġs": 266,
      "ed": 267,
      "es": 268,
      "Ġc": 269,
      "en": 270,
      "it": 271,
      "is": 272,
      "an": 273,
      "or": 274,
      "Ġw": 275,
      "al": 276,
      "Ġp": 277,
      "Ġan": 278,
      "Ġb": 279,
      "Ġin": 280,
      "Ġof": 281,
      "Ġf": 282,
      "ar": 283,
      "ing": 284,
      "ic": 285,
      "ion": 286,
      "Ġto": 287,
      "Ġm": 288,
      "Ġand": 289,
      "ou": 290,
      "le": 291,
      "Ġd": 292,
      "as": 293,
      "om": 294,
      "Ġh": 295,
      "Ġre": 296,
      "Ġth": 297,
      "ent": 298,
      "us": 299,
      "Ġn": 300,
      "ly": 301,
      "ct": 302,
      "Ġe": 303,
      "Ġbe": 304,
      "ro": 305,
      "ve": 306,
      "Ġl": 307,
      "am": 308,
      ".[": 309,
      "ot": 310,
      "il": 311,
      "Ġis": 312,
      "ol": 313,
      "ĠT": 314,
      "ation": 315,
      "st": 316,
      "im": 317,
      "ce": 318,
      "Ġg": 319,
      "id": 320,
      "ĠA": 321,
      "Ġon": 322,
      "Ġfor": 323,
      "ut": 324,
      "ch": 325,
      "ĠI": 326,
      "Ġas": 327,
      "Ġthat": 328,
      "ĠS": 329,
      "ag": 330,
      "ad": 331,
      "ig": 332,
      "ers": 333,
      "Ġcon": 334,
      "ow": 335,
      "un": 336,
      "ay": 337,
      "et": 338,
      "ur": 339,
      "Ġ2": 340,
      "el": 341,
      "ith": 342,
      "ĠC": 343,
      "ir": 344,
      "Ġor": 345,
      "Ġ(": 346,
      "Ġst": 347,
      "ist": 348,
      "ĠW": 349,
      "Ġwith": 350,
      "ul": 351,
      "her": 352,
      "ra": 353,
      "Ġ1": 354,
      "Ġal": 355,
      "ia": 356,
      "Ġare": 357,
      "ate": 358,
      "Ġit": 359,
      "um": 360,
      "ver": 361,
      "if": 362,
      "ip": 363,
      "em": 364,
      "ĠThe": 365,
      "Ġwh": 366,
      "os": 367,
      "Ġby": 368,
      "ter": 369,
      "ĠM": 370,
      "op": 371,
      "Ġ20": 372,
      "ik": 373,
      "ere": 374,
      "iv": 375,
      "ies": 376,
      "Ġwas": 377,
      "ld": 378,
      "Ġsu": 379,
      "Ġpro": 380,
      "Ġus": 381,
      "Ġ\"": 382,
      "ĠB": 383,
      "Ġex": 384,
      "Ġv": 385,
      "'s": 386,
      "Ġde": 387,
      "Ġmo": 388,
      "Ġse": 389,
      "Ġar": 390,
      "Ġcom": 391,
      "est": 392,
      "pe": 393,
      "th": 394,
      "Ġnot": 395,
      "oun": 396,
      "rom": 397,
      "ian": 398,
      "ĠP": 399,
      "ac": 400,
      "ive": 401,
      "and": 402,
      "ĠF": 403,
      "ĠN": 404,
      "ĠH": 405,
      "ab": 406,
      "ĠR": 407,
      "ain": 408,
      "Ġat": 409,
      "qu": 410,
      "res": 411,
      "age": 412,
      "ial": 413,
      "Ġy": 414,
      "ity": 415,
      "tic": 416,
      "oc": 417,
      "ces": 418,
      "se": 419,
      "our": 420,
      "ĠE": 421,
      "Ġfrom": 422,
      "ther": 423,
      "ĠG": 424,
      "Ġha": 425,
      "ew": 426,
      "Ġr": 427,
      "ud": 428,
      "ts": 429,
      "ment": 430,
      "pl": 431,
      "ib": 432,
      "Ġun": 433,
      "edia": 434,
      "ions": 435,
      "ĠD": 436,
      "od": 437,
      "ill": 438,
      "Ġsh": 439,
      "Ġhe": 440,
      "ame": 441,
      "ĠU": 442,
      "end": 443,
      "ated": 444,
      "Ġcont": 445,
      "cl": 446,
      "ary": 447,
      "igh": 448,
      "og": 449,
      "Ġpl": 450,
      "ich": 451,
      "Ġhave": 452,
      "ould": 453,
      "ect": 454,
      "ort": 455,
      "Ġch": 456,
      "ĠIn": 457,
      "ical": 458,
      "ĠL": 459,
      "Ġad": 460,
      "all": 461,
      "ak": 462,
      "][": 463,
      "ĠO": 464,
      "ure": 465,
      "pp": 466,
      "Ġwhich": 467,
      "Ġed": 468,
      "ĠWik": 469,
      "ĠJ": 470,
      "Ġk": 471,
      "Ġcan": 472,
      "pt": 473,
      "Ġthis": 474,
      "ine": 475,
      "Ġle": 476,
      "ard": 477,
      "ge": 478,
      "ome": 479,
      "The": 480,
      "Ġedit": 481,
      "Ġdis": 482,
      "Ġother": 483,
      "ber": 484,
      "so": 485,
      "ant": 486,
      "Ġwor": 487,
      "Ġint": 488,
      "Ġartic": 489,
      "gh": 490,
      "ipedia": 491,
      "ual": 492,
      "ust": 493,
      "Ġhas": 494,
      "red": 495,
      "Ġ19": 496,
      "Ġwere": 497,
      "iz": 498,
      "ide": 499,
      "der": 500,
      "Ġab": 501,
      "Ġim": 502,
      "art": 503,
      "ous": 504,
      "out": 505,
      "ough": 506,
      "ub": 507,
      "ans": 508,
      "les": 509,
      "uss": 510,
      "Ġac": 511,
      "Ġcl": 512,
      "ong": 513,
      "Ġne": 514,
      "Ġtheir": 515,
      "Ġall": 516,
      "Ġcomp": 517,
      "ack": 518,
      "ĠWikipedia": 519,
      "ations": 520,
      "ru": 521,
      "ult": 522,
      "ors": 523,
      "ight": 524,
      "ence": 525,
      "ound": 526,
      "ap": 527,
      "00": 528,
      "clud": 529,
      "Ġalso": 530,
      "Ġbut": 531,
      "ĠK": 532,
      "up": 533,
      "ast": 534,
      "Ġres": 535,
      "Ġwhe": 536,
      "ens": 537,
      "Ġte": 538,
      "ish": 539,
      "act": 540,
      "ang": 541,
      "ore": 542,
      "Ġyou": 543,
      "Ġits": 544,
      "ell": 545,
      "orm": 546,
      "ie": 547,
      "ks": 548,
      "pec": 549,
      "ction": 550,
      "able": 551,
      "ages": 552,
      "Ġmay": 553,
      "Ġpage": 554,
      "ition": 555,
      "av": 556,
      "Ġ201": 557,
      "ree": 558,
      "Ġtr": 559,
      "ess": 560,
      "Ġone": 561,
      "rit": 562,
      "Ġ202": 563,
      "Ġinclud": 564,
      "ates": 565,
      "ass": 566,
      "ĠTh": 567,
      "Ġen": 568,
      "ory": 569,
      "tern": 570,
      "Ġev": 571,
      "ue": 572,
      "Ġsuch": 573,
      "Ġbeen": 574,
      "ile": 575,
      "ire": 576,
      "cess": 577,
      "Ġthey": 578,
      "per": 579,
      "Ġmore": 580,
      "irst": 581,
      "vel": 582,
      "Ġcomm": 583,
      "Ġplay": 584,
      "ign": 585,
      "ff": 586,
      "Ġarticle": 587,
      "Ġhum": 588,
      "ĠSt": 589,
      "ames": 590,
      "Ġper": 591,
      "nt": 592,
      "du": 593,
      "Ġhis": 594,
      "oll": 595,
      "Ġj": 596,
      "olog": 597,
      "Ġdo": 598,
      "ep": 599,
      "ost": 600,
      "Ġcons": 601,
      "ace": 602,
      "ord": 603,
      "any": 604,
      "Ġ200": 605,
      "now": 606,
      "ime": 607,
      "ear": 608,
      "ok": 609,
      "Ġrel": 610,
      "Ġhad": 611,
      "Ġfirst": 612,
      "Ġag": 613,
      "int": 614,
      "Ġform": 615,
      "ose": 616,
      "fere": 617,
      "are": 618,
      "Ġwe": 619,
      "ase": 620,
      "Ġuse": 621,
      "Ġsc": 622,
      "Ġgr": 623,
      "Ġinf": 624,
      "ubl": 625,
      "Ġgo": 626,
      "ced": 627,
      "ater": 628,
      "alk": 629,
      "ally": 630,
      "Ġpr": 631,
      "ink": 632,
      "ject": 633,
      "Ġpre": 634,
      "amp": 635,
      "Ġsub": 636,
      "Ġsome": 637,
      "Ġpar": 638,
      "hed": 639,
      "Ġsp": 640,
      "Ġadd": 641,
      "ific": 642,
      "ount": 643,
      "ance": 644,
      "Ġind": 645,
      "Ġbec": 646,
      "rib": 647,
      "Ġany": 648,
      "ĠRuss": 649,
      "Ġqu": 650,
      "Ġspec": 651,
      "Ġrep": 652,
      "ĠCh": 653,
      "con": 654,
      "ach": 655,
      "Ġatt": 656,
      "wo": 657,
      "Ġshould": 658,
      "ry": 659,
      "Ġcre": 660,
      "Ġmost": 661,
      "vi": 662,
      "Ġused": 663,
      "ied": 664,
      "ike": 665,
      "ite": 666,
      "Ġwould": 667,
      "Ġwho": 668,
      "one": 669,
      "ind": 670,
      "hes": 671,
      "Ġdes": 672,
      "ail": 673,
      "In": 674,
      "Ġnew": 675,
      "Ġknow": 676,
      "ased": 677,
      "fter": 678,
      "Ġso": 679,
      "Ġout": 680,
      "ph": 681,
      "Ġme": 682,
      "ved": 683,
      "ict": 684,
      "tw": 685,
      "Ġpe": 686,
      "Ġgen": 687,
      "Ġover": 688,
      "Ġrec": 689,
      "Ġabout": 690,
      ",[": 691,
      "Ġthan": 692,
      "Ġimp": 693,
      "ĠV": 694,
      "ational": 695,
      "ice": 696,
      "Ġthere": 697,
      "ari": 698,
      "aw": 699,
      "ative": 700,
      "ress": 701,
      "ons": 702,
      "Ġser": 703,
      "erm": 704,
      "arch": 705,
      "rain": 706,
      "Ġinto": 707,
      "),": 708,
      "xt": 709,
      "led": 710,
      "ited": 711,
      "Ġpubl": 712,
      "Ġtwo": 713,
      "te": 714,
      "Ġdisc": 715,
      "Ġonly": 716,
      "Ġap": 717,
      "ism": 718,
      "Ġsy": 719,
      "ade": 720,
      "Ġgame": 721,
      "Ġwill": 722,
      "aus": 723,
      "ents": 724,
      "oup": 725,
      "een": 726,
      "Ġif": 727,
      "Ġup": 728,
      "Ġdef": 729,
      "uring": 730,
      "Ġunder": 731,
      "ng": 732,
      "ered": 733,
      "ings": 734,
      "mer": 735,
      ").": 736,
      "ĠUn": 737,
      "Ġthem": 738,
      "ove": 739,
      "Ġreg": 740,
      "Ġoff": 741,
      "ĠIt": 742,
      "Ġtime": 743,
      "Ġ3": 744,
      "ollow": 745,
      "Ġpos": 746,
      "ĠThis": 747,
      "Ġdif": 748,
      "ake": 749,
      "Ġpol": 750,
      "arly": 751,
      "Ġacc": 752,
      "Ġwhen": 753,
      "Ġhuman": 754,
      "Ġsour": 755,
      "ople": 756,
      "Ġapp": 757,
      "TC": 758,
      "Ġno": 759,
      "Ġyear": 760,
      "rough": 761,
      "ĠUk": 762,
      "Ġrem": 763,
      "Ġbot": 764,
      "Ġnum": 765,
      "ĠY": 766,
      "old": 767,
      "UTC": 768,
      "gan": 769,
      "ating": 770,
      "Ġrequ": 771,
      "ics": 772,
      "oot": 773,
      "velop": 774,
      "ident": 775,
      "als": 776,
      "ĠAl": 777,
      "ĠAr": 778,
      "Ġact": 779,
      "ble": 780,
      "ever": 781,
      "ution": 782,
      "ten": 783,
      "Ġpart": 784,
      "Ġafter": 785,
      "Ġfollow": 786,
      "Ġbetw": 787,
      "Ġbetween": 788,
      "Ġpeople": 789,
      "Ġpages": 790,
      "stem": 791,
      "hip": 792,
      "ark": 793,
      "Ġbel": 794,
      "Ġmany": 795,
      "Ġwork": 796,
      "Ġpres": 797,
      "ĠIs": 798,
      "Ġdevelop": 799,
      "very": 800,
      "Ġass": 801,
      "wn": 802,
      "Ġpers": 803,
      "ov": 804,
      "ri": 805,
      "Ġarticles": 806,
      "Ġvi": 807,
      "ran": 808,
      "Ġam": 809,
      "Ġlike": 810,
      "lish": 811,
      "cept": 812,
      "lect": 813,
      "ĠSe": 814,
      "Ġgames": 815,
      "ne": 816,
      "Ġph": 817,
      "ĠRussian": 818,
      "ays": 819,
      "Ġpo": 820,
      "Ġbl": 821,
      "Ġgroup": 822,
      "ists": 823,
      "ral": 824,
      "Ġthese": 825,
      "Ġinv": 826,
      "Ġthrough": 827,
      "ically": 828,
      "iss": 829,
      "ateg": 830,
      "Ġbeing": 831,
      "19": 832,
      "ities": 833,
      "eb": 834,
      "10": 835,
      "ĠFor": 836,
      "ments": 837,
      "ible": 838,
      "cc": 839,
      "inist": 840,
      "Ġneed": 841,
      "Ġgener": 842,
      "Ġsoc": 843,
      "Ġyour": 844,
      "Ġco": 845,
      "Ġfe": 846,
      "ause": 847,
      "ĠDe": 848,
      "Ġaut": 849,
      "ĠEng": 850,
      "ular": 851,
      "12": 852,
      "ince": 853,
      "Ġlar": 854,
      "Ġinc": 855,
      "Ġmat": 856,
      "ob": 857,
      "tain": 858,
      "Ġdiffere": 859,
      "Ġcount": 860,
      "Ġstate": 861,
      "Ġro": 862,
      "Ġinform": 863,
      "ĠAn": 864,
      "ted": 865,
      "ys": 866,
      "rop": 867,
      "ology": 868,
      "Ġwhere": 869,
      "ature": 870,
      "ĠAs": 871,
      "Ġsystem": 872,
      "ock": 873,
      "fore": 874,
      "Ġinter": 875,
      "ually": 876,
      "ures": 877,
      "ning": 878,
      "Ġtem": 879,
      "owever": 880,
      "ility": 881,
      "Ġsupp": 882,
      "ient": 883,
      "ished": 884,
      "cy": 885,
      "pect": 886,
      "ise": 887,
      "Ġworld": 888,
      "ck": 889,
      "Ġsim": 890,
      "ick": 891,
      "Ġprov": 892,
      "Ġcol": 893,
      "ample": 894,
      "ild": 895,
      "Ġagain": 896,
      "ines": 897,
      "inal": 898,
      "Ġbo": 899,
      "Ġwell": 900,
      "hen": 901,
      "Ġuser": 902,
      "Ġdiscuss": 903,
      "ason": 904,
      "uch": 905,
      "Ġend": 906,
      "Ġcontent": 907,
      "ized": 908,
      "Ġref": 909,
      "Ġincluding": 910,
      "Ġrele": 911,
      "reat": 912,
      "Ġcent": 913,
      ".\"": 914,
      "aid": 915,
      "Ġ18": 916,
      "Ġnumber": 917,
      "Ġob": 918,
      "rat": 919,
      "'t": 920,
      "Ġent": 921,
      "Ġconsid": 922,
      "Ġem": 923,
      "13": 924,
      "urn": 925,
      "Ġinst": 926,
      "ivers": 927,
      "meric": 928,
      "Ġexp": 929,
      "Ġ4": 930,
      "ĠEnglish": 931,
      "\",": 932,
      "omm": 933,
      "Ġext": 934,
      "ĠHe": 935,
      "mber": 936,
      "own": 937,
      "gr": 938,
      "irect": 939,
      "Ġinformation": 940,
      "Ġexample": 941,
      "ians": 942,
      "20": 943,
      "Ġduring": 944,
      "Ġstud": 945,
      "16": 946,
      "other": 947,
      "Ġpartic": 948,
      "14": 949,
      "Ġcop": 950,
      "Ġmain": 951,
      "ix": 952,
      "ful": 953,
      "Ġman": 954,
      "Ġlist": 955,
      "Ġwar": 956,
      "Ġdesc": 957,
      "Ġop": 958,
      "Ġfound": 959,
      "uro": 960,
      "Ġappe": 961,
      "Ġset": 962,
      "ural": 963,
      "Ġwhile": 964,
      "yr": 965,
      "rael": 966,
      "Ġpop": 967,
      "Ġperson": 968,
      "..": 969,
      "17": 970,
      "ward": 971,
      "ĠAmeric": 972,
      "elf": 973,
      "ribut": 974,
      "ond": 975,
      "talk": 976,
      "Ġcall": 977,
      "Ġthen": 978,
      "angu": 979,
      "Ġstr": 980,
      "Ġhel": 981,
      "Ġyears": 982,
      "ĠIsrael": 983,
      "Ġsign": 984,
      "Ġchar": 985,
      "Ġav": 986,
      "Ġwrit": 987,
      "ĠFeb": 988,
      "Ġsee": 989,
      "Ġpublic": 990,
      "Ġprodu": 991,
      "Ġmade": 992,
      "Ġconf": 993,
      "ath": 994,
      "Ġgu": 995,
      "yp": 996,
      "Ġtop": 997,
      "ilit": 998,
      "Ġchang": 999,
      "15": 1000,
      "view": 1001,
      "Ġboth": 1002,
      "aj": 1003,
      "imes": 1004,
      "Ġ5": 1005,
      "ĠZ": 1006,
      "Ġorig": 1007,
      "Ġwhat": 1008,
      "Ġdifferent": 1009,
      "Ġtempl": 1010,
      "ves": 1011,
      "raph": 1012,
      "ially": 1013,
      "eld": 1014,
      "az": 1015,
      "row": 1016,
      "ruary": 1017,
      "med": 1018,
      "Ġsame": 1019,
      "ving": 1020,
      "ron": 1021,
      "18": 1022,
      "Ġeach": 1023,
      "ĠFebruary": 1024,
      "gest": 1025,
      "put": 1026,
      "Ġhist": 1027,
      "Ġteam": 1028,
      "Ġmem": 1029,
      "000": 1030,
      "ood": 1031,
      "Ġallow": 1032,
      "ange": 1033,
      "ball": 1034,
      "cond": 1035,
      "Ġdet": 1036,
      "Ġown": 1037,
      "orted": 1038,
      "Ġeditors": 1039,
      "vern": 1040,
      "Ġprot": 1041,
      "Ġ199": 1042,
      "ah": 1043,
      "Ġattack": 1044,
      "ric": 1045,
      "Ġcommun": 1046,
      "Ġagainst": 1047,
      "rol": 1048,
      "Ġdist": 1049,
      "ief": 1050,
      "Ġfollowing": 1051,
      "ren": 1052,
      "Ġvari": 1053,
      "Ġusing": 1054,
      "form": 1055,
      "Ġhumans": 1056,
      "ior": 1057,
      "ars": 1058,
      "Ġpolic": 1059,
      "ivid": 1060,
      "ract": 1061,
      "Ġra": 1062,
      "olution": 1063,
      "ĠOn": 1064,
      "Ġhelp": 1065,
      "land": 1066,
      "ense": 1067,
      "Ġexpl": 1068,
      "Ġtext": 1069,
      "oy": 1070,
      "Ġthree": 1071,
      "Ġlead": 1072,
      "minist": 1073,
      "Ġterm": 1074,
      "ious": 1075,
      "Ġtrans": 1076,
      "Ġlangu": 1077,
      "hess": 1078,
      "ting": 1079,
      "its": 1080,
      "Ġinclude": 1081,
      "ruct": 1082,
      "ower": 1083,
      "Ġdoes": 1084,
      "Ġtalk": 1085,
      "Ġnon": 1086,
      "Ġview": 1087,
      "Ġsaid": 1088,
      "ĠIf": 1089,
      "omin": 1090,
      "Ġmake": 1091,
      "Ġlong": 1092,
      "Ġposs": 1093,
      "Ġbecause": 1094,
      "vent": 1095,
      "ined": 1096,
      "ank": 1097,
      "Ġread": 1098,
      "Ġjust": 1099,
      "Ġwithout": 1100,
      "feren": 1101,
      "uc": 1102,
      "ann": 1103,
      "Ġcommon": 1104,
      "ision": 1105,
      "Ġprocess": 1106,
      "Ġcor": 1107,
      "ft": 1108,
      "ĠEuro": 1109,
      "ledge": 1110,
      "Ġname": 1111,
      "ording": 1112,
      "ply": 1113,
      "ser": 1114,
      "eth": 1115,
      "Ġsince": 1116,
      "ale": 1117,
      "Ġcontin": 1118,
      "ffect": 1119,
      "Ġbefore": 1120,
      "ex": 1121,
      "Ġdec": 1122,
      "aking": 1123,
      "ience": 1124,
      "ook": 1125,
      "outh": 1126,
      "ĠUnited": 1127,
      "Ġoften": 1128,
      "ĠRe": 1129,
      "aim": 1130,
      "\".[": 1131,
      "intend": 1132,
      "ins": 1133,
      "hor": 1134,
      "ily": 1135,
      "rent": 1136,
      "ues": 1137,
      "ĠUkrain": 1138,
      "Ġthose": 1139,
      "par": 1140,
      "raine": 1141,
      "ified": 1142,
      "Ġcur": 1143,
      "Ġknown": 1144,
      "intendo": 1145,
      "ajor": 1146,
      "Ġest": 1147,
      "Ġann": 1148,
      "pos": 1149,
      "chn": 1150,
      "Ġorgan": 1151,
      "ug": 1152,
      "Ġcult": 1153,
      "Ġart": 1154,
      "ĠInd": 1155,
      "Ġspecies": 1156,
      "Ġsources": 1157,
      "vers": 1158,
      "Th": 1159,
      "Ġmilit": 1160,
      "Ġcould": 1161,
      "Ġsecond": 1162,
      "ĠEurope": 1163,
      "Ġcateg": 1164,
      "Ġbeh": 1165,
      "ired": 1166,
      "ĠĊ": 1167,
      "ros": 1168,
      "Ġeven": 1169,
      "Ġfact": 1170,
      "Ġmon": 1171,
      "ared": 1172,
      "ives": 1173,
      "Ġcomple": 1174,
      "Ġexper": 1175,
      "bers": 1176,
      "ged": 1177,
      "ife": 1178,
      "Ġhow": 1179,
      "pr": 1180,
      "ĠSh": 1181,
      "ĠNintendo": 1182,
      "Ġsever": 1183,
      "ĠUkraine": 1184,
      "Ġlater": 1185,
      "Ġgovern": 1186,
      "ather": 1187,
      "orld": 1188,
      "Ġseveral": 1189,
      "Ġloc": 1190,
      "ize": 1191,
      "Ġcharact": 1192,
      "Ġback": 1193,
      "22": 1194,
      "Ġbi": 1195,
      "ories": 1196,
      "ĠHowever": 1197,
      "Ġshow": 1198,
      "ases": 1199,
      "Ġmove": 1200,
      "ĠComm": 1201,
      "Ġmajor": 1202,
      "ĠNew": 1203,
      "Ġocc": 1204,
      "Ġhigh": 1205,
      "ĠUkrainian": 1206,
      "On": 1207,
      "line": 1208,
      "ivil": 1209,
      "Ġvers": 1210,
      "ĠRussia": 1211,
      "Ġknowledge": 1212,
      "though": 1213,
      "}}": 1214,
      "ries": 1215,
      "Ġmark": 1216,
      "Ġ6": 1217,
      "Ġlarge": 1218,
      "ork": 1219,
      "ury": 1220,
      "Ġclaim": 1221,
      "ootball": 1222,
      "Ġsource": 1223,
      "ional": 1224,
      "Ġfun": 1225,
      "apt": 1226,
      "Ġoffic": 1227,
      "ights": 1228,
      "{{": 1229,
      "Ġ'": 1230,
      "Ġhim": 1231,
      "Ġcalled": 1232,
      "Ġ0": 1233,
      "Ġresp": 1234,
      "ober": 1235,
      "Ġfil": 1236,
      "get": 1237,
      "illion": 1238,
      "Ġfour": 1239,
      "cer": 1240,
      "Ġ2024": 1241,
      "ological": 1242,
      "Ġsubject": 1243,
      "ived": 1244,
      "Ġsection": 1245,
      "ax": 1246,
      "Ġthough": 1247,
      "ny": 1248,
      "oss": 1249,
      "rip": 1250,
      "Wik": 1251,
      "yright": 1252,
      "Ġsur": 1253,
      "Ġsocial": 1254,
      "orth": 1255,
      "oci": 1256,
      "anu": 1257,
      "ended": 1258,
      "Ġtra": 1259,
      "Ġlink": 1260,
      "ization": 1261,
      "Ġdirect": 1262,
      "itions": 1263,
      "Ġwithin": 1264,
      "Ġret": 1265,
      "let": 1266,
      "air": 1267,
      "Ġword": 1268,
      "Ġopen": 1269,
      "Ġearly": 1270,
      "ĠLe": 1271,
      "Ġcontribut": 1272,
      "Ġway": 1273,
      "Ġeditor": 1274,
      "Ġ2023": 1275,
      "Ġintern": 1276,
      "Ġincre": 1277,
      "Ġsom": 1278,
      "ify": 1279,
      "Ġbro": 1280,
      "Ġimage": 1281,
      "Ġnames": 1282,
      "Ġplayers": 1283,
      "ke": 1284,
      "aterial": 1285,
      "Ġfl": 1286,
      "ll": 1287,
      "ently": 1288,
      "Ġiss": 1289,
      "iving": 1290,
      "Ġadv": 1291,
      "Ġbased": 1292,
      "Ġprim": 1293,
      "FL": 1294,
      "Ġdescrib": 1295,
      "not": 1296,
      "tle": 1297,
      "Ġtechn": 1298,
      "Ġmust": 1299,
      "ised": 1300,
      "ately": 1301,
      "Ġcit": 1302,
      "Ġwik": 1303,
      "25": 1304,
      "Ġtit": 1305,
      "Ġ17": 1306,
      "ĠWorld": 1307,
      "uman": 1308,
      "Ġcontrol": 1309,
      "Ġrequest": 1310,
      "23": 1311,
      "orts": 1312,
      "Ġchanges": 1313,
      "ĠOct": 1314,
      "24": 1315,
      "ull": 1316,
      "Ġmod": 1317,
      "11": 1318,
      "Ġtyp": 1319,
      "Ġplace": 1320,
      "Ġkill": 1321,
      "Ġanother": 1322,
      "ĠWar": 1323,
      "Ġdep": 1324,
      "Ġadminist": 1325,
      "Ġmilitary": 1326,
      "play": 1327,
      "Ġresult": 1328,
      "Ġfam": 1329,
      ".\"[": 1330,
      "Ġ15": 1331,
      "ĠAust": 1332,
      "ividual": 1333,
      "ield": 1334,
      "Ġusers": 1335,
      "Ġmaterial": 1336,
      "iod": 1337,
      "Ġ7": 1338,
      "Ġ{{": 1339,
      "Ġsupport": 1340,
      "the": 1341,
      "ĠThey": 1342,
      "Ġanim": 1343,
      "Ġtemplate": 1344,
      "Ġimport": 1345,
      "blem": 1346,
      "Ġstart": 1347,
      "anuary": 1348,
      "man": 1349,
      "ier": 1350,
      "iven": 1351,
      "ants": 1352,
      "ailable": 1353,
      "Ġstand": 1354,
      "eply": 1355,
      "Ġpresent": 1356,
      "Ġcopyright": 1357,
      "ven": 1358,
      "Ġfree": 1359,
      "ĠJanuary": 1360,
      "Ġseries": 1361,
      "Ġproject": 1362,
      "Ġexist": 1363,
      "Ġcrit": 1364,
      "Ġclass": 1365,
      "Ġpoint": 1366,
      "read": 1367,
      "Ġmoder": 1368,
      "Ġthink": 1369,
      "\".": 1370,
      "ĠCon": 1371,
      "Ġaccess": 1372,
      "Ġediting": 1373,
      "Ġcurrent": 1374,
      "sy": 1375,
      "Ġsm": 1376,
      "Ġ-": 1377,
      "ĠOctober": 1378,
      "ales": 1379,
      "ave": 1380,
      "Ġ10": 1381,
      "Ġprom": 1382,
      "ird": 1383,
      "Ġprotect": 1384,
      "Ġdiscussion": 1385,
      "Ġcivil": 1386,
      "Ġdue": 1387,
      "rodu": 1388,
      "ĠPal": 1389,
      "Ġproblem": 1390,
      "Ġindividual": 1391,
      "Ġprovid": 1392,
      "Ġvery": 1393,
      "Ġrul": 1394,
      "ĠStates": 1395,
      "Ġremain": 1396,
      "Ġval": 1397,
      "Ġgood": 1398,
      "reply": 1399,
      "str": 1400,
      "Ġappro": 1401,
      "less": 1402,
      "Ġconsidered": 1403,
      "Reply": 1404,
      "ets": 1405,
      "Ġrese": 1406,
      "Ġsing": 1407,
      "Ġbr": 1408,
      "Ġlevel": 1409,
      "Ġfind": 1410,
      "ool": 1411,
      "Ġperiod": 1412,
      "Ġlaw": 1413,
      "Ġaddition": 1414,
      "Ġ8": 1415,
      "Ġcar": 1416,
      "amm": 1417,
      "ideo": 1418,
      "Ġreported": 1419,
      "ody": 1420,
      "ety": 1421,
      "ards": 1422,
      "vious": 1423,
      "ality": 1424,
      "Ġavailable": 1425,
      "arl": 1426,
      "Ġconst": 1427,
      "bs": 1428,
      "Ġmin": 1429,
      "Ġcap": 1430,
      "Ġplayer": 1431,
      "yle": 1432,
      "Ġoper": 1433,
      "ata": 1434,
      "Ġunt": 1435,
      "Ġche": 1436,
      "ĠAustral": 1437,
      "ĠWh": 1438,
      "Ġsch": 1439,
      "Ġlanguage": 1440,
      "ead": 1441,
      "Ġothers": 1442,
      "Ġannoun": 1443,
      "ament": 1444,
      "Ġbecame": 1445,
      "ec": 1446,
      "ulation": 1447,
      "Ġhistory": 1448,
      "ogn": 1449,
      "27": 1450,
      "lu": 1451,
      "Ġident": 1452,
      "aval": 1453,
      "oh": 1454,
      "Ġstill": 1455,
      "ograph": 1456,
      "ued": 1457,
      "Ġauthor": 1458,
      "Ġmodern": 1459,
      "Ġide": 1460,
      "ae": 1461,
      "ilar": 1462,
      "ĠThere": 1463,
      "Ġreview": 1464,
      "Ġdra": 1465,
      "sc": 1466,
      "Ġele": 1467,
      "Ġrepres": 1468,
      "Ġchess": 1469,
      "cember": 1470,
      "ĠIntern": 1471,
      "Ġ198": 1472,
      "cycl": 1473,
      "itive": 1474,
      "iable": 1475,
      "Ġcontain": 1476,
      "ĠDecember": 1477,
      "io": 1478,
      "olved": 1479,
      "Ġsignific": 1480,
      "Ġforces": 1481,
      "Ġopp": 1482,
      "Ġaround": 1483,
      "ĠAmerican": 1484,
      "ital": 1485,
      "ices": 1486,
      "Ġleg": 1487,
      "Ġher": 1488,
      "ĠAd": 1489,
      "ĠThese": 1490,
      "Ġuntil": 1491,
      "bo": 1492,
      "ĠMarch": 1493,
      "ention": 1494,
      "Ġlim": 1495,
      "cyclop": 1496,
      "Ġchange": 1497,
      "por": 1498,
      "Ġlife": 1499,
      "ither": 1500,
      "ote": 1501,
      "Ġreleased": 1502,
      "Ġmult": 1503,
      "Ġgovernment": 1504,
      "Ġ16": 1505,
      "Ġestab": 1506,
      "Ġmy": 1507,
      "Ġblock": 1508,
      "Ġevery": 1509,
      "ison": 1510,
      "urther": 1511,
      "eral": 1512,
      "ash": 1513,
      "ode": 1514,
      "Ġshort": 1515,
      "Ġmillion": 1516,
      "Ġgroups": 1517,
      "ross": 1518,
      "Ġdid": 1519,
      "Ġamong": 1520,
      "Ġbegan": 1521,
      "Ġhere": 1522,
      "Ġke": 1523,
      "Ġ2022": 1524,
      "Ġquest": 1525,
      "Ġdevelopment": 1526,
      "estin": 1527,
      "Ġcountry": 1528,
      "Ġguid": 1529,
      "Ġdown": 1530,
      "Ġhand": 1531,
      "ember": 1532,
      "Ġpolit": 1533,
      "26": 1534,
      "side": 1535,
      "ctions": 1536,
      "Ġvideo": 1537,
      "Ġsent": 1538,
      "Ġpur": 1539,
      "ĠMay": 1540,
      "This": 1541,
      "Ġserv": 1542,
      "Ġcentury": 1543,
      "aced": 1544,
      "29": 1545,
      "Ġcharacter": 1546,
      "com": 1547,
      "my": 1548,
      "Ġbu": 1549,
      "aun": 1550,
      "Ġcommunity": 1551,
      "Ġbehav": 1552,
      "Ġreferen": 1553,
      "Ġsimilar": 1554,
      "Ġpolicy": 1555,
      "oid": 1556,
      "ĠIran": 1557,
      "Ġcomput": 1558,
      "Ġneeded": 1559,
      "ĠAt": 1560,
      "sych": 1561,
      "avalny": 1562,
      "ty": 1563,
      "ĠBrit": 1564,
      "Ġrecord": 1565,
      "osed": 1566,
      "ien": 1567,
      "ement": 1568,
      "Ġhead": 1569,
      "Ġgeneral": 1570,
      "Ġdon": 1571,
      "28": 1572,
      "30": 1573,
      "If": 1574,
      "oad": 1575,
      "Ġpost": 1576,
      "ertain": 1577,
      "Ġshe": 1578,
      "Ġviol": 1579,
      "Ġ9": 1580,
      "Ġdesign": 1581,
      "Ġsignificant": 1582,
      "omen": 1583,
      "Ġimportant": 1584,
      "els": 1585,
      "Ġprogr": 1586,
      "ript": 1587,
      "Ġcountries": 1588,
      "Ġred": 1589,
      "iple": 1590,
      "bl": 1591,
      "stand": 1592,
      "Ġoriginal": 1593,
      "Ġmus": 1594,
      "lease": 1595,
      "Ġsuc": 1596,
      "Ġcreated": 1597,
      "Ġver": 1598,
      "inks": 1599,
      "Ġdr": 1600,
      "Ġpublished": 1601,
      "ness": 1602,
      "Ġcle": 1603,
      "Ġsearch": 1604,
      "Ġsmall": 1605,
      "pace": 1606,
      "Ġmembers": 1607,
      "Ġcompet": 1608,
      "Ġpossible": 1609,
      "Ġincluded": 1610,
      "Ġappear": 1611,
      "ovember": 1612,
      "ĠUS": 1613,
      "Ġ|": 1614,
      "Ġspe": 1615,
      "Ġarch": 1616,
      "Ġnow": 1617,
      "ĠAf": 1618,
      "ĠNovember": 1619,
      "Ġstudy": 1620,
      "Ġversion": 1621,
      "here": 1622,
      "Ġfew": 1623,
      "Ġofficial": 1624,
      "etw": 1625,
      "gin": 1626,
      "Ġsug": 1627,
      "ĠJun": 1628,
      "Ġbelie": 1629,
      "Ġannounced": 1630,
      "Ġpie": 1631,
      "akes": 1632,
      "Ġvarious": 1633,
      "Ġseason": 1634,
      "imedia": 1635,
      "Ġarg": 1636,
      "ĠNavalny": 1637,
      "Ġinflu": 1638,
      "Ġappl": 1639,
      "Ġrepresent": 1640,
      "ĠSome": 1641,
      "Ġbest": 1642,
      "ification": 1643,
      "Ġbroad": 1644,
      "Ġbecome": 1645,
      "50": 1646,
      "ĠCl": 1647,
      "Ġ197": 1648,
      "cent": 1649,
      "idd": 1650,
      "Ġcase": 1651,
      "Ġeng": 1652,
      "iqu": 1653,
      "Ġmar": 1654,
      "Ġusually": 1655,
      "ivity": 1656,
      "atic": 1657,
      "estern": 1658,
      "Ġold": 1659,
      "Ġpower": 1660,
      "Ġmuch": 1661,
      "Ġreason": 1662,
      "Ġequ": 1663,
      "amed": 1664,
      "istic": 1665,
      "erest": 1666,
      "Ġsold": 1667,
      "Ġel": 1668,
      "ĠApr": 1669,
      "ably": 1670,
      "Ġsuggest": 1671,
      "Ġpropos": 1672,
      "Ġchild": 1673,
      "Ġgiven": 1674,
      "Ġelect": 1675,
      "Ġright": 1676,
      "Ġhost": 1677,
      "ium": 1678,
      "Ġedits": 1679,
      "Ġpass": 1680,
      "Ġline": 1681,
      "Ġlast": 1682,
      "Ġsoci": 1683,
      "Ġrelated": 1684,
      "Ġsingle": 1685,
      "Ġbas": 1686,
      "Ġrelig": 1687,
      "Ġplayed": 1688,
      "ger": 1689,
      "Ġtrad": 1690,
      "conom": 1691,
      "Ġresearch": 1692,
      "au": 1693,
      "ina": 1694,
      "ner": 1695,
      "Ġleast": 1696,
      "Ġworks": 1697,
      "apan": 1698,
      "ĠPalestin": 1699,
      "Ġsum": 1700,
      "Ġeffect": 1701,
      "thern": 1702,
      ").[": 1703,
      "Ġrece": 1704,
      "ensus": 1705,
      "Ġconsider": 1706,
      "epend": 1707,
      "Ġtake": 1708,
      "Ġdem": 1709,
      "inc": 1710,
      "Ġlit": 1711,
      "Ġeither": 1712,
      "ns": 1713,
      "Ġes": 1714,
      "Ġfin": 1715,
      "Ġfootball": 1716,
      "ropri": 1717,
      "Ġmed": 1718,
      "ĠBl": 1719,
      "BC": 1720,
      "ches": 1721,
      "Ġlic": 1722,
      "Ġimages": 1723,
      "mp": 1724,
      "Ġalong": 1725,
      "Ġsk": 1726,
      "ĠSouth": 1727,
      "unt": 1728,
      "ĠEd": 1729,
      "Ġencyclop": 1730,
      "Ġter": 1731,
      "Ġmass": 1732,
      "ured": 1733,
      "Ġcreate": 1734,
      "alth": 1735,
      "Ġ12": 1736,
      "ensive": 1737,
      "Ġaddress": 1738,
      "Ġmedia": 1739,
      "ration": 1740,
      "Ġprevious": 1741,
      "Ġtool": 1742,
      "Ġstruct": 1743,
      "Ġgl": 1744,
      "Ġscient": 1745,
      "ai": 1746,
      "ched": 1747,
      "ission": 1748,
      "ĠApril": 1749,
      "Ġpract": 1750,
      "idence": 1751,
      "ĠNorth": 1752,
      "mit": 1753,
      "ret": 1754,
      "ague": 1755,
      "Ġsepar": 1756,
      "Ġrun": 1757,
      "Ġrules": 1758,
      "ene": 1759,
      "Ġadministrat": 1760,
      "Ġdeveloped": 1761,
      "ator": 1762,
      "Ġmet": 1763,
      "ument": 1764,
      "ccording": 1765,
      "Ġsuccess": 1766,
      "Ġour": 1767,
      "Ġconcer": 1768,
      "...": 1769,
      "alism": 1770,
      "und": 1771,
      "Ġ2021": 1772,
      "Ġkilled": 1773,
      "yl": 1774,
      "arn": 1775,
      "35": 1776,
      "ĠSp": 1777,
      "Ġinterest": 1778,
      "Ġled": 1779,
      "Ġstat": 1780,
      "ris": 1781,
      "tter": 1782,
      "Ġbrain": 1783,
      "Ġ196": 1784,
      "Ġspecific": 1785,
      "ints": 1786,
      "Ġtrib": 1787,
      "arily": 1788,
      "Ġbody": 1789,
      "Ġfurther": 1790,
      "34": 1791,
      "Ġevent": 1792,
      "oph": 1793,
      "to": 1794,
      "reen": 1795,
      "ley": 1796,
      "Ġ14": 1797,
      "ptember": 1798,
      "Ġwant": 1799,
      "Ġorder": 1800,
      "ĠJapan": 1801,
      "ftw": 1802,
      "iers": 1803,
      "Ġsay": 1804,
      "Ġimpro": 1805,
      "Ġspecial": 1806,
      "Ġbelow": 1807,
      "Ġguidel": 1808,
      "ĠSo": 1809,
      "ults": 1810,
      "Ġday": 1811,
      "Ġless": 1812,
      "ĠWikimedia": 1813,
      "Ġfield": 1814,
      "Ġvis": 1815,
      "ĠSeptember": 1816,
      "Ġgenerally": 1817,
      "Ġrefer": 1818,
      "ftware": 1819,
      "Ġ2020": 1820,
      "Ġattem": 1821,
      "Ġmatch": 1822,
      "Ġparticip": 1823,
      "Ġcertain": 1824,
      "Ġunderstand": 1825,
      "rem": 1826,
      "ĠGame": 1827,
      "ĠQ": 1828,
      "Ġadded": 1829,
      "ony": 1830,
      "itation": 1831,
      "ĠChe": 1832,
      "ively": 1833,
      "Ġrather": 1834,
      "Ġpopular": 1835,
      "ites": 1836,
      "Ġcour": 1837,
      "cing": 1838,
      "ii": 1839,
      "Ġcases": 1840,
      "Ġpsych": 1841,
      "iped": 1842,
      "Ġfeature": 1843,
      "for": 1844,
      "xual": 1845,
      "Ġrepl": 1846,
      "Ġaccept": 1847,
      "etimes": 1848,
      "Ġhaving": 1849,
      "Ġlog": 1850,
      "Ġ13": 1851,
      "ery": 1852,
      "Ġgreat": 1853,
      "Ġoccur": 1854,
      "oint": 1855,
      "ĠJune": 1856,
      "Ġperform": 1857,
      "Ġhig": 1858,
      "sp": 1859,
      "Ġcategory": 1860,
      "br": 1861,
      "Ġsl": 1862,
      "Ġeconom": 1863,
      "Ġdecl": 1864,
      "Ġmean": 1865,
      "Ġpopulation": 1866,
      "Ġrights": 1867,
      "Ġheld": 1868,
      "Ġdisput": 1869,
      "Ġdiff": 1870,
      "iversity": 1871,
      "Ġpresident": 1872,
      "omo": 1873,
      "Ġstated": 1874,
      "Ġinstead": 1875,
      "atures": 1876,
      "ĠAfric": 1877,
      "ances": 1878,
      "Ġalb": 1879,
      "ĠIsraeli": 1880,
      "ropriate": 1881,
      "Ġnational": 1882,
      "rect": 1883,
      "Ġinit": 1884,
      "Ġhome": 1885,
      "atch": 1886,
      "Ġmaking": 1887,
      "ĠSup": 1888,
      "Ġposition": 1889,
      "Ġthird": 1890,
      "ama": 1891,
      "Ġaccount": 1892,
      "wards": 1893,
      "cur": 1894,
      "Ġlinks": 1895,
      "ĠBBC": 1896,
      "36": 1897,
      "oks": 1898,
      "Ġintrodu": 1899,
      "Ġinternational": 1900,
      "ored": 1901,
      "Ġer": 1902,
      "Ġstrong": 1903,
      "39": 1904,
      "ka": 1905,
      "Ġeas": 1906,
      "aces": 1907,
      "clus": 1908,
      "Ġtele": 1909,
      "Ġpolitical": 1910,
      "Ġstates": 1911,
      "ending": 1912,
      "Ġformat": 1913,
      "Ġprof": 1914,
      "Ġwhether": 1915,
      "Ġdescribed": 1916,
      "ton": 1917,
      "duct": 1918,
      "Ġconsensus": 1919,
      "lished": 1920,
      "ring": 1921,
      "uation": 1922,
      "Ġcoll": 1923,
      "Ġcapt": 1924,
      "ĠAug": 1925,
      "Ġorigin": 1926,
      "ee": 1927,
      "ĠPro": 1928,
      "ĠGaz": 1929,
      "ĠLink": 1930,
      "Ġclub": 1931,
      "Ġanal": 1932,
      "Ġarea": 1933,
      "Ġabove": 1934,
      "ethod": 1935,
      "by": 1936,
      "throp": 1937,
      "ling": 1938,
      "Ġwide": 1939,
      "Ġlaun": 1940,
      "Ġcomb": 1941,
      "Ġassoci": 1942,
      "Ġprovide": 1943,
      "Ġmonth": 1944,
      "nect": 1945,
      "ampions": 1946,
      "Ġindic": 1947,
      "Ġfamily": 1948,
      "ĠBe": 1949,
      "aken": 1950,
      "As": 1951,
      "hem": 1952,
      "40": 1953,
      "day": 1954,
      "Ġtag": 1955,
      "Ġsoftware": 1956,
      "Ġ[": 1957,
      "Ġdefin": 1958,
      "Ġcaus": 1959,
      "Ġpat": 1960,
      "Ġ2005": 1961,
      "Ġsumm": 1962,
      "Ġcity": 1963,
      "Ġregard": 1964,
      "Ġtopic": 1965,
      "cial": 1966,
      "like": 1967,
      "ĠCent": 1968,
      "Ġdisplay": 1969,
      "Ġtitle": 1970,
      "itut": 1971,
      "arth": 1972,
      "Ġmiss": 1973,
      "Ġ2006": 1974,
      "Ġcheck": 1975,
      "38": 1976,
      "Ġhowever": 1977,
      "gen": 1978,
      "Ġmethod": 1979,
      "tal": 1980,
      "Ġrev": 1981,
      "Ġalthough": 1982,
      "ĠYou": 1983,
      "Ġobject": 1984,
      "Ġnature": 1985,
      "irc": 1986,
      "Ġwin": 1987,
      "Ġshoot": 1988,
      "37": 1989,
      "ems": 1990,
      "Ġfull": 1991,
      "Ġget": 1992,
      "aged": 1993,
      "Ġvol": 1994,
      "ploy": 1995,
      "ffic": 1996,
      "Ġrelations": 1997,
      "Ġclaimed": 1998,
      "Wikipedia": 1999,
      "An": 2000,
      "Ġphys": 2001,
      "ĠAugust": 2002,
      "way": 2003,
      "Ġareas": 2004,
      "Ġdom": 2005,
      "Ġdays": 2006,
      "Ġleft": 2007,
      "Ġestablished": 2008,
      "Ġu": 2009,
      "ival": 2010,
      "ption": 2011,
      "Ġdeb": 2012,
      "ĠJoh": 2013,
      "Ġdata": 2014,
      "ĠHam": 2015,
      "ĠEuropean": 2016,
      "Ġanimals": 2017,
      "Ġindepend": 2018,
      "atural": 2019,
      "pecially": 2020,
      "ms": 2021,
      "ĠGr": 2022,
      "ĠOr": 2023,
      "Ġfive": 2024,
      "Ġpolicies": 2025,
      "most": 2026,
      "ĠAll": 2027,
      "Ġwritten": 2028,
      "OV": 2029,
      "Ġland": 2030,
      "ellig": 2031,
      "Ġmight": 2032,
      "ĠPl": 2033,
      "Ġtimes": 2034,
      "Ġnetw": 2035,
      "ĠWhen": 2036,
      "ĠGaza": 2037,
      "Ġevidence": 2038,
      "Ġparticular": 2039,
      "Ġculture": 2040,
      "Ġcare": 2041,
      "Ġfore": 2042,
      "Ġcond": 2043,
      "abor": 2044,
      "Ġautom": 2045,
      "Ġrole": 2046,
      "ĠNational": 2047,
      "Ġevolution": 2048,
      "Ġprogram": 2049,
      "Ġ21": 2050,
      "Ġreturn": 2051,
      "ges": 2052,
      "Ġexcept": 2053,
      "Ġnear": 2054,
      "Ġschool": 2055,
      "ĠAnd": 2056,
      "Ġlook": 2057,
      "ĠTo": 2058,
      "hers": 2059,
      "Ġscience": 2060,
      "Ġterms": 2061,
      "ways": 2062,
      "ental": 2063,
      "Ġnorm": 2064,
      "Ġdeath": 2065,
      "Ġcannot": 2066,
      "Ġconfl": 2067,
      "emic": 2068,
      "ularly": 2069,
      "Ġ11": 2070,
      "Ġenc": 2071,
      "Ġexpress": 2072,
      "ps": 2073,
      "iens": 2074,
      "Ġvand": 2075,
      "Ġcomment": 2076,
      "Ġsystems": 2077,
      "Ġball": 2078,
      "iefs": 2079,
      "aries": 2080,
      "agon": 2081,
      "Ġstyle": 2082,
      "Ġquestion": 2083,
      "iddle": 2084,
      "Ġbegin": 2085,
      "Ġ2010": 2086,
      "sel": 2087,
      "lection": 2088,
      "ential": 2089,
      "Ġask": 2090,
      "ĠJu": 2091,
      "Ġrecogn": 2092,
      "Ġmultiple": 2093,
      "Ġunivers": 2094,
      "Ġdetail": 2095,
      "Ġbehavior": 2096,
      "orn": 2097,
      "ĠEn": 2098,
      "ampionship": 2099,
      "ane": 2100,
      "ilos": 2101,
      "ops": 2102,
      "Ġreliable": 2103,
      "Ġbetter": 2104,
      "Ġlate": 2105,
      "Ġexplain": 2106,
      "Ġ2014": 2107,
      "ky": 2108,
      "ication": 2109,
      "ouse": 2110,
      "Ġable": 2111,
      "Ġnecess": 2112,
      "ĠAFL": 2113,
      "Ġcompany": 2114,
      "ple": 2115,
      "Ġtook": 2116,
      "Ġliving": 2117,
      "There": 2118,
      "Ġclose": 2119,
      "Ġsix": 2120,
      "Ġep": 2121,
      "Ġwords": 2122,
      "dom": 2123,
      "ĠTe": 2124,
      "Ġpersonal": 2125,
      "ĠAmerica": 2126,
      "Ġtest": 2127,
      "Ġalbum": 2128,
      "pro": 2129,
      "Ġwebs": 2130,
      "ourn": 2131,
      "Ġrequired": 2132,
      "ĠJuly": 2133,
      "di": 2134,
      "ox": 2135,
      "oman": 2136,
      "use": 2137,
      "ides": 2138,
      "acy": 2139,
      "Ġsometimes": 2140,
      "ney": 2141,
      "ĠAss": 2142,
      "val": 2143,
      "Ġanc": 2144,
      "Ġ22": 2145,
      "ĠPh": 2146,
      "Ġlocal": 2147,
      "Ġwon": 2148,
      "alf": 2149,
      "Ġant": 2150,
      "asing": 2151,
      "Ġearl": 2152,
      "ĠSc": 2153,
      "Ġmeans": 2154,
      "app": 2155,
      "ination": 2156,
      "ators": 2157,
      "ocus": 2158,
      "sequ": 2159,
      "21": 2160,
      "Ġmen": 2161,
      "Ġacross": 2162,
      "Ġtheory": 2163,
      "eria": 2164,
      "Ġcr": 2165,
      "reed": 2166,
      "Ġself": 2167,
      "oth": 2168,
      "Ġ2011": 2169,
      "Ġaccording": 2170,
      "Ġtradition": 2171,
      "Ġage": 2172,
      "ĠMar": 2173,
      "ĠKore": 2174,
      "Ġappropriate": 2175,
      "Ġentire": 2176,
      "selves": 2177,
      "Ġve": 2178,
      "Ġcreation": 2179,
      "ault": 2180,
      "gy": 2181,
      "ering": 2182,
      "Ġput": 2183,
      "ublic": 2184,
      "back": 2185,
      "ule": 2186,
      "Ġ30": 2187,
      "Ġrespons": 2188,
      "ĠPalestinian": 2189,
      "asons": 2190,
      "ĠWii": 2191,
      "Ġespecially": 2192,
      "Ġdel": 2193,
      "Ġrequire": 2194,
      "Ġinvol": 2195,
      "Ġren": 2196,
      "Ġindust": 2197,
      "Ġhistor": 2198,
      "ĠGen": 2199,
      "verage": 2200,
      "Ġforms": 2201,
      "Ġdi": 2202,
      "Ġlikely": 2203,
      "33": 2204,
      "ype": 2205,
      "Ġside": 2206,
      "Ġfar": 2207,
      "ĠWP": 2208,
      "Ġtry": 2209,
      "Ġformer": 2210,
      "Ġcomputer": 2211,
      "46": 2212,
      "rist": 2213,
      "Ġplan": 2214,
      "Ġcomplete": 2215,
      "Ġmusic": 2216,
      "Ġscientific": 2217,
      "47": 2218,
      "pose": 2219,
      "Ġaffect": 2220,
      "isc": 2221,
      "Ġfinal": 2222,
      "Ġattacks": 2223,
      "45": 2224,
      "48": 2225,
      "fer": 2226,
      "Ġfood": 2227,
      "Ġrest": 2228,
      "Ġgrow": 2229,
      "Ġ2013": 2230,
      "overed": 2231,
      "Ġattempt": 2232,
      "Ġet": 2233,
      "Ġconnect": 2234,
      "vert": 2235,
      "Ġchildren": 2236,
      "49": 2237,
      "Ġintellig": 2238,
      "Ġlargest": 2239,
      "Ġlack": 2240,
      "Ġdev": 2241,
      "Ġdele": 2242,
      "apiens": 2243,
      "ĠBritish": 2244,
      "ĠHamas": 2245,
      "arian": 2246,
      "Ġitself": 2247,
      "strict": 2248,
      "Ġmag": 2249,
      "Ġconduct": 2250,
      "ĠHuman": 2251,
      "Ġ2008": 2252,
      "Ġteams": 2253,
      "ID": 2254,
      "hib": 2255,
      "pload": 2256,
      "Ġport": 2257,
      "Ġbuild": 2258,
      "ĠJohn": 2259,
      "Ġbat": 2260,
      "Ġbook": 2261,
      "Ġdeterm": 2262,
      "Ġissue": 2263,
      "oved": 2264,
      "Ġfocus": 2265,
      "Ġservice": 2266,
      "ĠPr": 2267,
      "Ġ2012": 2268,
      "amet": 2269,
      "ends": 2270,
      "ĠCom": 2271,
      "Ġ2009": 2272,
      "Ġencyclopedia": 2273,
      "af": 2274,
      "Ġnamed": 2275,
      "ĠAfter": 2276,
      "Ġthemselves": 2277,
      "Ġtemplates": 2278,
      "ĠInternet": 2279,
      "wh": 2280,
      "reg": 2281,
      "ĠOther": 2282,
      "Ġincludes": 2283,
      "Wh": 2284,
      "rel": 2285,
      "arget": 2286,
      "ĠAm": 2287,
      "Ġavoid": 2288,
      "ĠCol": 2289,
      "ibility": 2290,
      "aps": 2291,
      "Ġresults": 2292,
      "Ġ$": 2293,
      "Ġfail": 2294,
      "Ġproper": 2295,
      "Ġpoints": 2296,
      "Ġcomplex": 2297,
      "iron": 2298,
      "ander": 2299,
      "Ġrestrict": 2300,
      "ĠAv": 2301,
      "ĠGu": 2302,
      "citation": 2303,
      "Ġrecent": 2304,
      "ires": 2305,
      "Ġdoc": 2306,
      "ĠWestern": 2307,
      "Ġnamespace": 2308,
      "erous": 2309,
      "Ġpast": 2310,
      "ĠSuper": 2311,
      "Ġdirectly": 2312,
      "Ġlimited": 2313,
      "be": 2314,
      "Ġtru": 2315,
      "aster": 2316,
      "Ġhard": 2317,
      "Ġseen": 2318,
      "ĠGe": 2319,
      "Ġwriting": 2320,
      "Ġsentence": 2321,
      "ming": 2322,
      "Ġfile": 2323,
      "Ġonline": 2324,
      "Ġspace": 2325,
      "Ġstandard": 2326,
      "Ġredu": 2327,
      "Ġemer": 2328,
      "ĠOne": 2329,
      "55": 2330,
      "hol": 2331,
      "ingu": 2332,
      "ĠBy": 2333,
      ".,": 2334,
      "go": 2335,
      "Ġguidelines": 2336,
      "roke": 2337,
      "Ġhealth": 2338,
      "Ġfunction": 2339,
      "icult": 2340,
      "Ġ23": 2341,
      "ability": 2342,
      "Ġability": 2343,
      "Ġparts": 2344,
      "Ġvandalism": 2345,
      "enn": 2346,
      "Ġalways": 2347,
      "emen": 2348,
      "Ġjo": 2349,
      "Ġconsist": 2350,
      "Ġphot": 2351,
      "ready": 2352,
      "Ġidea": 2353,
      "Ġissues": 2354,
      "erv": 2355,
      "Ġtoo": 2356,
      "ĠGerm": 2357,
      "Ġfeatures": 2358,
      "Ġtaken": 2359,
      "Ġsite": 2360,
      "itor": 2361,
      "Ġbre": 2362,
      "Ġmot": 2363,
      "ĠDr": 2364,
      "Ġwee": 2365,
      "Ġlanguages": 2366,
      "Ġreal": 2367,
      "Ġtarget": 2368,
      "iness": 2369,
      "Ġnomin": 2370,
      "Ġobser": 2371,
      "Ġthought": 2372,
      "Ġprofess": 2373,
      "ont": 2374,
      "Ġnatural": 2375,
      "ots": 2376,
      "Ġprevent": 2377,
      "Ġglob": 2378,
      "self": 2379,
      "vant": 2380,
      "ached": 2381,
      "Ġpriv": 2382,
      "Ġremoved": 2383,
      "letion": 2384,
      "For": 2385,
      "inn": 2386,
      "Ġtourn": 2387,
      "irmed": 2388,
      "medi": 2389,
      "Ġdraw": 2390,
      "Ġsol": 2391,
      "ask": 2392,
      "ilities": 2393,
      "Ġstatus": 2394,
      "ĠCar": 2395,
      "Ġrespect": 2396,
      "Ġ2007": 2397,
      "Ġprinc": 2398,
      "Ġphilos": 2399,
      "Ġmaintain": 2400,
      "ext": 2401,
      "ising": 2402,
      "Ġpot": 2403,
      "Ġfight": 2404,
      "Ġallowed": 2405,
      "vision": 2406,
      "Ġturn": 2407,
      "inct": 2408,
      "ĠSw": 2409,
      "erson": 2410,
      "Ġreference": 2411,
      "oted": 2412,
      "ĠCan": 2413,
      "irit": 2414,
      "elda": 2415,
      "'m": 2416,
      "eration": 2417,
      "Ġsong": 2418,
      "Ġwomen": 2419,
      "ĠFound": 2420,
      "Ġwiki": 2421,
      "port": 2422,
      "Ġsapiens": 2423,
      "aur": 2424,
      "Ġtax": 2425,
      "rest": 2426,
      "Ġminor": 2427,
      "ĠHomo": 2428,
      "Ġcritic": 2429,
      "Al": 2430,
      "Ġpred": 2431,
      "ĠAra": 2432,
      "ĠEarth": 2433,
      "ĠForces": 2434,
      "Ġdifferen": 2435,
      "59": 2436,
      "Ġsqu": 2437,
      "isions": 2438,
      "imate": 2439,
      "ĠCo": 2440,
      "Ġuses": 2441,
      "ĠZelda": 2442,
      "Pro": 2443,
      "bit": 2444,
      "ham": 2445,
      "org": 2446,
      "Ġdone": 2447,
      "Ġalready": 2448,
      "sole": 2449,
      "pecial": 2450,
      "arent": 2451,
      "Ġcategories": 2452,
      "Ġmob": 2453,
      "Ġcho": 2454,
      "Ġdifficult": 2455,
      "Ġsit": 2456,
      "itte": 2457,
      "lement": 2458,
      "ĠTr": 2459,
      "ĠAccording": 2460,
      "ĠPres": 2461,
      "ples": 2462,
      "free": 2463,
      "atically": 2464,
      "Ġnext": 2465,
      "Ġparamet": 2466,
      "Ġproduct": 2467,
      "Ġpieces": 2468,
      "imately": 2469,
      "Ġarr": 2470,
      "ounts": 2471,
      "Ġnever": 2472,
      "Ġ2017": 2473,
      "yn": 2474,
      "rew": 2475,
      "Ġdiv": 2476,
      "Ġevents": 2477,
      "Ġbelieve": 2478,
      "know": 2479,
      "Ġair": 2480,
      "Ġsw": 2481,
      "ique": 2482,
      "ĠCheroke": 2483,
      "Ġfem": 2484,
      "asion": 2485,
      "Ġhold": 2486,
      "rovers": 2487,
      "ĠAustralian": 2488,
      "60": 2489,
      "Ġtype": 2490,
      "Ġaction": 2491,
      "Ġfac": 2492,
      "Ġdomin": 2493,
      "ili": 2494,
      "Wiki": 2495,
      "ĠEx": 2496,
      "pts": 2497,
      "ĠX": 2498,
      "Ġmess": 2499,
      "ades": 2500,
      "Ġeduc": 2501,
      "Ġ2016": 2502,
      "Ġreport": 2503,
      "Ġcontinued": 2504,
      "curity": 2505,
      "Ġmeet": 2506,
      "Ġupload": 2507,
      "Ġanthrop": 2508,
      "Ġexpect": 2509,
      "ĠGree": 2510,
      "ones": 2511,
      "Ġnor": 2512,
      "ĠMc": 2513,
      "Ġopin": 2514,
      "ription": 2515,
      "Ġconflict": 2516,
      "gress": 2517,
      "viron": 2518,
      "ware": 2519,
      "ĠAb": 2520,
      "Ġexam": 2521,
      "Ġrelease": 2522,
      "ĠFoundation": 2523,
      "ipp": 2524,
      "ĠMy": 2525,
      "ivka": 2526,
      "cont": 2527,
      "Ġmember": 2528,
      "Ġtypically": 2529,
      "Ġstructure": 2530,
      "uture": 2531,
      "ĠFootball": 2532,
      "ront": 2533,
      "Ġrelationship": 2534,
      "cast": 2535,
      "Ġcirc": 2536,
      "anks": 2537,
      "lex": 2538,
      "ĠSy": 2539,
      "Ġvia": 2540,
      "Ġtypes": 2541,
      "Ġsoldiers": 2542,
      ".)": 2543,
      "Ġcode": 2544,
      "Ġwater": 2545,
      "Ġbus": 2546,
      "Ġrad": 2547,
      "ĠUniversity": 2548,
      "wik": 2549,
      "ĠBut": 2550,
      "ĠInternational": 2551,
      "56": 2552,
      "ert": 2553,
      "osing": 2554,
      "Ġprovided": 2555,
      "Ġadditional": 2556,
      "ĠCherokee": 2557,
      "pite": 2558,
      "Ġtable": 2559,
      "Ġfr": 2560,
      "Ġhom": 2561,
      "see": 2562,
      "assic": 2563,
      "Ġupd": 2564,
      "Ġparticularly": 2565,
      "Ġlonger": 2566,
      "ĠAustralia": 2567,
      "Ġtools": 2568,
      "Ġimprove": 2569,
      "31": 2570,
      "Ġcultural": 2571,
      "44": 2572,
      "Ġpict": 2573,
      "Ġins": 2574,
      "Ġaltern": 2575,
      "Ġrule": 2576,
      "Ġdeletion": 2577,
      "Ġ2019": 2578,
      "Ġground": 2579,
      "viet": 2580,
      "ĠArmy": 2581,
      "ething": 2582,
      "ĠWhile": 2583,
      "ĠIP": 2584,
      "ĠWest": 2585,
      "Ġsuper": 2586,
      "atively": 2587,
      "leg": 2588,
      "ĠMinist": 2589,
      "Ġ2015": 2590,
      "Ġoutside": 2591,
      "Ġlaunched": 2592,
      "Ġdomain": 2593,
      "Ġlive": 2594,
      "ribution": 2595,
      "Ġbox": 2596,
      "Ġclear": 2597,
      "Ġsus": 2598,
      "Ġplease": 2599,
      "Ġfix": 2600,
      "Ġtotal": 2601,
      "Ġmention": 2602,
      "Ġ2004": 2603,
      "Ġproblems": 2604,
      "Ġtro": 2605,
      "hest": 2606,
      "itution": 2607,
      "ĠChess": 2608,
      "Ġindividuals": 2609,
      "Ed": 2610,
      "Ġ24": 2611,
      "irt": 2612,
      "ĠMany": 2613,
      "Ġsubst": 2614,
      "Ġinvest": 2615,
      "tt": 2616,
      "ese": 2617,
      "ĠWales": 2618,
      "Ġnotice": 2619,
      "ĠChrist": 2620,
      "Ġboard": 2621,
      "Ġlegal": 2622,
      "ĠAfrica": 2623,
      "Ġsize": 2624,
      "Ġ25": 2625,
      "ands": 2626,
      "Ġ2018": 2627,
      "ĠSee": 2628,
      "It": 2629,
      "iy": 2630,
      "ats": 2631,
      "Ġfall": 2632,
      "Ġinvolved": 2633,
      "Ġinfluence": 2634,
      "Ġterrit": 2635,
      "Ġess": 2636,
      "Ġconcept": 2637,
      "Ġselect": 2638,
      "Ġplaced": 2639,
      "Ġnetwork": 2640,
      "Ġetc": 2641,
      "Ġintelligence": 2642,
      "Ġthings": 2643,
      "ids": 2644,
      "Ġonce": 2645,
      "Ġalmost": 2646,
      "Ġmoved": 2647,
      "57": 2648,
      "rote": 2649,
      "Ġsomething": 2650,
      "Ġprotection": 2651,
      "ittee": 2652,
      "based": 2653,
      "itors": 2654,
      "used": 2655,
      "Ġeff": 2656,
      "Ġrank": 2657,
      "unta": 2658,
      "Ġinj": 2659,
      "Ġmid": 2660,
      "Ġdest": 2661,
      "ĠRed": 2662,
      "Ġnews": 2663,
      "Ġvalue": 2664,
      "ias": 2665,
      "eng": 2666,
      "Ġwhy": 2667,
      "Ġhapp": 2668,
      "Ġtechnology": 2669,
      "Ġdocument": 2670,
      "bon": 2671,
      "Ġemploy": 2672,
      "Ġmajority": 2673,
      "Ġenviron": 2674,
      "Ġhigher": 2675,
      "Ġbeginning": 2676,
      "istics": 2677,
      "Ġprimary": 2678,
      "Ġlicens": 2679,
      "Ġseparate": 2680,
      "32": 2681,
      "of": 2682,
      "Ġsense": 2683,
      "ĠKing": 2684,
      "ĠCommons": 2685,
      "Re": 2686,
      "Ġopt": 2687,
      "Ġfre": 2688,
      "ĠRep": 2689,
      "Ġfund": 2690,
      "board": 2691,
      "diivka": 2692,
      "de": 2693,
      "iver": 2694,
      "Ġhalf": 2695,
      "Ġfollowed": 2696,
      "Ġthroughout": 2697,
      "Ġeth": 2698,
      "roy": 2699,
      "Ġsexual": 2700,
      "ĠWarhol": 2701,
      "ĠSoviet": 2702,
      "Ġupon": 2703,
      "Ġincreased": 2704,
      "ern": 2705,
      "ences": 2706,
      "Ġtouch": 2707,
      "ĠGo": 2708,
      "St": 2709,
      "cut": 2710,
      "Ġgive": 2711,
      "iab": 2712,
      "Ġperm": 2713,
      "ĠYemen": 2714,
      "ned": 2715,
      "Ġcame": 2716,
      "omy": 2717,
      "iles": 2718,
      "utral": 2719,
      "etic": 2720,
      "iction": 2721,
      "Ġcorrect": 2722,
      "Ġstarted": 2723,
      "ror": 2724,
      "Ġwrote": 2725,
      "lear": 2726,
      "Ġimmedi": 2727,
      "Ġneg": 2728,
      "ĠKh": 2729,
      "Ġkey": 2730,
      "Ġsociety": 2731,
      "Ġassociated": 2732,
      "58": 2733,
      "aut": 2734,
      "ler": 2735,
      "utin": 2736,
      "eties": 2737,
      "ope": 2738,
      "thing": 2739,
      "Ġadministrators": 2740,
      "order": 2741,
      "Ġfuture": 2742,
      "ĠBr": 2743,
      "Ġking": 2744,
      "Ġcolon": 2745,
      "ĠAvdiivka": 2746,
      "iting": 2747,
      "Ġaspect": 2748,
      "Ġadding": 2749,
      "Ġregion": 2750,
      "Ġappeared": 2751,
      "Ġcurrently": 2752,
      "reme": 2753,
      "Ġmeaning": 2754,
      "Ġmakes": 2755,
      "Ġlib": 2756,
      "Ġprior": 2757,
      "Ġjunta": 2758,
      "Ġreligious": 2759,
      "Ġanalys": 2760,
      "42": 2761,
      "Ġpaw": 2762,
      "Ġge": 2763,
      "ĠDon": 2764,
      "Ġkind": 2765,
      "Ġmeas": 2766,
      "Ġmatches": 2767,
      "Ġcollect": 2768,
      "Ġchanged": 2769,
      "Ġallows": 2770,
      "ĠAssoci": 2771,
      "Ġtw": 2772,
      "Ġful": 2773,
      "chie": 2774,
      "andid": 2775,
      "Ġregions": 2776,
      "Ġcharacters": 2777,
      "Ġexisting": 2778,
      "Ġindependent": 2779,
      "ĠChampionship": 2780,
      "ĠIndia": 2781,
      "Ġproposed": 2782,
      "ĠPresident": 2783,
      "ĠWe": 2784,
      "ump": 2785,
      "Ġcome": 2786,
      "Ġpercent": 2787,
      "Ġreceived": 2788,
      "istance": 2789,
      "osp": 2790,
      "Ġdeal": 2791,
      "Ġpiece": 2792,
      "Ġsummary": 2793,
      "ees": 2794,
      "uk": 2795,
      "Ġlat": 2796,
      "Ġcontrovers": 2797,
      "izations": 2798,
      "ĠYork": 2799,
      "Ġmathem": 2800,
      "Ġstatement": 2801,
      "Ġtrue": 2802,
      "41": 2803,
      "cil": 2804,
      "ĠMedia": 2805,
      "Ġregist": 2806,
      "Ġactive": 2807,
      "Ġmatter": 2808,
      "Ġphysical": 2809,
      "Ġcamp": 2810,
      "otes": 2811,
      "ĠNe": 2812,
      "ishing": 2813,
      "ategory": 2814,
      "wise": 2815,
      "Ġlow": 2816,
      "ĠUnion": 2817,
      "Ġschol": 2818,
      "Ġnecessary": 2819,
      "Ġwebsite": 2820,
      "Ġtrain": 2821,
      "Ġthus": 2822,
      "Ġlost": 2823,
      "ership": 2824,
      "Ġjourn": 2825,
      "Ġspirit": 2826,
      "Ġdefe": 2827,
      "Ġinteract": 2828,
      "When": 2829,
      "Ġsou": 2830,
      "ency": 2831,
      "ĠRes": 2832,
      "Ġcontr": 2833,
      "Ġdisru": 2834,
      "66": 2835,
      "Ġachie": 2836,
      "Ġedition": 2837,
      "Ġexpand": 2838,
      "Ġcitation": 2839,
      "Ġtitles": 2840,
      "Ġ--": 2841,
      "Ġstre": 2842,
      "Ġintended": 2843,
      "Ġgoal": 2844,
      "Ġrelevant": 2845,
      "43": 2846,
      "pan": 2847,
      "edic": 2848,
      "itz": 2849,
      "ĠFo": 2850,
      "Ġlisted": 2851,
      "Ġincreasing": 2852,
      "Ġpurpose": 2853,
      "face": 2854,
      "over": 2855,
      "Ġpress": 2856,
      "ica": 2857,
      "izing": 2858,
      "Ġfiles": 2859,
      "gether": 2860,
      "Ġredirect": 2861,
      "lim": 2862,
      "Ġtogether": 2863,
      "ĠCor": 2864,
      "Ġprob": 2865,
      "Ġadop": 2866,
      "ĠChina": 2867,
      "ĠLeg": 2868,
      "Ġ<": 2869,
      "Ġsens": 2870,
      "Ġmind": 2871,
      "aming": 2872,
      "iest": 2873,
      "ests": 2874,
      "ĠObl": 2875,
      "ĠState": 2876,
      "ologists": 2877,
      "Ġfeatured": 2878,
      "Ġwidely": 2879,
      "DF": 2880,
      "Ġsem": 2881,
      "Ġmis": 2882,
      "Ġ100": 2883,
      "umans": 2884,
      "Ġchann": 2885,
      "Ġpositions": 2886,
      "Ġkeep": 2887,
      "Ġmer": 2888,
      "ided": 2889,
      "umb": 2890,
      "Ġdefined": 2891,
      "Ġlittle": 2892,
      "Ġadministrator": 2893,
      "Ġdispute": 2894,
      "Ġz": 2895,
      "arm": 2896,
      "Ġparty": 2897,
      "Ġblack": 2898,
      "Ġvariety": 2899,
      "Ġsuccessful": 2900,
      "To": 2901,
      "ilt": 2902,
      "Ġforce": 2903,
      "ĠBall": 2904,
      "Ġago": 2905,
      "Ġremov": 2906,
      "Ġcopy": 2907,
      "Ġcommonly": 2908,
      "Ġfilm": 2909,
      "Ġliter": 2910,
      "ĠKorea": 2911,
      "ores": 2912,
      "anced": 2913,
      "Ġproduced": 2914,
      "Ġexperience": 2915,
      "Ġlaws": 2916,
      "Ġautomatically": 2917,
      "Ġtroops": 2918,
      "aging": 2919,
      "ĠNor": 2920,
      "Ġbecom": 2921,
      "Ġsimply": 2922,
      "Ġanimal": 2923,
      "Ġbusiness": 2924,
      "Ġens": 2925,
      "onse": 2926,
      "Ġloss": 2927,
      "Ġpain": 2928,
      "ĠMost": 2929,
      "ĠDef": 2930,
      "Ar": 2931,
      "Ġround": 2932,
      "Ġquality": 2933,
      "Ġmodel": 2934,
      "Ġtelevision": 2935,
      "Ġgain": 2936,
      "ĠBro": 2937,
      "ouncil": 2938,
      "Ġfeel": 2939,
      "Ġcollabor": 2940,
      "51": 2941,
      "Ġdig": 2942,
      "adium": 2943,
      "Ġrange": 2944,
      "Ġsomeone": 2945,
      "Ġlevels": 2946,
      "Ġmobile": 2947,
      "Some": 2948,
      "Ġten": 2949,
      "reement": 2950,
      "ada": 2951,
      "Ġdou": 2952,
      "Ġdefinition": 2953,
      "Ġglobal": 2954,
      "Ġaud": 2955,
      "ications": 2956,
      "Ġtowards": 2957,
      "ĠMan": 2958,
      "Ġsuff": 2959,
      "Ġmoves": 2960,
      "Ġaccur": 2961,
      "Ġmonths": 2962,
      "Ġce": 2963,
      "Ġfoot": 2964,
      "ĠPe": 2965,
      "ĠDuring": 2966,
      "Ġenough": 2967,
      "Ġappears": 2968,
      "Ġmovement": 2969,
      "Ġcontains": 2970,
      "ĠDragon": 2971,
      "ship": 2972,
      "ties": 2973,
      "Ġmamm": 2974,
      "Ġden": 2975,
      "Ġ26": 2976,
      "ipl": 2977,
      "ĠGames": 2978,
      "Ġcreating": 2979,
      "Ġdefault": 2980,
      "aff": 2981,
      "mar": 2982,
      "Ġaff": 2983,
      "ung": 2984,
      "Ġfrequ": 2985,
      "'ve": 2986,
      "DS": 2987,
      "enced": 2988,
      "Ġfav": 2989,
      "amic": 2990,
      "ume": 2991,
      "ruction": 2992,
      "Ġleading": 2993,
      "Ġbehind": 2994,
      "Ġmarket": 2995,
      "iences": 2996,
      "Ġsure": 2997,
      "Ġdiscussions": 2998,
      "Ġtournament": 2999,
      "ried": 3000,
      "sw": 3001,
      "Ġur": 3002,
      "ining": 3003,
      "Ġyoun": 3004,
      "Ġspok": 3005,
      "Ġpreviously": 3006,
      "ophy": 3007,
      "Ġcentral": 3008,
      "rators": 3009,
      "Ġbiological": 3010,
      "Ġoccup": 3011,
      "Ġreferred": 3012,
      "fficient": 3013,
      "ĠAssociation": 3014,
      "Ġnuc": 3015,
      "osc": 3016,
      "Ġactions": 3017,
      "Ġexperim": 3018,
      "Ġintroduced": 3019,
      "80": 3020,
      "inent": 3021,
      "Ġstop": 3022,
      "Ġshown": 3023,
      "arty": 3024,
      "Ġweap": 3025,
      "Ġelements": 3026,
      "Ġelse": 3027,
      "Ġenvironment": 3028,
      "Ad": 3029,
      "ush": 3030,
      "ĠShe": 3031,
      "Ġqual": 3032,
      "Ġlarger": 3033,
      "Ġresponse": 3034,
      "Ġspeak": 3035,
      "Ġfig": 3036,
      "Ġreasons": 3037,
      "azine": 3038,
      "Ġprovides": 3039,
      "Ġservices": 3040,
      "ĠFoley": 3041,
      "52": 3042,
      "atives": 3043,
      "unte": 3044,
      "Ġweb": 3045,
      "ĠChiefs": 3046,
      "Ġactiv": 3047,
      "Ġprojects": 3048,
      "Ġ&": 3049,
      "Ġwhose": 3050,
      "ĠInst": 3051,
      "ustom": 3052,
      "Ġremove": 3053,
      "Ġstudies": 3054,
      "Ġanalysis": 3055,
      "orks": 3056,
      "ĠII": 3057,
      "ĠWith": 3058,
      "Ġprofessional": 3059,
      "FA": 3060,
      "volution": 3061,
      "Ġdate": 3062,
      "Ġdivid": 3063,
      "ĠSpecial": 3064,
      "ender": 3065,
      "Ġplaying": 3066,
      "Ġtraditional": 3067,
      "aspar": 3068,
      "Ġhyp": 3069,
      "ĠSch": 3070,
      "ĠMus": 3071,
      "ĠWikiped": 3072,
      "cluding": 3073,
      "ranch": 3074,
      "ĠIndian": 3075,
      "Ġincrease": 3076,
      "ĠBlack": 3077,
      "Ġpractice": 3078,
      "ĠGeneral": 3079,
      "Ġmathemat": 3080,
      "iament": 3081,
      "onent": 3082,
      "oring": 3083,
      "Ġ28": 3084,
      "ips": 3085,
      "Ġcontext": 3086,
      "ternal": 3087,
      "Ġuseful": 3088,
      "ĠAlthough": 3089,
      "Ġfully": 3090,
      "NA": 3091,
      "ters": 3092,
      "tect": 3093,
      "atory": 3094,
      "Ġfront": 3095,
      "ĠUK": 3096,
      "Ġsport": 3097,
      "Ġtopics": 3098,
      "Ġestim": 3099,
      "gg": 3100,
      "Ġcandid": 3101,
      "Ġactivity": 3102,
      "Ġworking": 3103,
      "Ġprimarily": 3104,
      "Ġprotected": 3105,
      "Ġeconomic": 3106,
      "wide": 3107,
      "Ġeight": 3108,
      "Ġgre": 3109,
      "Ġadapt": 3110,
      "Ġleague": 3111,
      "Ġacad": 3112,
      "Ġnumbers": 3113,
      "Ġhighly": 3114,
      "mitted": 3115,
      "54": 3116,
      "atin": 3117,
      "ams": 3118,
      "Ġacqu": 3119,
      "Ġforeign": 3120,
      "ute": 3121,
      "elling": 3122,
      "Ġanyone": 3123,
      "Ġsym": 3124,
      "Ġreflect": 3125,
      "Ġconfirmed": 3126,
      "lands": 3127,
      "ifying": 3128,
      "Ġcapital": 3129,
      "asparov": 3130,
      "Ġi": 3131,
      "Ġtreat": 3132,
      "Ġsaw": 3133,
      "Ġresolution": 3134,
      "aving": 3135,
      "Ġcommer": 3136,
      "Ġreaders": 3137,
      "Ġuniverse": 3138,
      "Ġcell": 3139,
      "itud": 3140,
      "Ġfair": 3141,
      "Ġreached": 3142,
      "Ġ27": 3143,
      "ounter": 3144,
      "Ġheav": 3145,
      "Ġchall": 3146,
      "aper": 3147,
      "Ġinterp": 3148,
      "53": 3149,
      "such": 3150,
      "where": 3151,
      "ĠLeague": 3152,
      "Ġideas": 3153,
      "Ġencour": 3154,
      "co": 3155,
      "isation": 3156,
      "Ġways": 3157,
      "Ġwatch": 3158,
      "Ġreligion": 3159,
      "Ġancest": 3160,
      "Ġcities": 3161,
      "Ġlists": 3162,
      "ceed": 3163,
      "Ġunits": 3164,
      "Ġsupported": 3165,
      "fact": 3166,
      "Ġfire": 3167,
      "ĠHar": 3168,
      "Ġformed": 3169,
      "Ġsett": 3170,
      "Ġstrateg": 3171,
      "itute": 3172,
      "Ġvolunte": 3173,
      "Ġaim": 3174,
      "Ġbene": 3175,
      "ĠAlex": 3176,
      "ĠDav": 3177,
      "igned": 3178,
      "Ġapprox": 3179,
      "clusion": 3180,
      "Ġinvestig": 3181,
      "Ġcogn": 3182,
      "ana": 3183,
      "Ġdam": 3184,
      "ĠMiddle": 3185,
      "Ġseven": 3186,
      "ables": 3187,
      "Ġclick": 3188,
      "Ġjud": 3189,
      "rench": 3190,
      "Ġestablish": 3191,
      "Ġaway": 3192,
      "ened": 3193,
      "ĠEast": 3194,
      "Ġsubsequ": 3195,
      "Ġaccounts": 3196,
      "Ġneeds": 3197,
      "Ġquestions": 3198,
      "Ġunderstanding": 3199,
      "Ġmethods": 3200,
      "human": 3201,
      "rary": 3202,
      "Ġsound": 3203,
      "Ġcited": 3204,
      "Ġlower": 3205,
      "Ġsections": 3206,
      "Ġremained": 3207,
      "Ġcourt": 3208,
      "Ġindustry": 3209,
      "Ġaverage": 3210,
      "att": 3211,
      "Ġbal": 3212,
      "astern": 3213,
      "Ġcontact": 3214,
      "Ġbelong": 3215,
      "Ġshows": 3216,
      "Ġtravel": 3217,
      "Ġbehavi": 3218,
      "Ġsaying": 3219,
      "resp": 3220,
      "Ġcontinue": 3221,
      "Ġlicense": 3222,
      "Ġotherwise": 3223,
      "ĠAsia": 3224,
      "Ġpsychology": 3225,
      "Project": 3226,
      "ĠOblast": 3227,
      "aled": 3228,
      "Ġmor": 3229,
      "lymp": 3230,
      "Ġstar": 3231,
      "Ġcontributors": 3232,
      "ecause": 3233,
      "RL": 3234,
      "off": 3235,
      "Ġill": 3236,
      "Ġcal": 3237,
      "Ġnorth": 3238,
      "amb": 3239,
      "Ġsecurity": 3240,
      "Ġabs": 3241,
      "Ġdistingu": 3242,
      "Ġinitial": 3243,
      "ĠGreek": 3244,
      "ĠSince": 3245,
      "Ġ2000": 3246,
      "ources": 3247,
      "Ġshot": 3248,
      "Ġdescription": 3249,
      "Ġcontributions": 3250,
      "Ġblocked": 3251,
      "Ġearlier": 3252,
      "ĠPutin": 3253,
      "ĠNo": 3254,
      "Ġshare": 3255,
      "Ġkn": 3256,
      "Ġprint": 3257,
      "Ġcolor": 3258,
      "Ġbroadcast": 3259,
      "list": 3260,
      "hel": 3261,
      "Ġcustom": 3262,
      "Ġface": 3263,
      "idents": 3264,
      "chan": 3265,
      "ifically": 3266,
      "Ġwhite": 3267,
      "ĠOlymp": 3268,
      "Ġproduction": 3269,
      "Ġcivilians": 3270,
      "Ġgrowth": 3271,
      "70": 3272,
      "Ġfri": 3273,
      "oles": 3274,
      "ĠWiki": 3275,
      "ĠJur": 3276,
      "Ġlearn": 3277,
      "Ġedited": 3278,
      "anned": 3279,
      "ĠCommittee": 3280,
      "Ġbasic": 3281,
      "Ġcaused": 3282,
      "ĠRepublic": 3283,
      "According": 3284,
      "head": 3285,
      "Ġhy": 3286,
      "Ġreve": 3287,
      "abama": 3288,
      "Ġgrant": 3289,
      "Ġapply": 3290,
      "ography": 3291,
      "Ġcompetition": 3292,
      "64": 3293,
      "rative": 3294,
      "year": 3295,
      "ativity": 3296,
      "Ġthreat": 3297,
      "otion": 3298,
      "empl": 3299,
      "Ġneutral": 3300,
      "Ġ2001": 3301,
      "phas": 3302,
      "Ġincor": 3303,
      "Ġoccurred": 3304,
      "ĠArab": 3305,
      "Ġopinion": 3306,
      ";[": 3307,
      "Ġbase": 3308,
      "vey": 3309,
      "ĠCity": 3310,
      "Ġseems": 3311,
      "ĠEmp": 3312,
      "Ġattention": 3313,
      "Ġrespond": 3314,
      "Ġepis": 3315,
      "cle": 3316,
      "dered": 3317,
      "rial": 3318,
      "Ġreach": 3319,
      "Ġlay": 3320,
      "Ġyet": 3321,
      "ours": 3322,
      "Ġexplan": 3323,
      "Ġhighest": 3324,
      "78": 3325,
      "You": 3326,
      "Ġtre": 3327,
      "Ġbar": 3328,
      "Ġmale": 3329,
      "Ġder": 3330,
      "ĠCouncil": 3331,
      "iber": 3332,
      "Ġreferences": 3333,
      "Ġethn": 3334,
      "ises": 3335,
      "Ġnar": 3336,
      "Ġnote": 3337,
      "Ġunique": 3338,
      "Ġprison": 3339,
      "Ġsubs": 3340,
      "Ġorganization": 3341,
      "Ġappearance": 3342,
      "ĠJapanese": 3343,
      "Ġweek": 3344,
      "Ch": 3345,
      "Human": 3346,
      "Sh": 3347,
      "rim": 3348,
      "Ġbrow": 3349,
      "Ġquick": 3350,
      "Ġsimple": 3351,
      "ossil": 3352,
      "Ġsurv": 3353,
      "Ġprobably": 3354,
      "bar": 3355,
      "ĠAng": 3356,
      "ĠWill": 3357,
      "ulations": 3358,
      "ĠNations": 3359,
      "Ġkick": 3360,
      "Ġmostly": 3361,
      "Ġactually": 3362,
      "Ġinvasion": 3363,
      "Ġbreak": 3364,
      "After": 3365,
      "oon": 3366,
      "Ġmental": 3367,
      "Ġexec": 3368,
      "ĠFrench": 3369,
      "Ġcompar": 3370,
      "Ġevolved": 3371,
      "Ġwhole": 3372,
      "ollowing": 3373,
      "ĠIsl": 3374,
      "Ġpicture": 3375,
      "ES": 3376,
      "otle": 3377,
      "ĠHis": 3378,
      "Ġrecently": 3379,
      "Ġprocesses": 3380,
      "Ġresponsible": 3381,
      "page": 3382,
      "Ġcost": 3383,
      "Ġband": 3384,
      "icit": 3385,
      "Ġreally": 3386,
      "ĠFl": 3387,
      "Ġagree": 3388,
      "Ġconditions": 3389,
      "ĠJurassic": 3390,
      "90": 3391,
      "ging": 3392,
      "uck": 3393,
      "icro": 3394,
      "Ġstep": 3395,
      "oku": 3396,
      "Ġbelief": 3397,
      "Ġwrite": 3398,
      "Ġelection": 3399,
      "Ġofficials": 3400,
      "61": 3401,
      "68": 3402,
      "auc": 3403,
      "Ġcompl": 3404,
      "ĠFr": 3405,
      "ference": 3406,
      "Ġcitations": 3407,
      "Ġcourse": 3408,
      "sh": 3409,
      "Ġcause": 3410,
      "Ġtown": 3411,
      "ĠSam": 3412,
      "Ġalt": 3413,
      "ocks": 3414,
      "Ġbooks": 3415,
      "Ġviews": 3416,
      "'re": 3417,
      "aith": 3418,
      "uge": 3419,
      "Ġtoday": 3420,
      "ĠSim": 3421,
      "ubb": 3422,
      "Ġprefer": 3423,
      "ĠArist": 3424,
      "inese": 3425,
      "Ġmedical": 3426,
      "Ġaccepted": 3427,
      "Ġregarding": 3428,
      "Ġprincip": 3429,
      "Ġfemale": 3430,
      "respond": 3431,
      "bre": 3432,
      "inction": 3433,
      "Ġcy": 3434,
      "Ġpen": 3435,
      "Ġreject": 3436,
      "Ġexhib": 3437,
      "ĠDS": 3438,
      "Ġrequests": 3439,
      "Ġengine": 3440,
      "Ġhistorical": 3441,
      "Ġdeleted": 3442,
      "ĠKingdom": 3443,
      "Ġchallen": 3444,
      "ĠSer": 3445,
      "ulated": 3446,
      "ĠGod": 3447,
      "Ġuns": 3448,
      "Ġcreativity": 3449,
      "Ġrequires": 3450,
      "Ġdistinct": 3451,
      "Ġprogramm": 3452,
      "Russ": 3453,
      "ey": 3454,
      "Ġsan": 3455,
      "arc": 3456,
      "cean": 3457,
      "ĠSm": 3458,
      "uries": 3459,
      "ĠBig": 3460,
      "Ġexternal": 3461,
      "tical": 3462,
      "Ġleave": 3463,
      "Ġregular": 3464,
      "Ġproduce": 3465,
      "Ġskill": 3466,
      "ĠMcC": 3467,
      "Ġbenef": 3468,
      "ĠEmpire": 3469,
      "62": 3470,
      "iation": 3471,
      "itch": 3472,
      "ĠCup": 3473,
      "rap": 3474,
      "Ġris": 3475,
      "ought": 3476,
      "ĠKasparov": 3477,
      "isms": 3478,
      "Ġconcerns": 3479,
      "Ġmissile": 3480,
      "Ġanti": 3481,
      "known": 3482,
      "Ġeducation": 3483,
      "ĠMediaWiki": 3484,
      "come": 3485,
      "ĠĠ": 3486,
      "Ġlight": 3487,
      "olic": 3488,
      "owl": 3489,
      "Ġcompared": 3490,
      "Ġgoing": 3491,
      "pective": 3492,
      "Ġemphas": 3493,
      "Ġdemon": 3494,
      "ĠGerman": 3495,
      "Ġwent": 3496,
      "omb": 3497,
      "Ġcomments": 3498,
      "earch": 3499,
      "Ġnumerous": 3500,
      "ĠIranian": 3501,
      "augh": 3502,
      "Ġshooting": 3503,
      "Ġsusp": 3504,
      "Ġspiritual": 3505,
      "Ġapproximately": 3506,
      "200": 3507,
      "67": 3508,
      "we": 3509,
      "Ġansw": 3510,
      "agraph": 3511,
      "osition": 3512,
      "ĠPer": 3513,
      "Ġserious": 3514,
      "Ġbattle": 3515,
      "Ġjournal": 3516,
      "Ġweapons": 3517,
      "Ġrepe": 3518,
      "Ġseem": 3519,
      "Ġunless": 3520,
      "ĠAlabama": 3521,
      "Ġcorrespond": 3522,
      "Ġdestroy": 3523,
      "Ġacademic": 3524,
      "sers": 3525,
      "onents": 3526,
      "Ġlab": 3527,
      "oting": 3528,
      "ticle": 3529,
      "ource": 3530,
      "ibly": 3531,
      "alled": 3532,
      "Ġcompan": 3533,
      "Ġ1990": 3534,
      "Ġdecision": 3535,
      "Ġcommercial": 3536,
      "AT": 3537,
      "fin": 3538,
      "na": 3539,
      "Ġtaking": 3540,
      "Ġinput": 3541,
      "Ġlo": 3542,
      "irming": 3543,
      "Ġarmy": 3544,
      "acing": 3545,
      "ĠFran": 3546,
      "ĠRf": 3547,
      "ocial": 3548,
      "Ġpossess": 3549,
      "Ġviolence": 3550,
      "Ġsuggested": 3551,
      "Ġbasis": 3552,
      "Ġsemi": 3553,
      "Ġfossil": 3554,
      "stra": 3555,
      "ĠBel": 3556,
      "Ġsec": 3557,
      "odes": 3558,
      "cluded": 3559,
      "ension": 3560,
      "Ġpublis": 3561,
      "Ġcapac": 3562,
      "Ġtribal": 3563,
      "cise": 3564,
      "ĠCour": 3565,
      "Ġscreen": 3566,
      "Ġquar": 3567,
      "Ġattribut": 3568,
      "Ġversions": 3569,
      "Ġstarting": 3570,
      "Ġbuilt": 3571,
      "Ġapplied": 3572,
      "Ġrunning": 3573,
      "Ġearliest": 3574,
      "ĠSystem": 3575,
      "bell": 3576,
      "ios": 3577,
      "Ġbiped": 3578,
      "elp": 3579,
      "ĠBoy": 3580,
      "ĠFin": 3581,
      "ĠGoku": 3582,
      "Ġund": 3583,
      "ĠSte": 3584,
      "Ġimplement": 3585,
      "Ġamount": 3586,
      "Ġdesigned": 3587,
      "Ġaspects": 3588,
      "Ġdivided": 3589,
      ",\"": 3590,
      "fix": 3591,
      "hic": 3592,
      "Ġsouth": 3593,
      "itable": 3594,
      "Ġfif": 3595,
      "aves": 3596,
      "Ġdoing": 3597,
      "ground": 3598,
      "Ġcriteria": 3599,
      "Ġdetails": 3600,
      "Ġfighting": 3601,
      "Ġexpected": 3602,
      "69": 3603,
      "Ġfed": 3604,
      "lege": 3605,
      "ĠTalk": 3606,
      "Ġ29": 3607,
      "Ġ(\"": 3608,
      "Ġstory": 3609,
      "Ġsex": 3610,
      "iance": 3611,
      "ĠDes": 3612,
      "ĠInter": 3613,
      "rought": 3614,
      "Ġmagazine": 3615,
      "Ġdifferences": 3616,
      "och": 3617,
      "Ġmiddle": 3618,
      "vere": 3619,
      "uments": 3620,
      "ministrators": 3621,
      "Ġtransl": 3622,
      "Ġclaims": 3623,
      "Ġkilling": 3624,
      "Ġexistence": 3625,
      "Ġremains": 3626,
      "Ġreplaced": 3627,
      "irtual": 3628,
      "Ġimmediately": 3629,
      "date": 3630,
      "hors": 3631,
      "son": 3632,
      "Ġever": 3633,
      "Ġgraph": 3634,
      "Ġgave": 3635,
      "ĠAir": 3636,
      "Ġconce": 3637,
      "Ġnoted": 3638,
      "ĠUN": 3639,
      "ĠLond": 3640,
      "Ġparagraph": 3641,
      "Ġfourth": 3642,
      "Ġtechnical": 3643,
      "Ġbelieved": 3644,
      "ĠChristian": 3645,
      "iability": 3646,
      "ha": 3647,
      "ĠKy": 3648,
      "ĠSea": 3649,
      "Ġseek": 3650,
      "Ġbrief": 3651,
      "inary": 3652,
      "Ġplant": 3653,
      "Ġformal": 3654,
      "Ġcover": 3655,
      "Ġflag": 3656,
      "ape": 3657,
      "ares": 3658,
      "pen": 3659,
      "asc": 3660,
      "Ġnation": 3661,
      "Ġones": 3662,
      "ĠDo": 3663,
      "Ġplants": 3664,
      "Ġimm": 3665,
      "ĠChinese": 3666,
      "Ġinstruct": 3667,
      "ĠNews": 3668,
      "Ġeventually": 3669,
      "related": 3670,
      "ML": 3671,
      "Ġaward": 3672,
      "Ġdivers": 3673,
      "Ġarm": 3674,
      "artney": 3675,
      "Ġagreement": 3676,
      "Ġprem": 3677,
      "Ġspecifically": 3678,
      "Ġlargely": 3679,
      "Ġstandards": 3680,
      "Ġparameter": 3681,
      "75": 3682,
      "entially": 3683,
      "ider": 3684,
      "verted": 3685,
      "ipment": 3686,
      "Ġprogress": 3687,
      "ĠBo": 3688,
      "Ġdescribe": 3689,
      "porary": 3690,
      "Ġdebate": 3691,
      "Ġmessage": 3692,
      "Ġgreater": 3693,
      "haps": 3694,
      "Ġtend": 3695,
      "emy": 3696,
      "ĠMe": 3697,
      "ĠMel": 3698,
      "Ġselection": 3699,
      "Ġappoint": 3700,
      "Ġ50": 3701,
      "Ġallowing": 3702,
      "vention": 3703,
      "Ġreader": 3704,
      "Ġlocated": 3705,
      "Ġhimself": 3706,
      "Ġancient": 3707,
      "Ġexamples": 3708,
      "Ġdemonstr": 3709,
      "OI": 3710,
      "Ġcross": 3711,
      "Ġbillion": 3712,
      "Ġhun": 3713,
      "Ġexact": 3714,
      "ĠLatin": 3715,
      "ĠThat": 3716,
      "Ġperman": 3717,
      "Ġ49": 3718,
      "Ġcitiz": 3719,
      "Ġwikil": 3720,
      "Ġprivate": 3721,
      "Ġpotential": 3722,
      "Ġmammals": 3723,
      "65": 3724,
      "uing": 3725,
      "Ġban": 3726,
      "ĠNFL": 3727,
      "izes": 3728,
      "Ġtrade": 3729,
      "Ġemp": 3730,
      "Ġmanag": 3731,
      "Ġpublication": 3732,
      "ĠCont": 3733,
      "box": 3734,
      "Ġsocieties": 3735,
      "ĠAfrican": 3736,
      "oscow": 3737,
      "ĠDavid": 3738,
      "//": 3739,
      "79": 3740,
      "aign": 3741,
      "link": 3742,
      "ĠPlease": 3743,
      "Ġrecomm": 3744,
      "Ġtherefore": 3745,
      "ĠAlso": 3746,
      "Ġpresented": 3747,
      "Ġdraft": 3748,
      "Ġvehic": 3749,
      "irmingham": 3750,
      "cks": 3751,
      "nel": 3752,
      "upp": 3753,
      "Ġbrought": 3754,
      "ara": 3755,
      "imal": 3756,
      "Ġarmed": 3757,
      "ĠRoman": 3758,
      "Ġextended": 3759,
      "Ġapproach": 3760,
      "Ġtags": 3761,
      "Ġcontrast": 3762,
      "Ġensure": 3763,
      "Ġnuclear": 3764,
      "ĠAristotle": 3765,
      "Ġcompanies": 3766,
      "During": 3767,
      "Ġign": 3768,
      "Ġpoll": 3769,
      "Ġthous": 3770,
      "ĠCr": 3771,
      "ĠHer": 3772,
      "ĠGreat": 3773,
      "Ġclos": 3774,
      "ords": 3775,
      "Ġimpact": 3776,
      "Ġpoor": 3777,
      "Ġinternal": 3778,
      "Ġrecorded": 3779,
      "Ġtribes": 3780,
      "Ġrestrictions": 3781,
      "Ġcircum": 3782,
      "77": 3783,
      "egr": 3784,
      "Ġfaith": 3785,
      "icts": 3786,
      "idge": 3787,
      "Ġconv": 3788,
      "Ġvict": 3789,
      "Ġdeg": 3790,
      "ĠEm": 3791,
      "Ġsynt": 3792,
      "Ġidentified": 3793,
      "Ġoriginally": 3794,
      "Ġpattern": 3795,
      "ergy": 3796,
      "ott": 3797,
      "ows": 3798,
      "Ġcommit": 3799,
      "Ġrelatively": 3800,
      "osexual": 3801,
      "Ġoutput": 3802,
      "Ġstatements": 3803,
      "Ġmarked": 3804,
      "Ġequipment": 3805,
      "Ġsituation": 3806,
      "Ġnorthern": 3807,
      "Ġefforts": 3808,
      "Ġpawn": 3809,
      "ĠLegend": 3810,
      "--": 3811,
      "bour": 3812,
      "orial": 3813,
      "Ġretain": 3814,
      "ift": 3815,
      "ĠMin": 3816,
      "ĠMoscow": 3817,
      "ĠPet": 3818,
      "Ġgrad": 3819,
      "Ġnewsp": 3820,
      "Ġregional": 3821,
      "Ġrare": 3822,
      "ĠPalestinians": 3823,
      "Ġreplace": 3824,
      "Ġclosely": 3825,
      "protect": 3826,
      "Ġmentioned": 3827,
      "Ġcontroversial": 3828,
      "ih": 3829,
      "rec": 3830,
      "Ġsites": 3831,
      "Ġpay": 3832,
      "Ġlines": 3833,
      "ĠTur": 3834,
      "ĠBowl": 3835,
      "Ġplat": 3836,
      "Ġcreative": 3837,
      "Ġinterview": 3838,
      "Ġcultures": 3839,
      "Ġpaid": 3840,
      "Ġbig": 3841,
      "arning": 3842,
      "Ġbeings": 3843,
      "Ġmoving": 3844,
      "ĠURL": 3845,
      "Ġconsc": 3846,
      "Ġsports": 3847,
      "Ġinstance": 3848,
      "89": 3849,
      "uz": 3850,
      "asts": 3851,
      "amer": 3852,
      "ĠTel": 3853,
      "Ġvary": 3854,
      "Ġsequ": 3855,
      "Ġrat": 3856,
      "ously": 3857,
      "Ġspread": 3858,
      "Ġmechan": 3859,
      "ĠArt": 3860,
      "ĠEngland": 3861,
      "Ġexpressed": 3862,
      "\")": 3863,
      "yond": 3864,
      "Ġtour": 3865,
      "ctor": 3866,
      "Ġalle": 3867,
      "ikh": 3868,
      "Ġdead": 3869,
      "Ġnearly": 3870,
      "Ġ31": 3871,
      "Ġcorpor": 3872,
      "Ġbring": 3873,
      "Ġguideline": 3874,
      "86": 3875,
      "://": 3876,
      "Ġtakes": 3877,
      "erve": 3878,
      "Ġdial": 3879,
      "Ġdied": 3880,
      "Ġconsole": 3881,
      "ĠCap": 3882,
      "Ġstru": 3883,
      "ĠJew": 3884,
      "Ġpeace": 3885,
      "Ġpositive": 3886,
      "Ġobtain": 3887,
      "Ġdoesn": 3888,
      "ĠRevolution": 3889,
      "airs": 3890,
      "Ġdisplayed": 3891,
      "IDE": 3892,
      "Ġsubstant": 3893,
      "Ġcampaign": 3894,
      "Ġsouthern": 3895,
      "Ġdisrupt": 3896,
      "Ġyoung": 3897,
      "97": 3898,
      "Ġbish": 3899,
      "Ġminist": 3900,
      "Ġvill": 3901,
      "Ġrise": 3902,
      "Ġunit": 3903,
      "Ġ2002": 3904,
      "ĠArch": 3905,
      "Ġfounded": 3906,
      "Ġclubs": 3907,
      "Ġtrying": 3908,
      "Ġphilosophy": 3909,
      "Ġalternative": 3910,
      "ĠRfC": 3911,
      "che": 3912,
      "Ġult": 3913,
      "Ġmach": 3914,
      "ikes": 3915,
      "ĠPar": 3916,
      "ĠArmed": 3917,
      "Ġbeliefs": 3918,
      "Ġcompletely": 3919,
      "Ġaid": 3920,
      "ancial": 3921,
      "Ġpun": 3922,
      "aring": 3923,
      "Ġey": 3924,
      "Ġassist": 3925,
      "Ġdetect": 3926,
      "Ġfactors": 3927,
      "Ġsignificantly": 3928,
      "Ġdrone": 3929,
      "ĠQu": 3930,
      "Ġreturned": 3931,
      "Ġtaxon": 3932,
      "Ġliterature": 3933,
      "Ġexecut": 3934,
      "ĠCourt": 3935,
      "Ġtack": 3936,
      "itect": 3937,
      "lying": 3938,
      "ĠSum": 3939,
      "Ġitems": 3940,
      "Ġexclus": 3941,
      "ultural": 3942,
      "Ġresources": 3943,
      "ountain": 3944,
      "Ġdiscovered": 3945,
      "Ġassess": 3946,
      "Ġleader": 3947,
      "ferences": 3948,
      "Ġprimates": 3949,
      "Ġstructures": 3950,
      "Ġaffected": 3951,
      "ĠMinister": 3952,
      "63": 3953,
      "fect": 3954,
      "men": 3955,
      "Ġstation": 3956,
      "ulate": 3957,
      "Ġcontract": 3958,
      "ortun": 3959,
      "Ġimpl": 3960,
      "Ġsyn": 3961,
      "Ġauthors": 3962,
      "Ġstudents": 3963,
      "Ġresulting": 3964,
      "Ġ1980": 3965,
      "OVID": 3966,
      "Ġschools": 3967,
      "which": 3968,
      "Ġlatter": 3969,
      "Ġscholars": 3970,
      "AN": 3971,
      "Be": 3972,
      "ech": 3973,
      "ma": 3974,
      "round": 3975,
      "Ġbold": 3976,
      "Ġforward": 3977,
      "raw": 3978,
      "Ġcance": 3979,
      "Ġactual": 3980,
      "Ġreportedly": 3981,
      "bitration": 3982,
      "87": 3983,
      "min": 3984,
      "rated": 3985,
      "Ġsays": 3986,
      "Ġwish": 3987,
      "raft": 3988,
      "ampion": 3989,
      "Ġreprodu": 3990,
      "Ġassum": 3991,
      "Ġrap": 3992,
      "Ġrace": 3993,
      "Ġexperien": 3994,
      "Ġauthority": 3995,
      "Ġinitially": 3996,
      "Ġadopted": 3997,
      "99": 3998,
      "time": 3999,
      "Ġcounter": 4000,
      "ĠTom": 4001,
      "ĠAct": 4002,
      "ĠBirmingham": 4003,
      "ĠOld": 4004,
      "Ġoffensive": 4005,
      "everal": 4006,
      "Ġphr": 4007,
      "obox": 4008,
      "leton": 4009,
      "ographic": 4010,
      "Ġargued": 4011,
      "Ġdisputes": 4012,
      "Ġnormal": 4013,
      "Ġasked": 4014,
      "going": 4015,
      "writ": 4016,
      "Ġir": 4017,
      "Ġborder": 4018,
      "Ġhouse": 4019,
      "ster": 4020,
      "irm": 4021,
      "ĠKr": 4022,
      "Ġquot": 4023,
      "Ġhumanity": 4024,
      "Ġorganizations": 4025,
      "Ġopening": 4026,
      "Ġspeed": 4027,
      "Ġbuilding": 4028,
      "iam": 4029,
      "Ġcas": 4030,
      "Ġpand": 4031,
      "Ġphen": 4032,
      "Ġstage": 4033,
      "Ġcomes": 4034,
      "ĠEarly": 4035,
      "ansion": 4036,
      "Ġemb": 4037,
      "Ġfacts": 4038,
      "Ġresearc": 4039,
      "Ġeconomy": 4040,
      "Ġshootings": 4041,
      "Ġethnic": 4042,
      "ĠMcCartney": 4043,
      "field": 4044,
      "name": 4045,
      "Ġbeyond": 4046,
      "Ġrate": 4047,
      "ods": 4048,
      "ĠLate": 4049,
      "ictor": 4050,
      "Ġ40": 4051,
      "Ġresulted": 4052,
      "Ġolder": 4053,
      "Ġprograms": 4054,
      "Ġtraining": 4055,
      "81": 4056,
      "82": 4057,
      "hold": 4058,
      "oz": 4059,
      "top": 4060,
      "Ġtheories": 4061,
      "Ġinser": 4062,
      "ĠHouth": 4063,
      "oney": 4064,
      "ĠWhat": 4065,
      "Ġpassed": 4066,
      "ĠCentral": 4067,
      "Ġactivities": 4068,
      "Ġwikilink": 4069,
      "including": 4070,
      "Ġsn": 4071,
      "Ġinn": 4072,
      "asks": 4073,
      "irth": 4074,
      "ĠFed": 4075,
      "ĠDel": 4076,
      "Ġenergy": 4077,
      "Ġfeed": 4078,
      "ĠAny": 4079,
      "Ġmainly": 4080,
      "While": 4081,
      "Ġcognitive": 4082,
      "SA": 4083,
      "Ġspl": 4084,
      "Ġparent": 4085,
      "Ġgun": 4086,
      "Ġnotable": 4087,
      "aker": 4088,
      "clude": 4089,
      "anges": 4090,
      "Ġfollows": 4091,
      "Ġsigned": 4092,
      "Ġpermission": 4093,
      "Ġachieve": 4094,
      "96": 4095,
      "eal": 4096,
      "game": 4097,
      "isl": 4098,
      "Ġdim": 4099,
      "othes": 4100,
      "olve": 4101,
      "ĠMa": 4102,
      "aren": 4103,
      "Ġgenus": 4104,
      "Ġoffer": 4105,
      "Ġcoverage": 4106,
      "ĠReg": 4107,
      "Ġmarkup": 4108,
      "Ġarchitect": 4109,
      "Ġproposal": 4110,
      "Ġanaly": 4111,
      "ĠPlay": 4112,
      "Ġanthropology": 4113,
      "PA": 4114,
      "book": 4115,
      "ss": 4116,
      "ithe": 4117,
      "Ġdyn": 4118,
      "oms": 4119,
      "ĠMed": 4120,
      "Ġsup": 4121,
      "ĠBand": 4122,
      "ĠFIDE": 4123,
      "Ġhair": 4124,
      "odern": 4125,
      "pper": 4126,
      "Ġended": 4127,
      "Ġlinked": 4128,
      "Ġoperations": 4129,
      "Ġfrequently": 4130,
      "72": 4131,
      "Ġcred": 4132,
      "ilies": 4133,
      "ĠTor": 4134,
      "ĠCOVID": 4135,
      "Ġsea": 4136,
      "ĠRich": 4137,
      "Ġanything": 4138,
      "Ġserve": 4139,
      "rowd": 4140,
      "Ġtrack": 4141,
      "gypt": 4142,
      "ength": 4143,
      "Ġchannel": 4144,
      "ambig": 4145,
      "85": 4146,
      ":[": 4147,
      "Ġsat": 4148,
      "Ġinside": 4149,
      "olit": 4150,
      "ĠCamp": 4151,
      "ĠMon": 4152,
      "Ġarrest": 4153,
      "ĠFree": 4154,
      "Ġclosed": 4155,
      "Ġagreed": 4156,
      "Ġoverall": 4157,
      "Ġpolice": 4158,
      "Ġaccom": 4159,
      "ĠAnother": 4160,
      "Ġextensive": 4161,
      "formation": 4162,
      "Ġremaining": 4163,
      "onym": 4164,
      "Ġquickly": 4165,
      "'d": 4166,
      "ford": 4167,
      "more": 4168,
      "Ġcovered": 4169,
      "Ġdat": 4170,
      "ĠSuch": 4171,
      "ticles": 4172,
      "Ġbott": 4173,
      "ooker": 4174,
      "Ġshowing": 4175,
      "Ġhosted": 4176,
      "force": 4177,
      "Ġpresidential": 4178,
      "Ġsquare": 4179,
      "ael": 4180,
      "rors": 4181,
      "Ġut": 4182,
      "Ġbad": 4183,
      "change": 4184,
      "ĠIm": 4185,
      "ĠBecause": 4186,
      "fully": 4187,
      "rones": 4188,
      "annica": 4189,
      "Ġdecided": 4190,
      "Ġfunctions": 4191,
      "Ġauthorities": 4192,
      "Ġcaptured": 4193,
      "ĠGermany": 4194,
      "83": 4195,
      "foot": 4196,
      "Ġtask": 4197,
      "itarian": 4198,
      "Ġbin": 4199,
      "imum": 4200,
      "Ġgives": 4201,
      "ula": 4202,
      "Ġsufficient": 4203,
      "ested": 4204,
      "ologist": 4205,
      "Ġnormally": 4206,
      "Ġconducted": 4207,
      "Ġupdated": 4208,
      "Ġfundament": 4209,
      "Ġsymb": 4210,
      ");": 4211,
      "ux": 4212,
      "osm": 4213,
      "ĠParty": 4214,
      "aches": 4215,
      "Ġreports": 4216,
      "Ġdespite": 4217,
      "Ġpersons": 4218,
      "ception": 4219,
      "Ġextreme": 4220,
      "Ġcommunication": 4221,
      "Ġsecondary": 4222,
      "Ġadvanced": 4223,
      "Ġconstruct": 4224,
      "Ġshell": 4225,
      "Ġclearly": 4226,
      "Ġfavor": 4227,
      "Ġplatform": 4228,
      "Ġrapid": 4229,
      "92": 4230,
      "tr": 4231,
      "Ġwestern": 4232,
      "Ġinsp": 4233,
      "Ġmist": 4234,
      "Ġhon": 4235,
      "ĠBab": 4236,
      "ĠEgypt": 4237,
      "Ġshared": 4238,
      "ĠLib": 4239,
      "Ġlearning": 4240,
      "Ġintegr": 4241,
      "ĠKild": 4242,
      "pecies": 4243,
      "Ġcommand": 4244,
      "Ġapes": 4245,
      "Ġclassification": 4246,
      "ĠAtari": 4247,
      "Ġlaunch": 4248,
      "Ġdetermine": 4249,
      "Ġdifference": 4250,
      "Ġparameters": 4251,
      "emplate": 4252,
      "71": 4253,
      "76": 4254,
      "TML": 4255,
      "ban": 4256,
      "ev": 4257,
      "ped": 4258,
      "ufact": 4259,
      "Ġtasks": 4260,
      "Ġcoach": 4261,
      "Ġdiscussed": 4262,
      "Ġmanufact": 4263,
      "Ġcarbon": 4264,
      "Ġlimit": 4265,
      "Ġperformance": 4266,
      "Ġdeclared": 4267,
      "ĠCanada": 4268,
      "Ġestimated": 4269,
      "Ġcircumst": 4270,
      "Ġcasual": 4271,
      "94": 4272,
      "By": 4273,
      "band": 4274,
      "gins": 4275,
      "iated": 4276,
      "light": 4277,
      "Ġovers": 4278,
      "Ġthing": 4279,
      "ĠAnt": 4280,
      "ĠPort": 4281,
      "ĠGl": 4282,
      "Ġunc": 4283,
      "Ġvalid": 4284,
      "Ġsmaller": 4285,
      "Ġeffects": 4286,
      "Ġminority": 4287,
      "ĠCoast": 4288,
      "Ġcitizens": 4289,
      "Ġpandemic": 4290,
      "Ex": 4291,
      "down": 4292,
      "pre": 4293,
      "rong": 4294,
      "Ġoption": 4295,
      "Ġants": 4296,
      "Ġhomin": 4297,
      "Ġforced": 4298,
      "ĠSun": 4299,
      "ĠVictor": 4300,
      "Ġentered": 4301,
      "Ġadvant": 4302,
      "Ġinfluenced": 4303,
      "ĠEdison": 4304,
      "Ġjoined": 4305,
      "Ġremoval": 4306,
      "ĠWikipedians": 4307,
      "Ġquarter": 4308,
      "Un": 4309,
      "ĠAut": 4310,
      "abit": 4311,
      "Ġrout": 4312,
      "ĠLaw": 4313,
      "ĠOpen": 4314,
      "Ġdisag": 4315,
      "Ġresistance": 4316,
      "Ġconsum": 4317,
      "ordin": 4318,
      "Ġagric": 4319,
      "Ġformation": 4320,
      "Ġsettle": 4321,
      "venture": 4322,
      "Ġcategor": 4323,
      "Ġbiology": 4324,
      "Ġdepart": 4325,
      "Ġproviding": 4326,
      "idden": 4327,
      "undred": 4328,
      "Ġparticipate": 4329,
      "Ġhardware": 4330,
      "Ġobserv": 4331,
      "Ġproducts": 4332,
      "Ġrelationships": 4333,
      "Ġdigital": 4334,
      "ls": 4335,
      "load": 4336,
      "Ġcere": 4337,
      "emb": 4338,
      "Ġwhom": 4339,
      "ulture": 4340,
      "ĠStar": 4341,
      "Ġexpansion": 4342,
      "Ġextra": 4343,
      "Ġprominent": 4344,
      "ĠBritannica": 4345,
      "Ġprinciple": 4346,
      "Ġradio": 4347,
      "Ġepisode": 4348,
      "POV": 4349,
      "lar": 4350,
      "lers": 4351,
      "Ġbird": 4352,
      "Ġdrones": 4353,
      "rown": 4354,
      "ilarly": 4355,
      "Ġongoing": 4356,
      "ĠBank": 4357,
      "ocrat": 4358,
      "ĠEl": 4359,
      "Ġchampionship": 4360,
      "akh": 4361,
      "Ġ2003": 4362,
      "Ġpeer": 4363,
      "ĠVirtual": 4364,
      "Ġserved": 4365,
      "Ġperspective": 4366,
      "Ġleaders": 4367,
      "Ġesc": 4368,
      "Ġpractices": 4369,
      "Ġdevices": 4370,
      "Ġweeks": 4371,
      "innae": 4372,
      "itude": 4373,
      "ĠLondon": 4374,
      "GN": 4375,
      "One": 4376,
      "Since": 4377,
      "eg": 4378,
      "kh": 4379,
      "van": 4380,
      "pped": 4381,
      "Ġdispl": 4382,
      "Ġ190": 4383,
      "fered": 4384,
      "Ġgoals": 4385,
      "Ġsole": 4386,
      "hens": 4387,
      "Ġdistribut": 4388,
      "poses": 4389,
      "Ġopened": 4390,
      "Ġciting": 4391,
      "Ġeasily": 4392,
      "Ġdomest": 4393,
      "Ġnetworks": 4394,
      "Ġinvolve": 4395,
      "Ġfailed": 4396,
      "Ġjoin": 4397,
      "wiki": 4398,
      "ĠWikiProject": 4399,
      "ĠKilda": 4400,
      "no": 4401,
      "Ġtact": 4402,
      "Ġmill": 4403,
      "igen": 4404,
      "Ġstaff": 4405,
      "ĠMet": 4406,
      "ĠBar": 4407,
      "abled": 4408,
      "Ġprefix": 4409,
      "Ġrecords": 4410,
      "Ġmotiv": 4411,
      "Ġbecoming": 4412,
      "100": 4413,
      "hing": 4414,
      "antic": 4415,
      "alt": 4416,
      "omet": 4417,
      "ifiable": 4418,
      "Ġvoc": 4419,
      "ĠGold": 4420,
      "Ġchim": 4421,
      "ĠJack": 4422,
      "active": 4423,
      "Ġbias": 4424,
      "Ġfamilies": 4425,
      "Ġvalues": 4426,
      "Ġ1970": 4427,
      "Ġfinancial": 4428,
      "Ġacceptable": 4429,
      "Ġentirely": 4430,
      "Ġplanet": 4431,
      "Ġstreng": 4432,
      "88": 4433,
      "pet": 4434,
      "oned": 4435,
      "ented": 4436,
      "ĠAc": 4437,
      "osen": 4438,
      "ĠPark": 4439,
      "illery": 4440,
      "Ġconsists": 4441,
      "ression": 4442,
      "Ġexplicit": 4443,
      "Ġoldest": 4444,
      "Ġformatting": 4445,
      "Ġinterpret": 4446,
      "91": 4447,
      "iary": 4448,
      "uh": 4449,
      "with": 4450,
      "Ġtree": 4451,
      "isual": 4452,
      "orph": 4453,
      "Ġwoman": 4454,
      "Ġhundred": 4455,
      "ĠTimes": 4456,
      "Ġwithd": 4457,
      "Ġvo": 4458,
      "ĠEastern": 4459,
      "odies": 4460,
      "Ġ1996": 4461,
      "Ġattacked": 4462,
      "Ġdepending": 4463,
      "Ġopponent": 4464,
      "Ġpurposes": 4465,
      "Ġelected": 4466,
      "Ġfields": 4467,
      "Ġcombined": 4468,
      "Ġobjects": 4469,
      "Ġwebsites": 4470,
      "Ġarrang": 4471,
      "Ġregistered": 4472,
      "Ġaccurate": 4473,
      "Ġfifth": 4474,
      "ĠTelstra": 4475,
      "Ġdatab": 4476,
      "MA": 4477,
      "cies": 4478,
      "pany": 4479,
      "oto": 4480,
      "ĠTw": 4481,
      "ements": 4482,
      "ĠMari": 4483,
      "Ġexists": 4484,
      "Ġdiss": 4485,
      "Ġrock": 4486,
      "Ġpersonnel": 4487,
      "Ġ1960": 4488,
      "Ġreduced": 4489,
      "Ġdivision": 4490,
      "Ġinstructions": 4491,
      "pass": 4492,
      "person": 4493,
      "Ġaware": 4494,
      "ream": 4495,
      "itle": 4496,
      "Ġoffered": 4497,
      "icate": 4498,
      "Ġnav": 4499,
      "Ġgiving": 4500,
      "iring": 4501,
      "iang": 4502,
      "ĠHy": 4503,
      "ĠHelp": 4504,
      "ĠUser": 4505,
      "Ġeval": 4506,
      "Ġdefensive": 4507,
      "Ġamb": 4508,
      "ĠRussians": 4509,
      "Ġworldwide": 4510,
      "etsk": 4511,
      "Ġtribe": 4512,
      "Ġinvolves": 4513,
      "Ġalleged": 4514,
      "FC": 4515,
      "eed": 4516,
      "overy": 4517,
      "inter": 4518,
      "attle": 4519,
      "Ġcast": 4520,
      "Ġhours": 4521,
      "owers": 4522,
      "andom": 4523,
      "allery": 4524,
      "Ġlet": 4525,
      "ube": 4526,
      "Ġplays": 4527,
      "Ġworkers": 4528,
      "Ġcenturies": 4529,
      "ĠConsole": 4530,
      "ĠEnter": 4531,
      "Although": 4532,
      "wikipedia": 4533,
      "Ġexperienced": 4534,
      "Ġcircumstances": 4535,
      "'ll": 4536,
      "At": 4537,
      "See": 4538,
      "gent": 4539,
      "ole": 4540,
      "onian": 4541,
      "ald": 4542,
      "Ġanat": 4543,
      "Ġlength": 4544,
      "elt": 4545,
      "ĠCre": 4546,
      "ĠCategory": 4547,
      "Ġstadium": 4548,
      "Ġprop": 4549,
      "ĠPOV": 4550,
      "Ġplaces": 4551,
      "apers": 4552,
      "ĠStyle": 4553,
      "ĠChar": 4554,
      "Ġgenetic": 4555,
      "ĠForce": 4556,
      "Ġrefers": 4557,
      "Ġenter": 4558,
      "Ġsubjects": 4559,
      "Ġattempts": 4560,
      "Ġindustrial": 4561,
      "Ġfigures": 4562,
      "Ġmathematics": 4563,
      "Ġrisk": 4564,
      "Ġconcepts": 4565,
      "Ġsplit": 4566,
      "User": 4567,
      "dition": 4568,
      "fl": 4569,
      "hi": 4570,
      "oe": 4571,
      "Ġgender": 4572,
      "ading": 4573,
      "antly": 4574,
      "Ġobvious": 4575,
      "Ġpossibly": 4576,
      "ĠCommun": 4577,
      "Ġsurround": 4578,
      "ĠWhite": 4579,
      "Ġselected": 4580,
      "Ġoptions": 4581,
      "ĠIslamic": 4582,
      "84": 4583,
      "iate": 4584,
      "Ġcut": 4585,
      "astic": 4586,
      "Ġstating": 4587,
      "iform": 4588,
      "Ġusage": 4589,
      "ĠParl": 4590,
      "ĠHTML": 4591,
      "Ġdise": 4592,
      "ologies": 4593,
      "Ġrelative": 4594,
      "Ġpron": 4595,
      "Ġblood": 4596,
      "Ġcenter": 4597,
      "anguage": 4598,
      "Ġguide": 4599,
      "Ġera": 4600,
      "Ġevolutionary": 4601,
      "Ġfriend": 4602,
      "Ġsanctions": 4603,
      "ithec": 4604,
      "Uk": 4605,
      "mon": 4606,
      "ĠIts": 4607,
      "Ġprohib": 4608,
      "ĠHist": 4609,
      "ained": 4610,
      "ĠThom": 4611,
      "Ġindex": 4612,
      "Ġworked": 4613,
      "rend": 4614,
      "ankind": 4615,
      "Ġmaterials": 4616,
      "Ġfixed": 4617,
      "Ġexpanded": 4618,
      "Ġrevealed": 4619,
      "bourne": 4620,
      "innaeus": 4621,
      "bur": 4622,
      "Ġ...": 4623,
      "Ġbirth": 4624,
      "ĠSan": 4625,
      "ĠMag": 4626,
      "Ġleaving": 4627,
      "Ġquite": 4628,
      "Ġmemory": 4629,
      "vernment": 4630,
      "Ġlocation": 4631,
      "Ġrequested": 4632,
      "Ġidentity": 4633,
      "ĠBlue": 4634,
      "Ġskin": 4635,
      "Ġaddresses": 4636,
      "Ġperformed": 4637,
      "Ġrepeated": 4638,
      "ĠParliament": 4639,
      "paces": 4640,
      "rs": 4641,
      "right": 4642,
      "Ġwrong": 4643,
      "Ġmere": 4644,
      "Ġhosp": 4645,
      "ĠPers": 4646,
      "ĠNot": 4647,
      "Ġadvert": 4648,
      "ureauc": 4649,
      "Ġworth": 4650,
      "Ġshowed": 4651,
      "Ġcivilian": 4652,
      "block": 4653,
      "Ġdecline": 4654,
      "Ġerrors": 4655,
      "Ġterritory": 4656,
      "Ġinjured": 4657,
      "ĠSchool": 4658,
      "Ġdestroyed": 4659,
      "CA": 4660,
      "Te": 4661,
      "bra": 4662,
      "point": 4663,
      "ram": 4664,
      "anmar": 4665,
      "Ġreact": 4666,
      "tery": 4667,
      "Ġvar": 4668,
      "Ġadj": 4669,
      "ackleton": 4670,
      "Ġartillery": 4671,
      "Ġconcern": 4672,
      "What": 4673,
      "ĠMinistry": 4674,
      "Ġexplanation": 4675,
      "ĠKyiv": 4676,
      "74": 4677,
      "95": 4678,
      "rict": 4679,
      "uous": 4680,
      "Ġfell": 4681,
      "Ġisol": 4682,
      "iding": 4683,
      "Ġproced": 4684,
      "ĠEach": 4685,
      "Ġship": 4686,
      "Ġeditions": 4687,
      "Ġjob": 4688,
      "Ġmeant": 4689,
      "Ġpopulations": 4690,
      "Ġfilms": 4691,
      "Ġadministrative": 4692,
      "Ġdetailed": 4693,
      "Ġprinciples": 4694,
      "Ġbottom": 4695,
      "CE": 4696,
      "ening": 4697,
      "Ġfather": 4698,
      "iced": 4699,
      "ols": 4700,
      "ĠMor": 4701,
      "Ġvote": 4702,
      "Ġvarian": 4703,
      "ĠFrom": 4704,
      "ĠHall": 4705,
      "Ġrational": 4706,
      "ĠJim": 4707,
      "ĠThus": 4708,
      "hedul": 4709,
      "ronic": 4710,
      "Ġreading": 4711,
      "note": 4712,
      "Ġcarry": 4713,
      "Ġvisible": 4714,
      "Ġexception": 4715,
      "Ġgranted": 4716,
      "ĠMelbourne": 4717,
      "93": 4718,
      "98": 4719,
      "ray": 4720,
      "Ġtim": 4721,
      "reens": 4722,
      "Ġcard": 4723,
      "oud": 4724,
      "uth": 4725,
      "ĠMich": 4726,
      "ivision": 4727,
      "Ġarc": 4728,
      "ĠNig": 4729,
      "ĠRad": 4730,
      "udd": 4731,
      "anger": 4732,
      "wood": 4733,
      "ressed": 4734,
      "Ġwarning": 4735,
      "Ġexpert": 4736,
      "Ġintroduction": 4737,
      "Ġeastern": 4738,
      "Ġmissiles": 4739,
      "Ġchoose": 4740,
      "Ġhomosexual": 4741,
      "Ġeffort": 4742,
      "Ġtouchsc": 4743,
      "Ġhypothes": 4744,
      "Ġincorpor": 4745,
      "igenous": 4746,
      "Com": 4747,
      "pread": 4748,
      "Ġcoup": 4749,
      "alse": 4750,
      "Ġbit": 4751,
      "ician": 4752,
      "Ġmother": 4753,
      "Ġlot": 4754,
      "Ġscore": 4755,
      "itext": 4756,
      "Ġcollection": 4757,
      "Ġcopyrighted": 4758,
      "Ġcombat": 4759,
      "Ġwinning": 4760,
      "idespread": 4761,
      "Ġdominant": 4762,
      "Ġdoub": 4763,
      "Ġcele": 4764,
      "Ġvehicles": 4765,
      "Ġthousands": 4766,
      "With": 4767,
      "]]": 4768,
      "gl": 4769,
      "oly": 4770,
      "sub": 4771,
      "Ġbodies": 4772,
      "Ġtold": 4773,
      "osaur": 4774,
      "Ġrefuge": 4775,
      "111": 4776,
      "Ġconstitution": 4777,
      "Ġcontaining": 4778,
      "Ġapplication": 4779,
      "ĠClub": 4780,
      "ĠKorean": 4781,
      "ĠGeorg": 4782,
      "Ġcriticized": 4783,
      "Ġnegot": 4784,
      "Ġbishop": 4785,
      "Ġresearchers": 4786,
      "73": 4787,
      "iel": 4788,
      "Ġ#": 4789,
      "Ġsort": 4790,
      "Ġmix": 4791,
      "Ġrough": 4792,
      "ĠDay": 4793,
      "ĠStud": 4794,
      "ĠStubb": 4795,
      "Ġschedul": 4796,
      "Ġdistribution": 4797,
      "Ġcontribute": 4798,
      "Ġapproval": 4799,
      "Ġidentify": 4800,
      "Ġcauses": 4801,
      "Ġlooking": 4802,
      "Ġrespectively": 4803,
      "panz": 4804,
      "Ġlosses": 4805,
      "ĠPeople": 4806,
      "Ġsubsequent": 4807,
      "Ġillust": 4808,
      "Ġdegree": 4809,
      "Ġfundamental": 4810,
      "Is": 4811,
      "Please": 4812,
      "lin": 4813,
      "lled": 4814,
      "atur": 4815,
      "Ġcrowd": 4816,
      "Ġwidespread": 4817,
      "icated": 4818,
      "Ġnative": 4819,
      "Ġlived": 4820,
      "ĠTime": 4821,
      "ĠTwo": 4822,
      "urch": 4823,
      "Ġpublishing": 4824,
      "Ġapparent": 4825,
      "Ġparties": 4826,
      "Ġchem": 4827,
      "Ġlegisl": 4828,
      "Ġindicated": 4829,
      "Ġnomination": 4830,
      "Ġlicensed": 4831,
      "Ġdouble": 4832,
      "Ġcells": 4833,
      "Ġpenal": 4834,
      "DC": 4835,
      "Ġsaf": 4836,
      "Ġhol": 4837,
      "Ġnoun": 4838,
      "ett": 4839,
      "uration": 4840,
      "ums": 4841,
      "emporary": 4842,
      "ĠFurther": 4843,
      "ĠNAT": 4844,
      "ĠOf": 4845,
      "ĠStadium": 4846,
      "Ġqueen": 4847,
      "cons": 4848,
      "ĠUnder": 4849,
      "Ġdecre": 4850,
      "Ġcapable": 4851,
      "Ġreviewed": 4852,
      "Ġopposition": 4853,
      "ttps": 4854,
      "Ġnoticeboard": 4855,
      "ĠDefense": 4856,
      "ĠFrance": 4857,
      "Ġpermanent": 4858,
      "Note": 4859,
      "ixt": 4860,
      "Ġsil": 4861,
      "Ġcosm": 4862,
      "aly": 4863,
      "Ġbranch": 4864,
      "ĠServ": 4865,
      "Ġven": 4866,
      "Ġcommander": 4867,
      "issions": 4868,
      "}},": 4869,
      "Ġnamespaces": 4870,
      "Ġcivilization": 4871,
      "Ġverb": 4872,
      "Ġrepresented": 4873,
      "Ġslow": 4874,
      "Ġemerged": 4875,
      "Ġincreasingly": 4876,
      "Ġbecomes": 4877,
      "ĠBigfoot": 4878,
      "):": 4879,
      "Ġdates": 4880,
      "illeg": 4881,
      "Ġisn": 4882,
      "Ġalone": 4883,
      "ĠMore": 4884,
      "Ġperfect": 4885,
      "Ġoffice": 4886,
      "Ġentries": 4887,
      "Ġ1999": 4888,
      "Ġwanted": 4889,
      "Ġcondition": 4890,
      "Ġconnected": 4891,
      "Ġphenomen": 4892,
      "\"[": 4893,
      "bas": 4894,
      "oo": 4895,
      "enior": 4896,
      "Ġfans": 4897,
      "icks": 4898,
      "level": 4899,
      "ĠTV": 4900,
      "ĠMart": 4901,
      "ĠPerm": 4902,
      "ĠRel": 4903,
      "ĠOcean": 4904,
      "outhe": 4905,
      "Ġperhaps": 4906,
      "Ġnovel": 4907,
      "Ġblocks": 4908,
      "Ġinterface": 4909,
      "Ġentry": 4910,
      "Ġcritical": 4911,
      "Ġclassical": 4912,
      "Ġhands": 4913,
      "Ġcharacteristics": 4914,
      "iques": 4915,
      "Ġequival": 4916,
      "Ġelections": 4917,
      "Ġparticipants": 4918,
      "Ġdetermined": 4919,
      "Ġnegative": 4920,
      "ĠDonetsk": 4921,
      "Ġdisruptive": 4922,
      "Ġmachine": 4923,
      "Ġadvantage": 4924,
      "gor": 4925,
      "uations": 4926,
      "vil": 4927,
      "Ġic": 4928,
      "Ġcart": 4929,
      "Ġcite": 4930,
      "Ġbomb": 4931,
      "ĠIGN": 4932,
      "ister": 4933,
      "que": 4934,
      "ĠEven": 4935,
      "Ġrates": 4936,
      "Ġunlike": 4937,
      "Ġsciences": 4938,
      "Ġattract": 4939,
      "Ġsoon": 4940,
      "Ġpresence": 4941,
      "Ġdeveloping": 4942,
      "Ġwhereas": 4943,
      "Ġreform": 4944,
      "ĠShackleton": 4945,
      "Ġsomew": 4946,
      "Ġapproved": 4947,
      "Ġpurch": 4948,
      "Ġmeasure": 4949,
      "ĠNATO": 4950,
      "All": 4951,
      "ON": 4952,
      "aily": 4953,
      "car": 4954,
      "met": 4955,
      "po": 4956,
      "sky": 4957,
      "restr": 4958,
      "Ġsides": 4959,
      "Ġbound": 4960,
      "Ġhar": 4961,
      "aments": 4962,
      "ĠSher": 4963,
      "Ġnotably": 4964,
      "ĠHumans": 4965,
      "ogs": 4966,
      "Ġclar": 4967,
      "Ġclimate": 4968,
      "oreau": 4969,
      "ĠVal": 4970,
      "Ġbackground": 4971,
      "Ġcontrols": 4972,
      "Ġelement": 4973,
      "Ġcomputers": 4974,
      "Ġreceive": 4975,
      "Ġindicate": 4976,
      "Ġreduce": 4977,
      "Ġmessages": 4978,
      "ĠMuslim": 4979,
      "Ġbehaviors": 4980,
      "Ġbrowser": 4981,
      "Ġappointed": 4982,
      "ĠCampbell": 4983,
      "ym": 4984,
      "Ġ/": 4985,
      "Ġilleg": 4986,
      "Ġhor": 4987,
      "ĠSou": 4988,
      "Ġconsequ": 4989,
      "ĠHol": 4990,
      "Ġletter": 4991,
      "ĠVFL": 4992,
      "Ġyourself": 4993,
      "Ġadvice": 4994,
      "Ġargument": 4995,
      "Ġscientists": 4996,
      "Ġvisual": 4997,
      "Ġstrongly": 4998,
      "ĠGuard": 4999,
      "ĠMyanmar": 5000,
      "Ġdefeated": 5001,
      "restrial": 5002,
      "LA": 5003,
      "OS": 5004,
      "cop": 5005,
      "ico": 5006,
      "Ġharm": 5007,
      "Ġnations": 5008,
      "ĠCal": 5009,
      "aint": 5010,
      "ailand": 5011,
      "tebr": 5012,
      "Ġinstitut": 5013,
      "Ġsets": 5014,
      "Ġ1991": 5015,
      "Ġsurvey": 5016,
      "Ġfreely": 5017,
      "Ġspeech": 5018,
      "ĠQue": 5019,
      "Ġcalc": 5020,
      "ureaucrat": 5021,
      "DP": 5022,
      "only": 5023,
      "orge": 5024,
      "Ġfine": 5025,
      "Ġmut": 5026,
      "Ġeast": 5027,
      "amples": 5028,
      "ola": 5029,
      "ĠTown": 5030,
      "rack": 5031,
      "estine": 5032,
      "ĠDisc": 5033,
      "ĠLinnaeus": 5034,
      "ĠJe": 5035,
      "Ġquant": 5036,
      "Ġ60": 5037,
      "Ġcontributed": 5038,
      "ashing": 5039,
      "Ġlogged": 5040,
      "Ġcapture": 5041,
      "gency": 5042,
      "Ġchoice": 5043,
      "Ġfederal": 5044,
      "Ġminister": 5045,
      "Ġarchitecture": 5046,
      "</": 5047,
      "Many": 5048,
      "cre": 5049,
      "sing": 5050,
      "usion": 5051,
      "otional": 5052,
      "elcome": 5053,
      "ĠBul": 5054,
      "ĠFollowing": 5055,
      "ĠNet": 5056,
      "secut": 5057,
      "ĠDis": 5058,
      "Ġchampion": 5059,
      "ears": 5060,
      "oke": 5061,
      "Ġweight": 5062,
      "Ġbots": 5063,
      "Ġsimpl": 5064,
      "ĠZeal": 5065,
      "Ġtransfer": 5066,
      "Ġofficially": 5067,
      "Ġtraits": 5068,
      "Ġeditorial": 5069,
      "key": 5070,
      "Ġadvance": 5071,
      "Ġcarried": 5072,
      "Ġopportun": 5073,
      "Ġarchive": 5074,
      "Ġmarks": 5075,
      "Ġalongside": 5076,
      "risis": 5077,
      "Ġdebut": 5078,
      "ĠGround": 5079,
      "Ġrecognized": 5080,
      "Ġphotograph": 5081,
      "iliar": 5082,
      "Ġlicenses": 5083,
      "ĠBabyl": 5084,
      "GB": 5085,
      "lo": 5086,
      "Ġfalse": 5087,
      "urning": 5088,
      "Ġord": 5089,
      "Ġste": 5090,
      "ĠPan": 5091,
      "Ġneigh": 5092,
      "Ġevac": 5093,
      "Ġdefense": 5094,
      "Ġaccused": 5095,
      "Ġdecisions": 5096,
      "Ġartist": 5097,
      "}}.": 5098,
      "Ġcompetitions": 5099,
      "Ġranked": 5100,
      "Ġchannels": 5101,
      "ĠNorthern": 5102,
      "ĠDespite": 5103,
      "Ġdiverse": 5104,
      "Most": 5105,
      "bi": 5106,
      "bane": 5107,
      "col": 5108,
      "win": 5109,
      "~~": 5110,
      "Ġfing": 5111,
      "Ġfelt": 5112,
      "Ġmax": 5113,
      "urd": 5114,
      "Ġitem": 5115,
      "iff": 5116,
      "ĠFA": 5117,
      "ĠFile": 5118,
      "ĠRiver": 5119,
      "These": 5120,
      "Ġbutton": 5121,
      "Ġjoint": 5122,
      "icted": 5123,
      "rior": 5124,
      "tainment": 5125,
      "Ġinternet": 5126,
      "Ġmodels": 5127,
      "Ġperiods": 5128,
      "Ġdownload": 5129,
      "risbane": 5130,
      "Ġrevision": 5131,
      "ĠEncyclop": 5132,
      "Ġexperiment": 5133,
      "Ġstrugg": 5134,
      "Ġphrase": 5135,
      "ambiguation": 5136,
      "ĠZealand": 5137,
      "Ġtab": 5138,
      "erves": 5139,
      "Ġwire": 5140,
      "Ġfreed": 5141,
      "Ġmoney": 5142,
      "Ġrevers": 5143,
      "enth": 5144,
      "utes": 5145,
      "ĠIS": 5146,
      "ĠIDF": 5147,
      "Ġrandom": 5148,
      "ĠStre": 5149,
      "Ġparl": 5150,
      "Ġdescribes": 5151,
      "Ġimportance": 5152,
      "Ġshortcut": 5153,
      "Ġengines": 5154,
      "Ġpsychological": 5155,
      "Ġgreatly": 5156,
      "ĠCentre": 5157,
      "ĠGroup": 5158,
      "Ġjudg": 5159,
      "Ġchimpanz": 5160,
      "firmed": 5161,
      "hood": 5162,
      "ners": 5163,
      "Ġoil": 5164,
      "Ġmicro": 5165,
      "Ġlives": 5166,
      "Ġgold": 5167,
      "ads": 5168,
      "ellect": 5169,
      "ĠBur": 5170,
      "Ġvast": 5171,
      "ĠPa": 5172,
      "ĠHell": 5173,
      "ĠDem": 5174,
      "Ġcompat": 5175,
      "ensions": 5176,
      "Ġpreced": 5177,
      "ĠVisual": 5178,
      "Ġcoop": 5179,
      "Ġlisting": 5180,
      "Ġpublications": 5181,
      "Ġchanging": 5182,
      "puter": 5183,
      "Ġorganisms": 5184,
      "Ġwikitext": 5185,
      "Ġcausing": 5186,
      "Ġconflicts": 5187,
      "Ġstrategy": 5188,
      "Ġvolunteers": 5189,
      "Ġrejected": 5190,
      "Ġcorresponding": 5191,
      "Ġawarded": 5192,
      "Ġnavig": 5193,
      "dis": 5194,
      "uated": 5195,
      "inated": 5196,
      "ishes": 5197,
      "Ġpaper": 5198,
      "Ġfit": 5199,
      "Ġtoward": 5200,
      "Ġmales": 5201,
      "Ġdedic": 5202,
      "Ġhot": 5203,
      "Ġnine": 5204,
      "Ġsevere": 5205,
      "Ġcontents": 5206,
      "aked": 5207,
      "Ġgrand": 5208,
      "Ġsubsc": 5209,
      "ĠSecond": 5210,
      "Ġroles": 5211,
      "Ġ1998": 5212,
      "Ġargue": 5213,
      "Ġengage": 5214,
      "Ġnecessarily": 5215,
      "Ġopinions": 5216,
      "Ġskills": 5217,
      "Ġcapacity": 5218,
      "ĠEntertainment": 5219,
      "ditionally": 5220,
      "ĠBabylon": 5221,
      "Eng": 5222,
      "hr": 5223,
      "pages": 5224,
      "ze": 5225,
      "Ġ00": 5226,
      "Ġtell": 5227,
      "ini": 5228,
      "Ġdiversity": 5229,
      "Ġgreen": 5230,
      "ĠIr": 5231,
      "ĠSyr": 5232,
      "Ġdeploy": 5233,
      "ĠPat": 5234,
      "ĠFirst": 5235,
      "quests": 5236,
      "ocene": 5237,
      "Ġunable": 5238,
      "Ġintro": 5239,
      "rug": 5240,
      "itely": 5241,
      "Ġrook": 5242,
      "Ġemail": 5243,
      "Ġextent": 5244,
      "Ġmanner": 5245,
      "ilitary": 5246,
      "Ġraised": 5247,
      "Ġannual": 5248,
      "Ġdepend": 5249,
      "Ġconstruction": 5250,
      "Ġviolation": 5251,
      "Ġdemand": 5252,
      "ĠCenter": 5253,
      "Ġexplained": 5254,
      "Ġinvolving": 5255,
      "Editor": 5256,
      "Ġheavy": 5257,
      "ĠAlexander": 5258,
      "Humans": 5259,
      "],": 5260,
      "bor": 5261,
      "war": 5262,
      "ero": 5263,
      "Ġwa": 5264,
      "Ġdark": 5265,
      "otic": 5266,
      "olf": 5267,
      "rav": 5268,
      "ĠTheir": 5269,
      "Ġarts": 5270,
      "ĠPower": 5271,
      "ĠPsych": 5272,
      "ĠDep": 5273,
      "Ġtrust": 5274,
      "ĠVir": 5275,
      "ĠArbitration": 5276,
      "Ġdevelopers": 5277,
      "ĠAmericans": 5278,
      "Ġ1993": 5279,
      "Ġcompleted": 5280,
      "Ġ80": 5281,
      "Ġclean": 5282,
      "ĠEditors": 5283,
      "Ġdeclined": 5284,
      "Ġrequirements": 5285,
      "Ġessential": 5286,
      "Ġaffili": 5287,
      "Ġcandidate": 5288,
      "Ġdialect": 5289,
      "Ġcasualties": 5290,
      "Ġparliament": 5291,
      "IS": 5292,
      "aud": 5293,
      "body": 5294,
      "des": 5295,
      "gence": 5296,
      "uel": 5297,
      "uff": 5298,
      "Ġtrend": 5299,
      "orb": 5300,
      "Ġec": 5301,
      "Ġlove": 5302,
      "agues": 5303,
      "Ġchosen": 5304,
      "ĠLex": 5305,
      "ifications": 5306,
      "Ġassigned": 5307,
      "ĠDev": 5308,
      "ĠAsian": 5309,
      "Ġcolum": 5310,
      "Ġexplos": 5311,
      "Ġtechniques": 5312,
      "Ġdepends": 5313,
      "Ġsuggests": 5314,
      "Russia": 5315,
      "protected": 5316,
      "Ġstrength": 5317,
      "lig": 5318,
      "ying": 5319,
      "Ġcat": 5320,
      "leep": 5321,
      "Ġdrop": 5322,
      "Ġconvers": 5323,
      "urs": 5324,
      "ĠCons": 5325,
      "ĠCarl": 5326,
      "ĠCOI": 5327,
      "Ġstay": 5328,
      "ĠBer": 5329,
      "ĠBang": 5330,
      "ĠBoth": 5331,
      "Ġplans": 5332,
      "ĠOper": 5333,
      "Ġtrial": 5334,
      "orders": 5335,
      "Ġstudied": 5336,
      "oyal": 5337,
      "Ġgovernments": 5338,
      "Ġmodified": 5339,
      "ĠConst": 5340,
      "Ġruled": 5341,
      "Ġidentif": 5342,
      "Ġapplies": 5343,
      "ĠSpade": 5344,
      "Ġforest": 5345,
      "Ġmeeting": 5346,
      "ĠAbd": 5347,
      "Ġspoken": 5348,
      "Ġderived": 5349,
      "joy": 5350,
      "Ġsales": 5351,
      "Ġbran": 5352,
      "Ġmig": 5353,
      "ĠMex": 5354,
      "ĠBrisbane": 5355,
      "ĠJames": 5356,
      "Ġabst": 5357,
      "riage": 5358,
      "Ġwikis": 5359,
      "Ġadministration": 5360,
      "Ġfamous": 5361,
      "Ġpromoted": 5362,
      "Ġreviews": 5363,
      "ĠClass": 5364,
      "Ġpowerful": 5365,
      "Ġpotentially": 5366,
      "Ġcollaborative": 5367,
      "Ġmathematical": 5368,
      "brevi": 5369,
      "aught": 5370,
      "ocratic": 5371,
      "ĠMichael": 5372,
      "ta": 5373,
      "erved": 5374,
      "iled": 5375,
      "ago": 5376,
      "Ġexchange": 5377,
      "ĠPol": 5378,
      "ĠPDF": 5379,
      "ĠNPOV": 5380,
      "ĠHen": 5381,
      "ĠRights": 5382,
      "ĠInt": 5383,
      "ounded": 5384,
      "overs": 5385,
      "123": 5386,
      "Ġdescript": 5387,
      "ĠCommission": 5388,
      "Ġsurface": 5389,
      "Ġrepresents": 5390,
      "ĠBritain": 5391,
      "Ġviolations": 5392,
      "Ġmuse": 5393,
      "Ġerror": 5394,
      "Ġcombination": 5395,
      "Ġassociation": 5396,
      "Another": 5397,
      "Ġlibrary": 5398,
      "Ġpaint": 5399,
      "Ġaudience": 5400,
      "Ġaudio": 5401,
      "Ġacquired": 5402,
      "Ġheavily": 5403,
      "Ġdamage": 5404,
      "Ġtreated": 5405,
      "Ġanswer": 5406,
      "Ġdatabase": 5407,
      "Ġpronoun": 5408,
      "ĠGeorgia": 5409,
      "RO": 5410,
      "equ": 5411,
      "ij": 5412,
      "ref": 5413,
      "erated": 5414,
      "ometimes": 5415,
      "Ġhous": 5416,
      "Ġreality": 5417,
      "idan": 5418,
      "ĠCivil": 5419,
      "Ġsevent": 5420,
      "ĠFore": 5421,
      "ĠRober": 5422,
      "ĠDan": 5423,
      "ĠDar": 5424,
      "anga": 5425,
      "Ġperce": 5426,
      "Ġweak": 5427,
      "Ġgramm": 5428,
      "Ġmanip": 5429,
      "Ġmulti": 5430,
      "Ġeasier": 5431,
      "ĠGeorge": 5432,
      "ĠCarbon": 5433,
      "Ġcriticism": 5434,
      "Ġterritories": 5435,
      "Ġpawns": 5436,
      "Ġmeasures": 5437,
      "Ġsubsequently": 5438,
      "Ġprogramming": 5439,
      "ĠJewish": 5440,
      "ĠPermian": 5441,
      "118": 5442,
      "language": 5443,
      "rie": 5444,
      "Ġsave": 5445,
      "Ġwest": 5446,
      "Ġinline": 5447,
      "ustic": 5448,
      "Ġlingu": 5449,
      "unk": 5450,
      "ĠCop": 5451,
      "ĠBill": 5452,
      "ogen": 5453,
      "Ġscale": 5454,
      "Ġspecified": 5455,
      "Ġ300": 5456,
      "101": 5457,
      "105": 5458,
      "Ġcoal": 5459,
      "125": 5460,
      "130": 5461,
      "Ġextinct": 5462,
      "Ġissued": 5463,
      "Ġthinking": 5464,
      "ylan": 5465,
      "Ġindicates": 5466,
      "Ġcrimes": 5467,
      "Ġgrowing": 5468,
      "Ġobserved": 5469,
      "Ġturned": 5470,
      "Ġimmediate": 5471,
      "author": 5472,
      "Ġdefeat": 5473,
      "Ġencouraged": 5474,
      "Ġinvestigation": 5475,
      "ĠOlympic": 5476,
      "ĠCrime": 5477,
      "ĠHouthi": 5478,
      "CC": 5479,
      "comm": 5480,
      "rant": 5481,
      "yan": 5482,
      "ĠĠĊ": 5483,
      "Ġlif": 5484,
      "ĠAge": 5485,
      "ĠSn": 5486,
      "Ġordered": 5487,
      "racy": 5488,
      "Ġunf": 5489,
      "illin": 5490,
      "Ġabbrevi": 5491,
      "Ġresolve": 5492,
      "Ġteach": 5493,
      "itional": 5494,
      "Ġprep": 5495,
      "120": 5496,
      "126": 5497,
      "Ġcolony": 5498,
      "Ġowned": 5499,
      "Ġcontinues": 5500,
      "Ġcontrolled": 5501,
      "Ġequal": 5502,
      "Ġslight": 5503,
      "ipped": 5504,
      "Ġspeakers": 5505,
      "ĠInstitute": 5506,
      "Ġnewspaper": 5507,
      "Ġultimately": 5508,
      "Ġinnov": 5509,
      "ithecus": 5510,
      "Sc": 5511,
      "space": 5512,
      "Ġcore": 5513,
      "alle": 5514,
      "Ġdro": 5515,
      "omatic": 5516,
      "Ġhope": 5517,
      "ĠTer": 5518,
      "ĠAg": 5519,
      "ĠCong": 5520,
      "Ġorient": 5521,
      "Ġstra": 5522,
      "ĠWind": 5523,
      "ĠMo": 5524,
      "Ġdeep": 5525,
      "ĠNup": 5526,
      "Ġuniform": 5527,
      "Ġintellect": 5528,
      "Ġimag": 5529,
      "Ġcomposed": 5530,
      "Ġpermitted": 5531,
      "ĠVer": 5532,
      "Ġcommunities": 5533,
      "Ġdistinction": 5534,
      "Ġpossibility": 5535,
      "Ġ64": 5536,
      "Ġinterested": 5537,
      "Ġcareer": 5538,
      "Ġtournaments": 5539,
      "ĠYemeni": 5540,
      "ĠCorps": 5541,
      "Ġbehaviour": 5542,
      "ĠAngel": 5543,
      "Ġmanagement": 5544,
      "Ġexecutive": 5545,
      "largest": 5546,
      "Ġbirds": 5547,
      "ĠThomas": 5548,
      "Ġequivalent": 5549,
      "Ġinstitutions": 5550,
      "English": 5551,
      "No": 5552,
      "We": 5553,
      "greg": 5554,
      "iet": 5555,
      "ya": 5556,
      "Ġwild": 5557,
      "Ġmom": 5558,
      "Ġdipl": 5559,
      "Ġgaming": 5560,
      "ĠThailand": 5561,
      "Ġenforce": 5562,
      "ĠArticle": 5563,
      "108": 5564,
      "Ġprotest": 5565,
      "Ġ1997": 5566,
      "Ġleadership": 5567,
      "Ġadvoc": 5568,
      "oids": 5569,
      "Ġimproved": 5570,
      "Ġeasy": 5571,
      "ĠPhil": 5572,
      "Ġconnection": 5573,
      "Ġemployees": 5574,
      "Ġgained": 5575,
      "Ġdistinguish": 5576,
      "onymous": 5577,
      "ĠRadio": 5578,
      "500": 5579,
      "SS": 5580,
      "hat": 5581,
      "lad": 5582,
      "lav": 5583,
      "mark": 5584,
      "uable": 5585,
      "za": 5586,
      "hetic": 5587,
      "Ġsal": 5588,
      "orter": 5589,
      "Ġboss": 5590,
      "Ġhit": 5591,
      "ctive": 5592,
      "rov": 5593,
      "Ġgot": 5594,
      "ĠSub": 5595,
      "ĠCount": 5596,
      "ĠBra": 5597,
      "Ġexer": 5598,
      "Ġabuse": 5599,
      "update": 5600,
      "Ġgameplay": 5601,
      "106": 5602,
      "Ġcopies": 5603,
      "ĠPalestine": 5604,
      "ĠOrgan": 5605,
      "ĠBrig": 5606,
      "ĠInstead": 5607,
      "Ġexhibition": 5608,
      "ĠStreet": 5609,
      "'.": 5610,
      "112": 5611,
      "herent": 5612,
      "ules": 5613,
      "term": 5614,
      "Ġsuitable": 5615,
      "Ġseasons": 5616,
      "ocide": 5617,
      "Ġranks": 5618,
      "ĠLater": 5619,
      "Ġneuro": 5620,
      "ruption": 5621,
      "Ġenemy": 5622,
      "Ġreput": 5623,
      "ĠSecurity": 5624,
      "Ġgenerated": 5625,
      "124": 5626,
      "Ġ1994": 5627,
      "Ġsupporting": 5628,
      "Ġoperation": 5629,
      "Ġopposed": 5630,
      "Ġconcerned": 5631,
      "Ġdevice": 5632,
      "ĠCompany": 5633,
      "Ġsongs": 5634,
      "Ġpictures": 5635,
      "Ġancestor": 5636,
      "ĠFinland": 5637,
      "Ġicon": 5638,
      "ĠSheridan": 5639,
      "ĠEncyclopedia": 5640,
      "Ġdedicated": 5641,
      "),[": 5642,
      "RC": 5643,
      "efin": 5644,
      "li": 5645,
      "mission": 5646,
      "ugh": 5647,
      "inst": 5648,
      "omes": 5649,
      "Ġhidden": 5650,
      "ĠTim": 5651,
      "Ġstages": 5652,
      "isted": 5653,
      "ĠWeb": 5654,
      "ĠHow": 5655,
      "aints": 5656,
      "sored": 5657,
      "Ġtried": 5658,
      "103": 5659,
      "165": 5660,
      "Ġhelpful": 5661,
      "Ġkept": 5662,
      "ĠGrand": 5663,
      "Ġrestricted": 5664,
      "Ġphilosop": 5665,
      "Ġfemales": 5666,
      "Ġdisruption": 5667,
      "Ġurban": 5668,
      "Ġwatchlist": 5669,
      "ozo": 5670,
      "Ġscheduled": 5671,
      "Ġbranches": 5672,
      "ĠNupedia": 5673,
      "Americ": 5674,
      "han": 5675,
      "hist": 5676,
      "Ġcrisis": 5677,
      "ena": 5678,
      "Ġpick": 5679,
      "Ġreverted": 5680,
      "amoto": 5681,
      "stood": 5682,
      "adian": 5683,
      "ĠCE": 5684,
      "irl": 5685,
      "iferous": 5686,
      "ĠModern": 5687,
      "ĠBattle": 5688,
      "Ġnothing": 5689,
      "ĠNative": 5690,
      "ĠGre": 5691,
      "Ġcontemporary": 5692,
      "ogle": 5693,
      "ĠLic": 5694,
      "Ġdefence": 5695,
      "Ġsupports": 5696,
      "Ġcollege": 5697,
      "Ġviewed": 5698,
      "Ġexperts": 5699,
      "Ġapplications": 5700,
      "Ġelim": 5701,
      "Ġpopularity": 5702,
      "Ġlogo": 5703,
      "Ġdeliber": 5704,
      "Ġdelete": 5705,
      "Ġfocused": 5706,
      "ĠPrime": 5707,
      "ĠGovernment": 5708,
      "Ġredirects": 5709,
      "Ġvolunteer": 5710,
      "Ġattributed": 5711,
      "Ġpremiers": 5712,
      "ĠBandai": 5713,
      "Ġdisplays": 5714,
      "ashington": 5715,
      "ustice": 5716,
      "BA": 5717,
      "ga": 5718,
      "yles": 5719,
      "Ġspect": 5720,
      "Ġsenior": 5721,
      "entions": 5722,
      "using": 5723,
      "cell": 5724,
      "eline": 5725,
      "Ġnotation": 5726,
      "ewards": 5727,
      "oday": 5728,
      "Ġchief": 5729,
      "ĠVol": 5730,
      "Ġdiscour": 5731,
      "109": 5732,
      "Ġends": 5733,
      "Ġstudio": 5734,
      "Ġcalling": 5735,
      "Ġstrict": 5736,
      "Ġvariation": 5737,
      "Ġhelps": 5738,
      "annel": 5739,
      "ĠUkrainians": 5740,
      "Ġorganized": 5741,
      "Ġminutes": 5742,
      "Ġregarded": 5743,
      "Ġupper": 5744,
      "Ġresponsibility": 5745,
      "Ġsituations": 5746,
      "Ġsuspect": 5747,
      "Ġdenied": 5748,
      "ĠWilliam": 5749,
      "Ġpublisher": 5750,
      "ĠService": 5751,
      "Category": 5752,
      "Gen": 5753,
      "OC": 5754,
      "zh": 5755,
      "Ġborn": 5756,
      "Ġfol": 5757,
      "iling": 5758,
      "ĠApp": 5759,
      "ĠCC": 5760,
      "iant": 5761,
      "ĠHa": 5762,
      "Ġadult": 5763,
      "ĠOver": 5764,
      "Ġdism": 5765,
      "irection": 5766,
      "ĠStrip": 5767,
      "Ġdesk": 5768,
      "102": 5769,
      "107": 5770,
      "Ġcoast": 5771,
      "Ġcook": 5772,
      "121": 5773,
      "Ġappeal": 5774,
      "Ġdirector": 5775,
      "Ġtypical": 5776,
      "ĠAdv": 5777,
      "Ġcondem": 5778,
      "prof": 5779,
      "ĠScott": 5780,
      "Ġproperty": 5781,
      "Ġphoto": 5782,
      "Ġmaintained": 5783,
      "Ġsquares": 5784,
      "Ġpressure": 5785,
      "Ġoccupied": 5786,
      "Ġcommitted": 5787,
      "Ġquotation": 5788,
      "Ġdomestic": 5789,
      "Ġcelebr": 5790,
      "ĠMexico": 5791,
      "119": 5792,
      "Cl": 5793,
      "Do": 5794,
      "Following": 5795,
      "Other": 5796,
      "bot": 5797,
      "names": 5798,
      "title": 5799,
      "xy": 5800,
      "encies": 5801,
      "Ġwind": 5802,
      "Ġinapp": 5803,
      "Ġrevert": 5804,
      "ĠWashington": 5805,
      "Ġproport": 5806,
      "ĠBudd": 5807,
      "ounder": 5808,
      "andr": 5809,
      "quart": 5810,
      "Ġrival": 5811,
      "ĠJer": 5812,
      "Ġabilities": 5813,
      "Ġenjoy": 5814,
      "irstr": 5815,
      "Ġspaces": 5816,
      "ategories": 5817,
      "127": 5818,
      "Ġmatters": 5819,
      "Ġentertain": 5820,
      "Ġextinction": 5821,
      "Ġpublicly": 5822,
      "Ġ1992": 5823,
      "Ġhelped": 5824,
      "Ġpromote": 5825,
      "Ġdrawn": 5826,
      "Ġblocking": 5827,
      "Ġfinals": 5828,
      "ĠBefore": 5829,
      "Ġsuffered": 5830,
      "Ġaltru": 5831,
      "Ġvillage": 5832,
      "Ġmillions": 5833,
      "Ġmerely": 5834,
      "Ġroughly": 5835,
      "ĠTownship": 5836,
      "114": 5837,
      "Cont": 5838,
      "Talk": 5839,
      "do": 5840,
      "nd": 5841,
      "niv": 5842,
      "rical": 5843,
      "word": 5844,
      "Ġson": 5845,
      "Ġwear": 5846,
      "ashes": 5847,
      "Ġgas": 5848,
      "Ġgrew": 5849,
      "ĠSanger": 5850,
      "ĠBen": 5851,
      "ĠLions": 5852,
      "artment": 5853,
      "Ġcomponents": 5854,
      "Ġschem": 5855,
      "Ġoverl": 5856,
      "aws": 5857,
      "Ġserver": 5858,
      "erman": 5859,
      "Ġacting": 5860,
      "tenance": 5861,
      "Ġtemper": 5862,
      "rator": 5863,
      "Ġorigins": 5864,
      "ĠShad": 5865,
      "Ġoccasion": 5866,
      "Ġvaluable": 5867,
      "Ġheading": 5868,
      "Ġverifiable": 5869,
      "Ġparticipation": 5870,
      "othing": 5871,
      "Ġmagn": 5872,
      "Ġuploaded": 5873,
      "Ġachieved": 5874,
      "Ġeyes": 5875,
      "Ġcancelled": 5876,
      "ĠKrillin": 5877,
      "arents": 5878,
      "ĠMario": 5879,
      "Ġcouple": 5880,
      "Ġillegal": 5881,
      "ĠSouthern": 5882,
      "AA": 5883,
      "gun": 5884,
      "nb": 5885,
      "path": 5886,
      "sk": 5887,
      "uate": 5888,
      "Ġx": 5889,
      "Ġtanks": 5890,
      "Ġairstr": 5891,
      "rees": 5892,
      "ato": 5893,
      "Ġsister": 5894,
      "ester": 5895,
      "orill": 5896,
      "Ġpra": 5897,
      "Ġpure": 5898,
      "Ġpack": 5899,
      "Ġfill": 5900,
      "Ġdaily": 5901,
      "Ġnight": 5902,
      "road": 5903,
      "ida": 5904,
      "ĠIra": 5905,
      "osh": 5906,
      "ĠMal": 5907,
      "Ġcoming": 5908,
      "ĠDylan": 5909,
      "ighter": 5910,
      "Ġ1950": 5911,
      "Ġtempor": 5912,
      "athon": 5913,
      "Ġtitled": 5914,
      "Ġclasses": 5915,
      "Ġclassified": 5916,
      "Ġdraf": 5917,
      "Ġ1988": 5918,
      "Ġ90": 5919,
      "Ġargues": 5920,
      "Ġreasoning": 5921,
      "Ġmedic": 5922,
      "Ġmassac": 5923,
      "Ġsummar": 5924,
      "Ġcreationism": 5925,
      "Ġcolonies": 5926,
      "Ġspokes": 5927,
      "Administrators": 5928,
      "ĠOlympics": 5929,
      "Ġpreferred": 5930,
      "Ġchallenged": 5931,
      "ĠSmith": 5932,
      "Ġemphasis": 5933,
      "Ġsyntax": 5934,
      "Ġvoice": 5935,
      "ĠNigeria": 5936,
      ">...": 5937,
      "IT": 5938,
      "ius": 5939,
      "party": 5940,
      "Ġtal": 5941,
      "Ġfranch": 5942,
      "ĠTri": 5943,
      "ela": 5944,
      "ĠCam": 5945,
      "Ġstars": 5946,
      "istan": 5947,
      "ipline": 5948,
      "oples": 5949,
      "Ġvotes": 5950,
      "acc": 5951,
      "ĠRem": 5952,
      "Ġheart": 5953,
      "cles": 5954,
      "Ġcommission": 5955,
      "ĠStep": 5956,
      "Ġprecise": 5957,
      "Ġnewly": 5958,
      "Ġacts": 5959,
      "Ġusername": 5960,
      "Ġcentre": 5961,
      "Ġstring": 5962,
      "Ġcontinuing": 5963,
      "Ġfactor": 5964,
      "Ġfilter": 5965,
      "Ġeverything": 5966,
      "Ġrepresentation": 5967,
      "Ġoccurs": 5968,
      "Ġnorms": 5969,
      "ĠResearch": 5970,
      "ĠDefence": 5971,
      "Ġelsewhere": 5972,
      "Ġknight": 5973,
      "Ġsuspended": 5974,
      "Ġlabel": 5975,
      "ĠSummer": 5976,
      ">...</": 5977,
      "',": 5978,
      "MF": 5979,
      "mins": 5980,
      "pres": 5981,
      "Ġsend": 5982,
      "Ġwider": 5983,
      "Ġmand": 5984,
      "Ġnone": 5985,
      "ĠAp": 5986,
      "ĠMat": 5987,
      "ruit": 5988,
      "orship": 5989,
      "Ġending": 5990,
      "Ġcharge": 5991,
      "Ġ70": 5992,
      "Ġeffective": 5993,
      "Ġreferring": 5994,
      "eek": 5995,
      "ĠProject": 5996,
      "Ġbipedal": 5997,
      "Ġdisease": 5998,
      "110": 5999,
      "117": 6000,
      "initz": 6001,
      "Ġwrest": 6002,
      "Ġpan": 6003,
      "Ġmic": 6004,
      "omic": 6005,
      "Ġgallery": 6006,
      "osure": 6007,
      "ĠMain": 6008,
      "ĠPost": 6009,
      "ĠFI": 6010,
      "ĠNam": 6011,
      "ĠHigh": 6012,
      "Ġunknown": 6013,
      "ĠDivision": 6014,
      "Ġdiscl": 6015,
      "ĠThoreau": 6016,
      "Ġdoct": 6017,
      "Ġoutl": 6018,
      "ictions": 6019,
      "Ġhumanitarian": 6020,
      "Ġsupply": 6021,
      "Ġtransform": 6022,
      "ographical": 6023,
      "Ġposts": 6024,
      "Ġpractical": 6025,
      "Ġgetting": 6026,
      "Ġdiet": 6027,
      "ĠAmong": 6028,
      "Ġconsistent": 6029,
      "Ġtargets": 6030,
      "Ġzone": 6031,
      "Russian": 6032,
      "ĠFranc": 6033,
      "Ġrecommended": 6034,
      "Ġconscious": 6035,
      "Ġexplicitly": 6036,
      "Ġhypothesis": 6037,
      "tebrates": 6038,
      "ĠCarboniferous": 6039,
      "ĠCongress": 6040,
      "Ġmoment": 6041,
      "ĠIraq": 6042,
      "Des": 6043,
      "Sp": 6044,
      "but": 6045,
      "rate": 6046,
      "rison": 6047,
      "ino": 6048,
      "Ġwife": 6049,
      "Ġerect": 6050,
      "Ġlabor": 6051,
      "ĠAges": 6052,
      "ĠSil": 6053,
      "ĠSol": 6054,
      "ĠSeveral": 6055,
      "ĠNote": 6056,
      "Ġrating": 6057,
      "Ġships": 6058,
      "pted": 6059,
      "ĠThree": 6060,
      "Ġregularly": 6061,
      "104": 6062,
      "Ġsetting": 6063,
      "Ġprocessing": 6064,
      "Ġ02": 6065,
      "Ġmarine": 6066,
      "Ġ[[": 6067,
      "Ġindependently": 6068,
      "ĠAlliance": 6069,
      "useum": 6070,
      "Ġhappen": 6071,
      "Ġsoul": 6072,
      "ĠBrown": 6073,
      "Ġcease": 6074,
      "Ġcandidates": 6075,
      "Ġincorrect": 6076,
      "Ġtaxonomy": 6077,
      "Ġhospital": 6078,
      "Ġmaximum": 6079,
      "ĠDevonian": 6080,
      "From": 6081,
      "Ġtheore": 6082,
      "Ġwalk": 6083,
      "arp": 6084,
      "Ġhier": 6085,
      "ĠMiss": 6086,
      "ĠMicro": 6087,
      "access": 6088,
      "Ġchance": 6089,
      "Ġcommittee": 6090,
      "Ġpret": 6091,
      "Ġrecording": 6092,
      "Ġtransition": 6093,
      "Ġdecades": 6094,
      "Ġcharacterized": 6095,
      "Ġfinished": 6096,
      "Ġterror": 6097,
      "Ġindependence": 6098,
      "Ġconsisting": 6099,
      "Ġdivisions": 6100,
      "Ġfacilit": 6101,
      "Ġupdate": 6102,
      "ictionary": 6103,
      "Ġpatterns": 6104,
      "Ġsuppl": 6105,
      "Ġhundreds": 6106,
      "Ġabstract": 6107,
      "ĠCrimea": 6108,
      "115": 6109,
      "CO": 6110,
      "FD": 6111,
      "List": 6112,
      "dney": 6113,
      "non": 6114,
      "ping": 6115,
      "tion": 6116,
      "erally": 6117,
      "Ġsav": 6118,
      "Ġcru": 6119,
      "anc": 6120,
      "Ġpowers": 6121,
      "uses": 6122,
      "ĠIre": 6123,
      "aded": 6124,
      "ĠCur": 6125,
      "ocracy": 6126,
      "ĠGar": 6127,
      "Ġplain": 6128,
      "Ġplanned": 6129,
      "ĠLife": 6130,
      "Ġacknow": 6131,
      "Ġperpet": 6132,
      "Ġspent": 6133,
      "Ġindigenous": 6134,
      "ĠChannel": 6135,
      "Ġdefine": 6136,
      "ĠIsland": 6137,
      "Ġassault": 6138,
      "ova": 6139,
      "122": 6140,
      "129": 6141,
      "136": 6142,
      "ugby": 6143,
      "Ġoperated": 6144,
      "Ġ1989": 6145,
      "ĠAdministrators": 6146,
      "Ġelectric": 6147,
      "Ġrecognition": 6148,
      "ĠCollege": 6149,
      "Ġdominated": 6150,
      "ĠGoogle": 6151,
      "uzz": 6152,
      "ĠFederation": 6153,
      "ĠRichard": 6154,
      "Ġarrested": 6155,
      "Ġinspired": 6156,
      "ĠCharles": 6157,
      "Ġchemical": 6158,
      "Ġpaintings": 6159,
      "Ġinappropriate": 6160,
      "113": 6161,
      "ME": 6162,
      "iations": 6163,
      "ken": 6164,
      "publ": 6165,
      "rus": 6166,
      "Ġast": 6167,
      "held": 6168,
      "Ġdu": 6169,
      "Ġthumb": 6170,
      "ĠAz": 6171,
      "ĠColl": 6172,
      "ĠMars": 6173,
      "Ġvoted": 6174,
      "Ġvoting": 6175,
      "abilities": 6176,
      "sect": 6177,
      "ĠEU": 6178,
      "ĠGreen": 6179,
      "ĠUse": 6180,
      "ortex": 6181,
      "Ġaggress": 6182,
      "Ġprime": 6183,
      "Ġsubc": 6184,
      "Ġimposed": 6185,
      "Ġdefend": 6186,
      "arkiv": 6187,
      "ĠHealth": 6188,
      "Ġmanual": 6189,
      "Ġtechnologies": 6190,
      "Ġeveryone": 6191,
      "Ġrepresentative": 6192,
      "Ġeffectively": 6193,
      "Ġspecialized": 6194,
      "Ġtesting": 6195,
      "Ġdiag": 6196,
      "ĠKharkiv": 6197,
      "Ġlooks": 6198,
      "Ġsatis": 6199,
      "Ġsymbol": 6200,
      "ĠIreland": 6201,
      "ean": 6202,
      "Ġtables": 6203,
      "Ġsought": 6204,
      "Ġwelcome": 6205,
      "alian": 6206,
      "Ġbanned": 6207,
      "icial": 6208,
      "amew": 6209,
      "Ġisland": 6210,
      "idae": 6211,
      "elens": 6212,
      "Ġstored": 6213,
      "ulf": 6214,
      "ulating": 6215,
      "Ġpropose": 6216,
      "ĠRob": 6217,
      "ĠDNA": 6218,
      "Ġchair": 6219,
      "Ġneither": 6220,
      "Ġcomponent": 6221,
      "Ġconsoles": 6222,
      "nowledge": 6223,
      "Ġindefin": 6224,
      "Ġserves": 6225,
      "ĠYour": 6226,
      "Ġblank": 6227,
      "Ġcoordin": 6228,
      "Ġendgame": 6229,
      "Ġcalls": 6230,
      "Ġstrike": 6231,
      "Ġdecide": 6232,
      "Ġbroke": 6233,
      "250": 6234,
      "Ġmodify": 6235,
      "Ġannounce": 6236,
      "ographies": 6237,
      "Ġpolitics": 6238,
      "ĠClark": 6239,
      "Ġreceiving": 6240,
      "Ġstatistics": 6241,
      "Ġformats": 6242,
      "ĠColor": 6243,
      "Ġcomplexity": 6244,
      "ĠCanadian": 6245,
      "iyama": 6246,
      "ĠManual": 6247,
      "Ġenvironmental": 6248,
      "Ġancestors": 6249,
      "Ġfriends": 6250,
      "Ġsubsid": 6251,
      "Ġbenefit": 6252,
      "Ġimmig": 6253,
      "Ġutil": 6254,
      "Ġdistributed": 6255,
      "Ġanatomy": 6256,
      "Ġtouchscreen": 6257,
      "Ġmixed": 6258,
      "ĠVisualEditor": 6259,
      ")[": 6260,
      "Man": 6261,
      "Pl": 6262,
      "ba": 6263,
      "fare": 6264,
      "rid": 6265,
      "inv": 6266,
      "rehens": 6267,
      "ora": 6268,
      "orous": 6269,
      "alem": 6270,
      "Ġfish": 6271,
      "Ġmap": 6272,
      "imir": 6273,
      "ĠMuseum": 6274,
      "estival": 6275,
      "thle": 6276,
      "quest": 6277,
      "resh": 6278,
      "ĠGDP": 6279,
      "ĠLa": 6280,
      "ĠOff": 6281,
      "aped": 6282,
      "apse": 6283,
      "anging": 6284,
      "Ġpeoples": 6285,
      "text": 6286,
      "Ġdiscipline": 6287,
      "Ġunderstood": 6288,
      "Ġincom": 6289,
      "ĠRec": 6290,
      "Ġmovements": 6291,
      "Ġdirected": 6292,
      "ullah": 6293,
      "Ġconstitute": 6294,
      "Ġsucceed": 6295,
      "Ġ1979": 6296,
      "Ġinterests": 6297,
      "Ġtests": 6298,
      "Ġrenamed": 6299,
      "Ġdrawing": 6300,
      "ĠSydney": 6301,
      "Ġwithdraw": 6302,
      "ville": 6303,
      "ĠAbdullah": 6304,
      "Ġhierarch": 6305,
      "BS": 6306,
      "EC": 6307,
      "dd": 6308,
      "uit": 6309,
      "xts": 6310,
      "Ġsac": 6311,
      "Ġfired": 6312,
      "Ġdirection": 6313,
      "Ġhop": 6314,
      "Ġrefere": 6315,
      "amin": 6316,
      "ello": 6317,
      "Ġscript": 6318,
      "128": 6319,
      "131": 6320,
      "140": 6321,
      "ĠCommon": 6322,
      "Ġsurpr": 6323,
      "Ġcontributing": 6324,
      "scale": 6325,
      "ĠAdditionally": 6326,
      "Ġexceptions": 6327,
      "Ġcontroversy": 6328,
      "Ġlayout": 6329,
      "Ġpublishers": 6330,
      "Ġvictim": 6331,
      "ĠVictorian": 6332,
      "Ġquarterback": 6333,
      "ĠAcad": 6334,
      "Ġslightly": 6335,
      "Users": 6336,
      "ients": 6337,
      "rast": 6338,
      "spe": 6339,
      "athere": 6340,
      "Ġparents": 6341,
      "Ġlosing": 6342,
      "olving": 6343,
      "ĠAMA": 6344,
      "ĠSoci": 6345,
      "unction": 6346,
      "Ġstyles": 6347,
      "uls": 6348,
      "ĠMark": 6349,
      "ĠMilitary": 6350,
      "Ġvent": 6351,
      "alls": 6352,
      "elled": 6353,
      "Ġtruth": 6354,
      "Ġjur": 6355,
      "Ġscen": 6356,
      "Ġspelling": 6357,
      "ĠVlad": 6358,
      "Ġincident": 6359,
      "Ġroll": 6360,
      "134": 6361,
      "149": 6362,
      "Ġmaintenance": 6363,
      "Ġprotoc": 6364,
      "ĠOnly": 6365,
      "Ġjustification": 6366,
      "Ġartistic": 6367,
      "ossible": 6368,
      "ripts": 6369,
      "Ġfamiliar": 6370,
      "Ġstanding": 6371,
      "Ġapplic": 6372,
      "ĠSupreme": 6373,
      "Ġcommented": 6374,
      "Ġsixth": 6375,
      "ĠTechn": 6376,
      "Ġrenew": 6377,
      "Ġphilosoph": 6378,
      "Ġremoving": 6379,
      "Ġtreatment": 6380,
      "ĠSimilarly": 6381,
      "Ġengineering": 6382,
      "ĠFrank": 6383,
      "Ġfossils": 6384,
      "Ġsubstantial": 6385,
      "Ġexclusively": 6386,
      "Ġshelling": 6387,
      "trans": 6388,
      "ĠPersian": 6389,
      "ĠMartin": 6390,
      "ĠConstitution": 6391,
      "ĠRobert": 6392,
      "Ġorientation": 6393,
      "Ġintellectual": 6394,
      "Im": 6395,
      "fire": 6396,
      "lock": 6397,
      "tes": 6398,
      "Ġly": 6399,
      "edias": 6400,
      "isations": 6401,
      "alic": 6402,
      "ingly": 6403,
      "Ġmountain": 6404,
      "Ġreven": 6405,
      "ĠTex": 6406,
      "Ġgather": 6407,
      "add": 6408,
      "elve": 6409,
      "ĠWomen": 6410,
      "Ġsear": 6411,
      "ĠHouse": 6412,
      "apter": 6413,
      "Ġconsult": 6414,
      "Ġscope": 6415,
      "Ġinfobox": 6416,
      "ails": 6417,
      "132": 6418,
      "139": 6419,
      "168": 6420,
      "Ġ500": 6421,
      "Ġvarieties": 6422,
      "Ġtransport": 6423,
      "Ġcontinent": 6424,
      "Ġpromotion": 6425,
      "Ġfinding": 6426,
      "Ġposted": 6427,
      "Ġcompeting": 6428,
      "Ġarchae": 6429,
      "Ġencyclopedic": 6430,
      "Ġrevolution": 6431,
      "fficial": 6432,
      "Ġautomated": 6433,
      "Ġattempted": 6434,
      "Ġfailure": 6435,
      "Editors": 6436,
      "Ġkingdom": 6437,
      "Ġbalance": 6438,
      "Ġdistinguished": 6439,
      "Ġbenefits": 6440,
      "ĠPeter": 6441,
      "ĠCreative": 6442,
      "Ġsurrounding": 6443,
      "Ġdoubt": 6444,
      "ĠHellen": 6445,
      "Ġseventh": 6446,
      "American": 6447,
      "II": 6448,
      "bari": 6449,
      "called": 6450,
      "gu": 6451,
      "house": 6452,
      "indu": 6453,
      "Ġsand": 6454,
      "editor": 6455,
      "itage": 6456,
      "Ġfat": 6457,
      "Ġhttps": 6458,
      "olute": 6459,
      "ady": 6460,
      "igin": 6461,
      "ĠMac": 6462,
      "ĠBal": 6463,
      "class": 6464,
      "Ġplacing": 6465,
      "ĠInc": 6466,
      "Ġleaves": 6467,
      "berg": 6468,
      "Ġintention": 6469,
      "ĠThai": 6470,
      "Ġforming": 6471,
      "Ġgoes": 6472,
      "Ġdiscovery": 6473,
      "ĠAli": 6474,
      "nex": 6475,
      "164": 6476,
      "166": 6477,
      "Ġwarn": 6478,
      "Ġownership": 6479,
      "Ġ05": 6480,
      "Ġcontributor": 6481,
      "Ġoperator": 6482,
      "Ġrepresenting": 6483,
      "Ġreasonable": 6484,
      "Ġtraditionally": 6485,
      "Ġdelay": 6486,
      "Ġproperties": 6487,
      "Ġballet": 6488,
      "Ġtrees": 6489,
      "Ġnarrow": 6490,
      "Ġcycle": 6491,
      "Ġchimpanzees": 6492,
      "Ġentertainment": 6493,
      "elensky": 6494,
      "mate": 6495,
      "anish": 6496,
      "Ġinclusion": 6497,
      "ĠSep": 6498,
      "ader": 6499,
      "Ġconcent": 6500,
      "une": 6501,
      "ĠMountain": 6502,
      "Ġvirt": 6503,
      "ĠNetw": 6504,
      "Ġcomprehens": 6505,
      "ultane": 6506,
      "Ġresidents": 6507,
      "Ġtexts": 6508,
      "ailed": 6509,
      "Ġnumer": 6510,
      "Ġblue": 6511,
      "obile": 6512,
      "Ġstrikes": 6513,
      "Ġprotests": 6514,
      "Ġexperiences": 6515,
      "notes": 6516,
      "Ġmyth": 6517,
      "Ġdidn": 6518,
      "Ġdesignated": 6519,
      "Ġarchives": 6520,
      "Ġarguments": 6521,
      "Ġinfluential": 6522,
      "Ġregardless": 6523,
      "Ġholding": 6524,
      "Ġemployed": 6525,
      "Ġsteps": 6526,
      "Ġexclusive": 6527,
      "Ġdynast": 6528,
      "Ġsolely": 6529,
      "Ġsomewhat": 6530,
      "Ġperceived": 6531,
      "Ġpremiership": 6532,
      "Ġmedicine": 6533,
      "116": 6534,
      "De": 6535,
      "LT": 6536,
      "OR": 6537,
      "Ġ=": 6538,
      "onic": 6539,
      "Ġsun": 6540,
      "iter": 6541,
      "isdom": 6542,
      "orce": 6543,
      "Ġpath": 6544,
      "oul": 6545,
      "usc": 6546,
      "Ġconvent": 6547,
      "Ġstable": 6548,
      "Ġstories": 6549,
      "raf": 6550,
      "ĠMah": 6551,
      "ĠBC": 6552,
      "Ġvess": 6553,
      "ĠNon": 6554,
      "ocal": 6555,
      "season": 6556,
      "ĠJav": 6557,
      "Ġaband": 6558,
      "ĠKe": 6559,
      "ailing": 6560,
      "Ġservers": 6561,
      "Ġapprec": 6562,
      "Ġassistance": 6563,
      "Ġassume": 6564,
      "range": 6565,
      "133": 6566,
      "Ġinstr": 6567,
      "Ġwriters": 6568,
      "Ġowner": 6569,
      "Ġ1995": 6570,
      "Ġdistance": 6571,
      "Ġvariations": 6572,
      "Ġlocations": 6573,
      "Ġhighlight": 6574,
      "Ġadvances": 6575,
      "Ġpostp": 6576,
      "Ġdefinitions": 6577,
      "Ġvolume": 6578,
      "Ġnominated": 6579,
      "Ġframew": 6580,
      "Ġkinds": 6581,
      "Ġinteraction": 6582,
      "ĠMusic": 6583,
      "Ġadapted": 6584,
      "Ġcomparison": 6585,
      "Ġhunter": 6586,
      "Ġexactly": 6587,
      "ĠArchae": 6588,
      "Ġinterpretation": 6589,
      "outheast": 6590,
      "points": 6591,
      "Ġwireless": 6592,
      "Ġmuseum": 6593,
      "IA": 6594,
      "So": 6595,
      "Several": 6596,
      "ein": 6597,
      "kin": 6598,
      "kov": 6599,
      "mond": 6600,
      "rd": 6601,
      "tles": 6602,
      "Ġtank": 6603,
      "rele": 6604,
      "Ġsolution": 6605,
      "Ġsleep": 6606,
      "anon": 6607,
      "organ": 6608,
      "aling": 6609,
      "Ġpet": 6610,
      "Ġpair": 6611,
      "Ġfast": 6612,
      "leks": 6613,
      "rogen": 6614,
      "Ġlob": 6615,
      "ota": 6616,
      "idata": 6617,
      "Ġconcluded": 6618,
      "ĠCath": 6619,
      "Ġexc": 6620,
      "Ġshall": 6621,
      "Ġplural": 6622,
      "Ġleagues": 6623,
      "artial": 6624,
      "ansas": 6625,
      "Ġclothing": 6626,
      "Ġreserves": 6627,
      "Ġenable": 6628,
      "Ġenabled": 6629,
      "Ġformally": 6630,
      "ĠChris": 6631,
      "Ġattend": 6632,
      "Ġoffers": 6633,
      "Ġphone": 6634,
      "icket": 6635,
      "Ġboy": 6636,
      "Ġrefused": 6637,
      "ĠIndus": 6638,
      "Ġofficers": 6639,
      "Ġ01": 6640,
      "Ġbrand": 6641,
      "Ġoperating": 6642,
      "ĠTherefore": 6643,
      "Ġarchived": 6644,
      "Ġparticipated": 6645,
      "Ġdisputed": 6646,
      "Ġnearby": 6647,
      "herson": 6648,
      "Ġbehavioral": 6649,
      "Ġcrim": 6650,
      "ĠTrans": 6651,
      "Ġfigure": 6652,
      "ĠInteractive": 6653,
      "\",[": 6654,
      "\").": 6655,
      "Red": 6656,
      "iat": 6657,
      "ras": 6658,
      "west": 6659,
      "inate": 6660,
      "onfirmed": 6661,
      "eds": 6662,
      "Ġcortex": 6663,
      "Ġanime": 6664,
      "Ġreb": 6665,
      "ĠTemplate": 6666,
      "Ġonto": 6667,
      "under": 6668,
      "Ġproceed": 6669,
      "Ġdepos": 6670,
      "that": 6671,
      "ĠPage": 6672,
      "ĠForm": 6673,
      "ĠHun": 6674,
      "ogi": 6675,
      "Ġchain": 6676,
      "ĠJust": 6677,
      "appe": 6678,
      "ĠKherson": 6679,
      "Ġparalle": 6680,
      "ificial": 6681,
      "ĠArticles": 6682,
      "Ġpoly": 6683,
      "Ġfeat": 6684,
      "Ġcommunicate": 6685,
      "Ġconstitut": 6686,
      "Ġlegit": 6687,
      "Ġengaged": 6688,
      "Ġmarriage": 6689,
      "Ġimproving": 6690,
      "Ġvisit": 6691,
      "Ġexpression": 6692,
      "Ġattempting": 6693,
      "innish": 6694,
      "ĠSwed": 6695,
      "auri": 6696,
      "Ġdocumentation": 6697,
      "Ġpermissions": 6698,
      "Ġaccuracy": 6699,
      "Ġclicking": 6700,
      "Ġsecret": 6701,
      "ĠSteinitz": 6702,
      "Ġimplemented": 6703,
      "Ġobtained": 6704,
      "TeX": 6705,
      "Ġrefugees": 6706,
      "ĠPaul": 6707,
      "elenskyy": 6708,
      "ua": 6709,
      "ww": 6710,
      "Ġocean": 6711,
      "ala": 6712,
      "Ġinh": 6713,
      "Ġhabit": 6714,
      "Ġrever": 6715,
      "ĠTat": 6716,
      "imens": 6717,
      "idth": 6718,
      "umes": 6719,
      "ĠMankind": 6720,
      "Ġmov": 6721,
      "sex": 6722,
      "ourced": 6723,
      "ĠGood": 6724,
      "place": 6725,
      "bert": 6726,
      "izard": 6727,
      "dering": 6728,
      "ansk": 6729,
      "Ġrelatives": 6730,
      "ĠChief": 6731,
      "Ġcreator": 6732,
      "Ġgenocide": 6733,
      "ĠAlb": 6734,
      "rier": 6735,
      "ĠDec": 6736,
      "135": 6737,
      "138": 6738,
      "Ġextension": 6739,
      "Ġstudent": 6740,
      "167": 6741,
      "145": 6742,
      "153": 6743,
      "ructure": 6744,
      "Ġexisted": 6745,
      "Ġcontained": 6746,
      "Ġfewer": 6747,
      "etween": 6748,
      "Ġbroadband": 6749,
      "Ġhostages": 6750,
      "Ġsummaries": 6751,
      "Ġmissing": 6752,
      "Ġportion": 6753,
      "Ġemergence": 6754,
      "Ġmotion": 6755,
      "Ġpredomin": 6756,
      "Ġfacilities": 6757,
      "Ġeducational": 6758,
      "itudes": 6759,
      "Ġgraphics": 6760,
      "Ġgradually": 6761,
      "Ġnewspapers": 6762,
      "Ġfreedom": 6763,
      "ĠOrganization": 6764,
      "ĠFIFA": 6765,
      "ĠVladimir": 6766,
      "AFL": 6767,
      "NU": 6768,
      "eer": 6769,
      "iology": 6770,
      "Ġtone": 6771,
      "Ġom": 6772,
      "Ġang": 6773,
      "Ġannex": 6774,
      "Ġbib": 6775,
      "Ġmanga": 6776,
      "ĠToday": 6777,
      "stream": 6778,
      "ĠIC": 6779,
      "ĠSocial": 6780,
      "iration": 6781,
      "ĠWars": 6782,
      "ifle": 6783,
      "section": 6784,
      "Ġunne": 6785,
      "ĠDen": 6786,
      "ĠLong": 6787,
      "Ġconserv": 6788,
      "Ġrelation": 6789,
      "Ġprepar": 6790,
      "ĠChurch": 6791,
      "Ġdesire": 6792,
      "Ġmeat": 6793,
      "Ġoverw": 6794,
      "ĠUnivers": 6795,
      "Ġaccident": 6796,
      "Ġassign": 6797,
      "obal": 6798,
      "Ġmanually": 6799,
      "Ġwarring": 6800,
      "171": 6801,
      "books": 6802,
      "Ġsentences": 6803,
      "Ġpurs": 6804,
      "Ġheadquart": 6805,
      "Ġmembership": 6806,
      "Ġmarried": 6807,
      "Ġpassing": 6808,
      "Ġmassive": 6809,
      "Ġconcerning": 6810,
      "ĠSports": 6811,
      "Ġvisited": 6812,
      "Ġobjective": 6813,
      "Ġproperly": 6814,
      "Ġphotos": 6815,
      "Ġprivile": 6816,
      "Ġswitch": 6817,
      "ĠGreece": 6818,
      "Ġalternate": 6819,
      "Ġterritorial": 6820,
      "Ġoccupation": 6821,
      "Ġestimates": 6822,
      "Ġprinted": 6823,
      "Ġrecommend": 6824,
      "Before": 6825,
      "Ġfeedback": 6826,
      "Ġextremely": 6827,
      "Ġagriculture": 6828,
      "Ġisolated": 6829,
      "Ġvariants": 6830,
      "ĠDepartment": 6831,
      "My": 6832,
      "OT": 6833,
      "last": 6834,
      "rics": 6835,
      "rey": 6836,
      "esis": 6837,
      "Ġcovers": 6838,
      "Ġwounded": 6839,
      "Ġfle": 6840,
      "Ġmission": 6841,
      "Ġearn": 6842,
      "state": 6843,
      "style": 6844,
      "ĠSab": 6845,
      "ĠMiy": 6846,
      "Ġvow": 6847,
      "Ġnotability": 6848,
      "ĠDirect": 6849,
      "Ġcontest": 6850,
      "gebra": 6851,
      "Ġclosing": 6852,
      "ounds": 6853,
      "actus": 6854,
      "ĠThough": 6855,
      "Ġscored": 6856,
      "Ġimpossible": 6857,
      "198": 6858,
      "169": 6859,
      "Ġhelping": 6860,
      "Ġmilitants": 6861,
      "keys": 6862,
      "Ġprimate": 6863,
      "Ġproblematic": 6864,
      "Ġbrig": 6865,
      "ĠAtl": 6866,
      "Ġencyclopedias": 6867,
      "Ġrecognize": 6868,
      "ĠArabs": 6869,
      "Ġholds": 6870,
      "ipping": 6871,
      "ĠChristianity": 6872,
      "Ġempir": 6873,
      "Ġcloser": 6874,
      "ikhs": 6875,
      "ĠToriyama": 6876,
      "ĠHistory": 6877,
      "Ġholder": 6878,
      "Ġopportunity": 6879,
      "Ġdeployed": 6880,
      "Ġstraight": 6881,
      "ĠNamco": 6882,
      "\"),": 6883,
      "He": 6884,
      "However": 6885,
      "New": 6886,
      "hand": 6887,
      "ko": 6888,
      "post": 6889,
      "Ġ.": 6890,
      "Ġdestin": 6891,
      "Ġnin": 6892,
      "Ġbegins": 6893,
      "Ġlock": 6894,
      "irus": 6895,
      "Ġalph": 6896,
      "Ġalleg": 6897,
      "iforn": 6898,
      "empt": 6899,
      "ĠBot": 6900,
      "Ġvaries": 6901,
      "Ġarbit": 6902,
      "ĠFinal": 6903,
      "ĠNation": 6904,
      "ques": 6905,
      "ude": 6906,
      "ection": 6907,
      "ĠLike": 6908,
      "Ġteeth": 6909,
      "Ġpreferences": 6910,
      "const": 6911,
      "Ġinstitution": 6912,
      "160": 6913,
      "ondw": 6914,
      "Ġlinking": 6915,
      "playing": 6916,
      "Ġfinally": 6917,
      "Ġpsychologists": 6918,
      "Ġoriginated": 6919,
      "Ġuniversal": 6920,
      "ournal": 6921,
      "Ġrespective": 6922,
      "contin": 6923,
      "ĠDonbas": 6924,
      "Ġtwent": 6925,
      "Ġsuccessfully": 6926,
      "Ġcollaboration": 6927,
      "Ġinterpre": 6928,
      "Ġdamaged": 6929,
      "Ġlearned": 6930,
      "ĠSeries": 6931,
      "Ġsnooker": 6932,
      "Ġagricultural": 6933,
      "Ukrain": 6934,
      "Ġadvertising": 6935,
      "ureaucrats": 6936,
      "Ġdialects": 6937,
      "ĠSnooker": 6938,
      "ĠLicense": 6939,
      "Ġmassacre": 6940,
      "Ġfranchise": 6941,
      "ĠCambr": 6942,
      "Ġacknowled": 6943,
      "ĠAcademy": 6944,
      "ifornia": 6945,
      "Any": 6946,
      "EN": 6947,
      "Given": 6948,
      "Special": 6949,
      "gar": 6950,
      "gans": 6951,
      "set": 6952,
      "va": 6953,
      "Ġid": 6954,
      "Ġcodes": 6955,
      "isd": 6956,
      "ancing": 6957,
      "oral": 6958,
      "Ġdut": 6959,
      "rog": 6960,
      "ĠAre": 6961,
      "utions": 6962,
      "Ġconclusion": 6963,
      "unge": 6964,
      "Ġstations": 6965,
      "osite": 6966,
      "Ġarms": 6967,
      "ĠFour": 6968,
      "ĠFitz": 6969,
      "ĠNES": 6970,
      "ĠHunt": 6971,
      "ĠRoss": 6972,
      "Ġunion": 6973,
      "Ġcomprom": 6974,
      "asters": 6975,
      "ieval": 6976,
      "ologically": 6977,
      "eph": 6978,
      "Ġanywhere": 6979,
      "Ġattribution": 6980,
      "Ġmeets": 6981,
      "ĠDeep": 6982,
      "Ġdiscussing": 6983,
      "group": 6984,
      "143": 6985,
      "Ġguidance": 6986,
      "Ġbroadc": 6987,
      "ĠSpanish": 6988,
      "Ġuniversities": 6989,
      "while": 6990,
      "Ġexpanding": 6991,
      "Ġpainting": 6992,
      "vereign": 6993,
      "Ġcompatible": 6994,
      "Ġdismiss": 6995,
      "Ġoccasionally": 6996,
      "ĠHellenistic": 6997,
      "Ġframework": 6998,
      "Not": 6999,
      "gathere": 7000,
      "mosp": 7001,
      "sen": 7002,
      "vest": 7003,
      "reements": 7004,
      "isp": 7005,
      "ancy": 7006,
      "oured": 7007,
      "user": 7008,
      "Ġnom": 7009,
      "ĠCode": 7010,
      "istent": 7011,
      "ĠWil": 7012,
      "ĠThen": 7013,
      "oses": 7014,
      "ĠPublic": 7015,
      "ĠFe": 7016,
      "ĠFinnish": 7017,
      "ĠGondw": 7018,
      "Ġunus": 7019,
      "ogue": 7020,
      "Ġresolved": 7021,
      "ĠThanks": 7022,
      "Ġsubmit": 7023,
      "Ġsovereign": 7024,
      "phone": 7025,
      "ĠUnlike": 7026,
      "Ġamate": 7027,
      "Ġinformal": 7028,
      "Ġsupposed": 7029,
      "Ġwarned": 7030,
      "rence": 7031,
      "Ġartists": 7032,
      "Ġ04": 7033,
      "Ġ09": 7034,
      "Ġoperators": 7035,
      "Ġopposing": 7036,
      "Ġdeaths": 7037,
      "ĠCarol": 7038,
      "Ġreporting": 7039,
      "Ġdestruction": 7040,
      "Ġmerged": 7041,
      "Arch": 7042,
      "Ġnucle": 7043,
      "Ġsettlers": 7044,
      "Ġstrategic": 7045,
      "Ġbipedalism": 7046,
      "Ġcovering": 7047,
      "ĠMinbari": 7048,
      "Ġmanufacture": 7049,
      "ĠCalifornia": 7050,
      "ĠBrigade": 7051,
      "ĠTriassic": 7052,
      "Ġjurisd": 7053,
      "Ph": 7054,
      "bin": 7055,
      "cient": 7056,
      "mad": 7057,
      "rh": 7058,
      "edy": 7059,
      "itance": 7060,
      "Ġpal": 7061,
      "Ġfaced": 7062,
      "Ġhook": 7063,
      "Ġrein": 7064,
      "Ġconven": 7065,
      "aya": 7066,
      "Ġstub": 7067,
      "ĠPale": 7068,
      "ĠNov": 7069,
      "ĠHere": 7070,
      "Ġatmosp": 7071,
      "ĠGal": 7072,
      "ĠInf": 7073,
      "Ġadults": 7074,
      "ĠOk": 7075,
      "ĠJoe": 7076,
      "Ġintense": 7077,
      "avy": 7078,
      "php": 7079,
      "Ġremember": 7080,
      "Ġphase": 7081,
      "144": 7082,
      "Ġmainspace": 7083,
      "Ġwars": 7084,
      "Ġtranscluded": 7085,
      "inson": 7086,
      "Ġmonkeys": 7087,
      "Ġconsiderable": 7088,
      "Ġgreatest": 7089,
      "ĠCentauri": 7090,
      "Ġdiver": 7091,
      "isco": 7092,
      "Ġprivacy": 7093,
      "Ġfrag": 7094,
      "Ġtwelve": 7095,
      "ukary": 7096,
      "Ġabsolute": 7097,
      "Ġvictory": 7098,
      "Ġsequence": 7099,
      "Ġaccompan": 7100,
      "embly": 7101,
      "Ġvocab": 7102,
      "Ġnegotiations": 7103,
      "thletic": 7104,
      "ĠNetwork": 7105,
      "Ġpostponed": 7106,
      "Ukrainian": 7107,
      "02": 7108,
      "aults": 7109,
      "how": 7110,
      "night": 7111,
      "Ġtiss": 7112,
      "Ġax": 7113,
      "incess": 7114,
      "Ġcod": 7115,
      "oration": 7116,
      "orrow": 7117,
      "Ġpending": 7118,
      "icians": 7119,
      "Ġmur": 7120,
      "Ġdance": 7121,
      "Ġduration": 7122,
      "Ġearth": 7123,
      "Ġlik": 7124,
      "Ġload": 7125,
      "iment": 7126,
      "Ġgay": 7127,
      "chief": 7128,
      "ethe": 7129,
      "Ġorgans": 7130,
      "atever": 7131,
      "optery": 7132,
      "Ġpros": 7133,
      "ĠBas": 7134,
      "ĠPen": 7135,
      "ĠHig": 7136,
      "Ġperception": 7137,
      "aceous": 7138,
      "Ġspot": 7139,
      "Ind": 7140,
      "Ġaccord": 7141,
      "Ġpartly": 7142,
      "Ġphyl": 7143,
      "Ġpoison": 7144,
      "137": 7145,
      "142": 7146,
      "155": 7147,
      "ĠZelenskyy": 7148,
      "Ġbiased": 7149,
      "Ġcivilizations": 7150,
      "Ġoperate": 7151,
      "Ġidentifying": 7152,
      "Ġspeaking": 7153,
      "ĠTele": 7154,
      "Ġhistorically": 7155,
      "Ġglobally": 7156,
      "Ġpercentage": 7157,
      "Ġmoral": 7158,
      "Ġinserted": 7159,
      "Ġhomosexuality": 7160,
      "ĠOffice": 7161,
      "Ġfeaturing": 7162,
      "AC": 7163,
      "ET": 7164,
      "HO": 7165,
      "SR": 7166,
      "aic": 7167,
      "cret": 7168,
      "Ġcamer": 7169,
      "ita": 7170,
      "itled": 7171,
      "Ġbul": 7172,
      "Ġhomo": 7173,
      "ushed": 7174,
      "Ġnick": 7175,
      "roc": 7176,
      "ĠIvan": 7177,
      "igible": 7178,
      "unch": 7179,
      "url": 7180,
      "Ġstyl": 7181,
      "istical": 7182,
      "ĠMad": 7183,
      "Ġsector": 7184,
      "thal": 7185,
      "ĠPre": 7186,
      "quality": 7187,
      "oconfirmed": 7188,
      "iller": 7189,
      "Ġhero": 7190,
      "ĠOut": 7191,
      "ĠWikidata": 7192,
      "Ġintent": 7193,
      "Ġcompris": 7194,
      "rule": 7195,
      "Ġjump": 7196,
      "Ġsubd": 7197,
      "Ġdiscover": 7198,
      "Ġdefines": 7199,
      "issance": 7200,
      "Ġrow": 7201,
      "Ġsimultane": 7202,
      "141": 7203,
      "147": 7204,
      "rolled": 7205,
      "pring": 7206,
      "Ġflu": 7207,
      "Ġdescribing": 7208,
      "Ġlegs": 7209,
      "Ġcharacteristic": 7210,
      "Ġviolate": 7211,
      "Ġproposals": 7212,
      "Ġelectronic": 7213,
      "Ġconsidering": 7214,
      "retion": 7215,
      "Ġinteresting": 7216,
      "Ġbrains": 7217,
      "ĠOrd": 7218,
      "Ġportray": 7219,
      "Ġbuildings": 7220,
      "Also": 7221,
      "Ġimprovement": 7222,
      "Ġencourage": 7223,
      "olitical": 7224,
      "Ġhonor": 7225,
      "ĠLibrary": 7226,
      "Ġarcade": 7227,
      "osaurs": 7228,
      "Ġstruggle": 7229,
      "ĠDarwin": 7230,
      "Ġdropped": 7231,
      "FDL": 7232,
      "ĠSociety": 7233,
      "Ġcomprehensive": 7234,
      "ĠGondwana": 7235,
      "Search": 7236,
      "lades": 7237,
      "qi": 7238,
      "tra": 7239,
      "work": 7240,
      "Ġsess": 7241,
      "ani": 7242,
      "Ġbill": 7243,
      "Ġinher": 7244,
      "Ġinsect": 7245,
      "Ġfuel": 7246,
      "ouch": 7247,
      "Ġeat": 7248,
      "ĠTour": 7249,
      "ĠCactus": 7250,
      "istered": 7251,
      "ulary": 7252,
      "ĠFre": 7253,
      "ĠHindu": 7254,
      "ocation": 7255,
      "ĠEur": 7256,
      "ĠGT": 7257,
      "soft": 7258,
      "izh": 7259,
      "Ġneural": 7260,
      "Ġenh": 7261,
      "Ġreliability": 7262,
      "ĠChic": 7263,
      "Ġpeak": 7264,
      "Ġdiscipl": 7265,
      "Ġregime": 7266,
      "Ġentities": 7267,
      "Ġfoundation": 7268,
      "170": 7269,
      "152": 7270,
      "Ġrail": 7271,
      "ĠOnline": 7272,
      "Ġcontinental": 7273,
      "Ġ08": 7274,
      "Ġflat": 7275,
      "Ġopponents": 7276,
      "ashion": 7277,
      "Ġdram": 7278,
      "undant": 7279,
      "Ġstronger": 7280,
      "Ġsolving": 7281,
      "tters": 7282,
      "Ġfairly": 7283,
      "Ġaims": 7284,
      "Ġaimed": 7285,
      "Ġresponded": 7286,
      "Ġsubspecies": 7287,
      "Ġcosts": 7288,
      "Ġretained": 7289,
      "Ġsettlement": 7290,
      "Ġtactics": 7291,
      "Ġphenomena": 7292,
      "ĠIrish": 7293,
      "Ġairstrikes": 7294,
      "ĠMiyamoto": 7295,
      "Ġvocabulary": 7296,
      "01": 7297,
      "Over": 7298,
      "Se": 7299,
      "biv": 7300,
      "care": 7301,
      "fess": 7302,
      "rad": 7303,
      "yo": 7304,
      "erior": 7305,
      "edit": 7306,
      "Ġfaster": 7307,
      "Ġmir": 7308,
      "Ġmaster": 7309,
      "Ġdrug": 7310,
      "Ġho": 7311,
      "amily": 7312,
      "Ġconj": 7313,
      "eless": 7314,
      "Ġstim": 7315,
      "ĠWall": 7316,
      "ifies": 7317,
      "ĠMur": 7318,
      "ĠMass": 7319,
      "ĠBay": 7320,
      "Ġexceed": 7321,
      "Ġdeem": 7322,
      "Ġnotes": 7323,
      "ĠHomin": 7324,
      "ĠRP": 7325,
      "ĠRock": 7326,
      "ĠElect": 7327,
      "ĠEss": 7328,
      "Ġshif": 7329,
      "ĠUsers": 7330,
      "claim": 7331,
      "duc": 7332,
      "Ġagencies": 7333,
      "Ġquoted": 7334,
      "Ġimprison": 7335,
      "Ġwilling": 7336,
      "Ġsupplement": 7337,
      "Ġinstall": 7338,
      "Ġpersonality": 7339,
      "173": 7340,
      "177": 7341,
      "Ġproducer": 7342,
      "154": 7343,
      "ĠZh": 7344,
      "ĠOnce": 7345,
      "Ġtransp": 7346,
      "Ġbackl": 7347,
      "Ġmarking": 7348,
      "Ġflo": 7349,
      "Ġwikipedia": 7350,
      "Ġcritics": 7351,
      "Ġconstant": 7352,
      "ĠAdela": 7353,
      "coming": 7354,
      "Ġvertebrates": 7355,
      "Ġcarefully": 7356,
      "ĠToK": 7357,
      "ĠSwitch": 7358,
      "WikiProject": 7359,
      "continent": 7360,
      "Ġessentially": 7361,
      "Requests": 7362,
      "def": 7363,
      "Ġestablishment": 7364,
      "Ġinitials": 7365,
      "ĠIslam": 7366,
      "ĠCapcom": 7367,
      "ĠWikiProjects": 7368,
      "skyi": 7369,
      "Ġpretty": 7370,
      "Ġapplicable": 7371,
      "ĠAdelaide": 7372,
      "Iran": 7373,
      "long": 7374,
      "natural": 7375,
      "si": 7376,
      "spec": 7377,
      "Ġice": 7378,
      "atched": 7379,
      "Ġsurn": 7380,
      "edd": 7381,
      "itative": 7382,
      "Ġfresh": 7383,
      "Ġdang": 7384,
      "Ġrely": 7385,
      "roid": 7386,
      "ĠIRC": 7387,
      "ĠSl": 7388,
      "ĠSoup": 7389,
      "unic": 7390,
      "ĠWMF": 7391,
      "Ġalgebra": 7392,
      "emies": 7393,
      "opithecus": 7394,
      "Ġmole": 7395,
      "Ġyards": 7396,
      "ticip": 7397,
      "seud": 7398,
      "ĠGA": 7399,
      "ibilities": 7400,
      "ĠLou": 7401,
      "ĠList": 7402,
      "ĠLos": 7403,
      "ellow": 7404,
      "Ġsubpages": 7405,
      "Ġque": 7406,
      "Ġknowing": 7407,
      "Ġgenerate": 7408,
      "Ġoblig": 7409,
      "202": 7410,
      "205": 7411,
      "172": 7412,
      "Ġproduces": 7413,
      "Ġproducing": 7414,
      "159": 7415,
      "Ġattacking": 7416,
      "Ġleads": 7417,
      "except": 7418,
      "Ġorganisations": 7419,
      "Ġtechnique": 7420,
      "compass": 7421,
      "Ġappearing": 7422,
      "Ġbroader": 7423,
      "Ġhosts": 7424,
      "Ġhosting": 7425,
      "Ġwinter": 7426,
      "Ġwinner": 7427,
      "Ġintelligent": 7428,
      "Ġdocuments": 7429,
      "Ġgrounds": 7430,
      "Ġfunding": 7431,
      "Ġjournals": 7432,
      "Ġepisodes": 7433,
      "break": 7434,
      "Ġassumed": 7435,
      "ĠBulma": 7436,
      "Ġhouses": 7437,
      "ĠForeign": 7438,
      "ĠAngeles": 7439,
      "ĠFrancisco": 7440,
      "Ġunnecess": 7441,
      "CW": 7442,
      "UR": 7443,
      "king": 7444,
      "public": 7445,
      "Ġwood": 7446,
      "also": 7447,
      "Ġpush": 7448,
      "Ġbur": 7449,
      "aration": 7450,
      "imy": 7451,
      "ĠAff": 7452,
      "utr": 7453,
      "igious": 7454,
      "ĠCret": 7455,
      "istrict": 7456,
      "verning": 7457,
      "ĠMajor": 7458,
      "ĠMaster": 7459,
      "Ġproved": 7460,
      "Ġvice": 7461,
      "ĠPC": 7462,
      "ĠPop": 7463,
      "ĠLy": 7464,
      "enses": 7465,
      "Ġscreens": 7466,
      "Ġinfin": 7467,
      "index": 7468,
      "aware": 7469,
      "Ġpublish": 7470,
      "teen": 7471,
      "ĠYear": 7472,
      "Ġincidents": 7473,
      "Ġroad": 7474,
      "Ġcolors": 7475,
      "161": 7476,
      "150": 7477,
      "iveness": 7478,
      "Ġaccessible": 7479,
      "ecent": 7480,
      "Ġreviewer": 7481,
      "Ġsignificance": 7482,
      "Ġlimits": 7483,
      "Ġsentenced": 7484,
      "Ġseparated": 7485,
      "Ġtelepath": 7486,
      "Ġtagged": 7487,
      "ĠPhant": 7488,
      "Ġcrime": 7489,
      "Ġrequirement": 7490,
      "Ġrendered": 7491,
      "Ġtargeted": 7492,
      "Ġarrived": 7493,
      "Ġcolonial": 7494,
      "Ġlatest": 7495,
      "Ġscholarly": 7496,
      "Ġexperimental": 7497,
      "Ġqualified": 7498,
      "ĠIII": 7499,
      "aucas": 7500,
      "Ġbriefly": 7501,
      "Ġhunting": 7502,
      "Ġeye": 7503,
      "Ġdetected": 7504,
      "Ġphotographs": 7505,
      "involved": 7506,
      "ĠFitzroy": 7507,
      "Ġsurname": 7508,
      "Con": 7509,
      "Non": 7510,
      "Or": 7511,
      "case": 7512,
      "Ġsed": 7513,
      "Ġsight": 7514,
      "Ġcul": 7515,
      "anthrop": 7516,
      "oric": 7517,
      "Ġpuzz": 7518,
      "leading": 7519,
      "Ġthir": 7520,
      "Ġnaming": 7521,
      "ationally": 7522,
      "ĠSqu": 7523,
      "unc": 7524,
      "ether": 7525,
      "etball": 7526,
      "urt": 7527,
      "embers": 7528,
      "acent": 7529,
      "abet": 7530,
      "Ġran": 7531,
      "Ġshape": 7532,
      "ĠOb": 7533,
      "antry": 7534,
      "anged": 7535,
      "Ġencompass": 7536,
      "Ġwealth": 7537,
      "Ġinfring": 7538,
      "Ġspecify": 7539,
      "Ġdiscrim": 7540,
      "Ġsourced": 7541,
      "ĠAncient": 7542,
      "Ġentity": 7543,
      "146": 7544,
      "Ġmanaged": 7545,
      "185": 7546,
      "Ġraces": 7547,
      "Ġcorruption": 7548,
      "ĠIndepend": 7549,
      "verse": 7550,
      "ĠShow": 7551,
      "222": 7552,
      "225": 7553,
      "Ġoccas": 7554,
      "Ġclaiming": 7555,
      "Ġmode": 7556,
      "Ġfinds": 7557,
      "Ġcapabilities": 7558,
      "Ġmusical": 7559,
      "Ġbelieves": 7560,
      "ĠGameC": 7561,
      "And": 7562,
      "Ġcareful": 7563,
      "Ġasking": 7564,
      "Ġepist": 7565,
      "ĠOthers": 7566,
      "ĠExamples": 7567,
      "Edit": 7568,
      "Ġsettings": 7569,
      "Ġabsence": 7570,
      "Ġhyd": 7571,
      "Ġrarely": 7572,
      "Ġmistakes": 7573,
      "Ġescal": 7574,
      "Ġevaluation": 7575,
      "ĠFurthermore": 7576,
      "ĠBanglades": 7577,
      "Ġteaching": 7578,
      "Ġreputation": 7579,
      "Ġaltruism": 7580,
      "Ġphilosophical": 7581,
      "Ġwarnings": 7582,
      "Ġdynasty": 7583,
      "ĠChicago": 7584,
      "Homo": 7585,
      "iar": 7586,
      "lon": 7587,
      "life": 7588,
      "Ġump": 7589,
      "Ġahead": 7590,
      "eries": 7591,
      "Ġsell": 7592,
      "arant": 7593,
      "olith": 7594,
      "ĠTra": 7595,
      "ĠSaints": 7596,
      "Ġconsecut": 7597,
      "ĠWW": 7598,
      "iac": 7599,
      "umber": 7600,
      "ifiability": 7601,
      "ache": 7602,
      "ourney": 7603,
      "ĠEr": 7604,
      "ĠJul": 7605,
      "ĠJournal": 7606,
      "Ġ1920": 7607,
      "ĠKansas": 7608,
      "Ġagency": 7609,
      "Ġprice": 7610,
      "inking": 7611,
      "Ġcreates": 7612,
      "phal": 7613,
      "ĠVe": 7614,
      "ceptions": 7615,
      "Ġgeneration": 7616,
      "Ġtemporary": 7617,
      "iversary": 7618,
      "163": 7619,
      "148": 7620,
      "156": 7621,
      "Ġcorrel": 7622,
      "ĠReview": 7623,
      "rently": 7624,
      "Ġmonitor": 7625,
      "Ġ03": 7626,
      "certain": 7627,
      "Ġpresentation": 7628,
      "standing": 7629,
      "Ġdiffer": 7630,
      "Ġcollapse": 7631,
      "Ġdefining": 7632,
      "ĠTeam": 7633,
      "Ġportal": 7634,
      "Ġfunctionality": 7635,
      "Ġhomes": 7636,
      "ĠCorpor": 7637,
      "Articles": 7638,
      "Ġmorph": 7639,
      "Ġcalend": 7640,
      "Ġhybr": 7641,
      "Ġprisoners": 7642,
      "Ġtackle": 7643,
      "written": 7644,
      "Ġplatforms": 7645,
      "ĠAuthor": 7646,
      "Ukraine": 7647,
      "Ġprocedure": 7648,
      "Ġvenue": 7649,
      "ĠJeff": 7650,
      "Ġfinger": 7651,
      "Ġcolumn": 7652,
      "published": 7653,
      "rastructure": 7654,
      "Ġaccompanied": 7655,
      "ĠCretaceous": 7656,
      "ĠGameCube": 7657,
      "300": 7658,
      "Ne": 7659,
      "Res": 7660,
      "Two": 7661,
      "kind": 7662,
      "Ġtut": 7663,
      "itory": 7664,
      "itals": 7665,
      "itness": 7666,
      "icop": 7667,
      "Ġdunge": 7668,
      "Ġhuge": 7669,
      "otions": 7670,
      "ston": 7671,
      "Ġfort": 7672,
      "ĠSur": 7673,
      "urance": 7674,
      "Ġalter": 7675,
      "Ġproof": 7676,
      "ĠHour": 7677,
      "ĠRound": 7678,
      "sey": 7679,
      "ĠUp": 7680,
      "ogy": 7681,
      "Ġletters": 7682,
      "Ġdisp": 7683,
      "ustral": 7684,
      "arting": 7685,
      "ishment": 7686,
      "assad": 7687,
      "Ġenables": 7688,
      "Ġ32": 7689,
      "197": 7690,
      "atured": 7691,
      "151": 7692,
      "158": 7693,
      "Ġexplore": 7694,
      "uccess": 7695,
      "Ġtechnological": 7696,
      "Ġpromin": 7697,
      "Ġapproaches": 7698,
      "Ġcomputing": 7699,
      "omencl": 7700,
      "bling": 7701,
      "Ġdrive": 7702,
      "Ġterrestrial": 7703,
      "Ġruns": 7704,
      "Ġcaption": 7705,
      "Ġveget": 7706,
      "Ġuploading": 7707,
      "Ġessay": 7708,
      "ĠBroad": 7709,
      "Ġexperiments": 7710,
      "ĠWikipedias": 7711,
      "Ġcognition": 7712,
      "Ġstarts": 7713,
      "Ġbroadcasting": 7714,
      "ĠBoard": 7715,
      "Ġpoorly": 7716,
      "Ġcorporation": 7717,
      "ĠJews": 7718,
      "uxili": 7719,
      "Ġoversight": 7720,
      "Ġsettlements": 7721,
      "Ġinvolvement": 7722,
      "Ġrepeatedly": 7723,
      "Ġsafety": 7724,
      "ĠCounty": 7725,
      "Ġceasefire": 7726,
      "ĠCatholic": 7727,
      "219": 7728,
      "NLA": 7729,
      "].": 7730,
      "aing": 7731,
      "after": 7732,
      "cat": 7733,
      "vol": 7734,
      "yes": 7735,
      "Ġape": 7736,
      "inism": 7737,
      "include": 7738,
      "Ġcens": 7739,
      "Ġfan": 7740,
      "arus": 7741,
      "Ġmort": 7742,
      "Ġnerve": 7743,
      "Ġislands": 7744,
      "Ġgorill": 7745,
      "ĠSu": 7746,
      "ĠSing": 7747,
      "etary": 7748,
      "Ġstrat": 7749,
      "iforce": 7750,
      "ĠBY": 7751,
      "ĠBook": 7752,
      "ĠGulf": 7753,
      "ĠUDC": 7754,
      "Ġdisambiguation": 7755,
      "Ġclim": 7756,
      "peror": 7757,
      "hesis": 7758,
      "Ġgenres": 7759,
      "Ġtheme": 7760,
      "ĠArts": 7761,
      "Ġpartially": 7762,
      "Ġassass": 7763,
      "ovician": 7764,
      "Ġroots": 7765,
      "Ġcontentious": 7766,
      "203": 7767,
      "Ġjustified": 7768,
      "Ġartificial": 7769,
      "Ġflow": 7770,
      "Ġruling": 7771,
      "Ġ1984": 7772,
      "Ġlimbs": 7773,
      "ĠAtt": 7774,
      "Ġrepresentatives": 7775,
      "Ġcertainly": 7776,
      "ĠCheck": 7777,
      "Ġreplacing": 7778,
      "Ġlands": 7779,
      "Ġtaxobox": 7780,
      "Ġsounds": 7781,
      "Ġreaching": 7782,
      "Ġnarrative": 7783,
      "upport": 7784,
      "ĠTurk": 7785,
      "Ġvarying": 7786,
      "Ġreproductive": 7787,
      "Ġadjust": 7788,
      "Ġharass": 7789,
      "Ġjudgment": 7790,
      "ĠJava": 7791,
      "leksandr": 7792,
      "ĠCarolina": 7793,
      "madaw": 7794,
      "IN": 7795,
      "making": 7796,
      "pop": 7797,
      "uan": 7798,
      "vised": 7799,
      "Ġaw": 7800,
      "Ġoxy": 7801,
      "Ġcry": 7802,
      "itar": 7803,
      "Ġbreat": 7804,
      "Ġfirm": 7805,
      "Ġfashion": 7806,
      "article": 7807,
      "Ġbeat": 7808,
      "Ġgone": 7809,
      "ĠSin": 7810,
      "ĠSale": 7811,
      "etics": 7812,
      "isting": 7813,
      "ĠMer": 7814,
      "ĠPress": 7815,
      "ĠFame": 7816,
      "ĠUl": 7817,
      "ighth": 7818,
      "ĠLar": 7819,
      "apes": 7820,
      "cludes": 7821,
      "ĠKnowledge": 7822,
      "dule": 7823,
      "Ġinfl": 7824,
      "Ġspons": 7825,
      "Ġcrew": 7826,
      "Ġoverview": 7827,
      "arious": 7828,
      "Ġdiscretion": 7829,
      "velopment": 7830,
      "idential": 7831,
      "Ġcool": 7832,
      "Ġroom": 7833,
      "Ġempt": 7834,
      "Ġexped": 7835,
      "Ġexposure": 7836,
      "Ġwarfare": 7837,
      "184": 7838,
      "Ġcorner": 7839,
      "ĠShan": 7840,
      "Ġofficer": 7841,
      "Ġdirectory": 7842,
      "Ġflight": 7843,
      "Ġclassic": 7844,
      "erald": 7845,
      "Ġviolent": 7846,
      "Ġsearching": 7847,
      "Ġ1973": 7848,
      "Ġsuggestion": 7849,
      "ĠBeat": 7850,
      "apping": 7851,
      "Ġputting": 7852,
      "Ġresponses": 7853,
      "Ġbattles": 7854,
      "Ġlibr": 7855,
      "Ġdealing": 7856,
      "Ġcustomers": 7857,
      "Ġmanager": 7858,
      "Ġignored": 7859,
      "Ġcorporate": 7860,
      "Ġstruck": 7861,
      "Ġimplies": 7862,
      "Ġinsert": 7863,
      "ĠMao": 7864,
      "Ġanalyz": 7865,
      "Example": 7866,
      "burg": 7867,
      "Ġfellow": 7868,
      "ĠJimmy": 7869,
      "Ġexpertise": 7870,
      "carina": 7871,
      "Ġcooper": 7872,
      "commun": 7873,
      "Ġtemporarily": 7874,
      "Ġrenewed": 7875,
      "Ġunusual": 7876,
      "Ġconsecutive": 7877,
      "\";": 7878,
      "Am": 7879,
      "ni": 7880,
      "rific": 7881,
      "review": 7882,
      "Ġtheor": 7883,
      "Ġsust": 7884,
      "alities": 7885,
      "Ġbab": 7886,
      "Ġinac": 7887,
      "Ġfled": 7888,
      "Ġdry": 7889,
      "omorph": 7890,
      "ctic": 7891,
      "ĠSib": 7892,
      "ĠSource": 7893,
      "agement": 7894,
      "ĠCD": 7895,
      "ĠWhere": 7896,
      "ĠWatch": 7897,
      "ĠMil": 7898,
      "acher": 7899,
      "ĠEp": 7900,
      "ĠGra": 7901,
      "ibal": 7902,
      "Ġunblock": 7903,
      "Ġuninvolved": 7904,
      "ograp": 7905,
      "ĠLow": 7906,
      "anta": 7907,
      "Ġneur": 7908,
      "acks": 7909,
      "Ġmaybe": 7910,
      "atern": 7911,
      "Ġprec": 7912,
      "Ġquote": 7913,
      "Ġquery": 7914,
      "ĠVor": 7915,
      "Ġappropri": 7916,
      "Ġpresum": 7917,
      "Ġcoinc": 7918,
      "ĠAsh": 7919,
      "Ġintervention": 7920,
      "Ġentitled": 7921,
      "Ġ400": 7922,
      "201": 7923,
      "174": 7924,
      "175": 7925,
      "188": 7926,
      "Ġdistrict": 7927,
      "Ġready": 7928,
      "Ġfactual": 7929,
      "226": 7930,
      "aptain": 7931,
      "Ġadvis": 7932,
      "ĠConvention": 7933,
      "Ġverify": 7934,
      "century": 7935,
      "Ġlineage": 7936,
      "Ġreligions": 7937,
      "Ġaddressed": 7938,
      "Ġ1967": 7939,
      "Ġrevised": 7940,
      "Ġsolid": 7941,
      "Ġinjuries": 7942,
      "Ġhyper": 7943,
      "Ġseriously": 7944,
      "Ġarmored": 7945,
      "ĠHouthis": 7946,
      "ĠHyrule": 7947,
      "Ġdescriptions": 7948,
      "Ġgrammar": 7949,
      "Ġconsciousness": 7950,
      "Ġsatisf": 7951,
      "Ġparallel": 7952,
      "ĠTatmadaw": 7953,
      "ĠSabah": 7954,
      "ĠOrdovician": 7955,
      "olithic": 7956,
      "03": 7957,
      "220": 7958,
      "Aut": 7959,
      "Ham": 7960,
      "IC": 7961,
      "RS": 7962,
      "aug": 7963,
      "brain": 7964,
      "can": 7965,
      "fish": 7966,
      "got": 7967,
      "hav": 7968,
      "nest": 7969,
      "rum": 7970,
      "rian": 7971,
      "vard": 7972,
      "era": 7973,
      "Ġbund": 7974,
      "Ġinherent": 7975,
      "Ġthick": 7976,
      "usalem": 7977,
      "Ġnest": 7978,
      "oten": 7979,
      "ilater": 7980,
      "ĠAwards": 7981,
      "utch": 7982,
      "Ġconvention": 7983,
      "Ġstewards": 7984,
      "osy": 7985,
      "ĠMen": 7986,
      "ĠHaw": 7987,
      "ĠRoyal": 7988,
      "ĠEvery": 7989,
      "Ġshift": 7990,
      "Ġshogi": 7991,
      "ĠJord": 7992,
      "Ġyouth": 7993,
      "Ġdoz": 7994,
      "Ġaggreg": 7995,
      "Ġscoring": 7996,
      "Ġrepos": 7997,
      "Ġoverr": 7998,
      "Ġoffering": 7999,
      "Ġ35": 8000,
      "Ġremark": 8001,
      "ĠSecret": 8002,
      "ientific": 8003,
      "Ġcolle": 8004,
      "Ġobsc": 8005,
      "207": 8006,
      "Ġpersonally": 8007,
      "221": 8008,
      "Ġtraffic": 8009,
      "Ġbroken": 8010,
      "Ġsmart": 8011,
      "Ġ1985": 8012,
      "iency": 8013,
      "Ġdriven": 8014,
      "Ġcompetitive": 8015,
      "Ġ1976": 8016,
      "Ġconsideration": 8017,
      "Ġ1969": 8018,
      "forced": 8019,
      "ĠProt": 8020,
      "Ġrevisions": 8021,
      "Ġautomatic": 8022,
      "Ġvandal": 8023,
      "Ġexplaining": 8024,
      "Ġmenu": 8025,
      "ĠPrincess": 8026,
      "ĠComputer": 8027,
      "who": 8028,
      "Ġconsisted": 8029,
      "Ġconsistently": 8030,
      "Ġmotor": 8031,
      "Ġhappened": 8032,
      "ĠWithin": 8033,
      "Ġbelonging": 8034,
      "Ġpossession": 8035,
      "Ġseeking": 8036,
      "Ġratings": 8037,
      "Ġpunct": 8038,
      "Ġdisagree": 8039,
      "Ġallegedly": 8040,
      "Ġprohibited": 8041,
      "Ġpurchase": 8042,
      "Ġprepared": 8043,
      "ozoic": 8044,
      "Ġproportion": 8045,
      "ĠBuddh": 8046,
      "Ġtalks": 8047,
      "Ġdoctr": 8048,
      "Ġsubcategories": 8049,
      "Ġsubsidiary": 8050,
      "ĠTexas": 8051,
      "Ġsearches": 8052,
      "Ġoverwhel": 8053,
      "ĠAffairs": 8054,
      "ĠPhantom": 8055,
      "Ġinaccur": 8056,
      "Bot": 8057,
      "Euro": 8058,
      "chen": 8059,
      "fe": 8060,
      "first": 8061,
      "hy": 8062,
      "lines": 8063,
      "nership": 8064,
      "oes": 8065,
      "pat": 8066,
      "rations": 8067,
      "western": 8068,
      "repres": 8069,
      "onsored": 8070,
      "Ġsoup": 8071,
      "itu": 8072,
      "itter": 8073,
      "Ġpseud": 8074,
      "Ġbrack": 8075,
      "Ġfear": 8076,
      "Ġmac": 8077,
      "Ġegg": 8078,
      "Ġgets": 8079,
      "Ġgirl": 8080,
      "Ġconference": 8081,
      "ayer": 8082,
      "ĠCat": 8083,
      "ĠCaucas": 8084,
      "ĠWi": 8085,
      "ĠMes": 8086,
      "Ġseg": 8087,
      "ĠRome": 8088,
      "ĠGFDL": 8089,
      "Ġrural": 8090,
      "Ġrugby": 8091,
      "udget": 8092,
      "ĠDue": 8093,
      "illa": 8094,
      "Ġadoles": 8095,
      "ĠOcarina": 8096,
      "ĠJustice": 8097,
      "Ġintr": 8098,
      "rupt": 8099,
      "ĠThose": 8100,
      "Ġscores": 8101,
      "Ġinfrastructure": 8102,
      "Ġgoverning": 8103,
      "Ġpreval": 8104,
      "Ġspan": 8105,
      "Ġoutcome": 8106,
      "Ġremote": 8107,
      "Ġmanage": 8108,
      "176": 8109,
      "Ġhelicop": 8110,
      "Ġguess": 8111,
      "180": 8112,
      "Ġgovernor": 8113,
      "Ġ06": 8114,
      "Ġtracks": 8115,
      "Ġpromotional": 8116,
      "ammad": 8117,
      "Ġoperates": 8118,
      "Ġ1982": 8119,
      "Ġlasted": 8120,
      "Ġskep": 8121,
      "Ġmetal": 8122,
      "Ġ1962": 8123,
      "ĠProfess": 8124,
      "Ġindicating": 8125,
      "Ġfarm": 8126,
      "registered": 8127,
      "Ġlicensing": 8128,
      "Ġcollective": 8129,
      "Ġtwice": 8130,
      "Ġsensitive": 8131,
      "Ġfootnotes": 8132,
      "Ġstopped": 8133,
      "Ġattributes": 8134,
      "Ġreplacement": 8135,
      "check": 8136,
      "ĠParis": 8137,
      "Ġquotations": 8138,
      "ĠFederal": 8139,
      "Ġmistake": 8140,
      "Ġrationale": 8141,
      "Ġcarrying": 8142,
      "Ġpenalty": 8143,
      "Ġnouns": 8144,
      "ixture": 8145,
      "gorod": 8146,
      "Ġneighb": 8147,
      "Ġsubscrib": 8148,
      "Ġcondemned": 8149,
      "ĠJerusalem": 8150,
      "Ġerectus": 8151,
      "Ġastron": 8152,
      "Ġacknowledged": 8153,
      "Ġatmosphere": 8154,
      "opteryx": 8155,
      "Ġaccordance": 8156,
      "Ġdeemed": 8157,
      "Ġcalendar": 8158,
      "omenclature": 8159,
      "AS": 8160,
      "Fi": 8161,
      "GA": 8162,
      "Nintendo": 8163,
      "US": 8164,
      "part": 8165,
      "source": 8166,
      "uw": 8167,
      "zil": 8168,
      "Ġties": 8169,
      "Ġtall": 8170,
      "hether": 8171,
      "Ġcards": 8172,
      "Ġborders": 8173,
      "Ġflex": 8174,
      "Ġfought": 8175,
      "Ġthrow": 8176,
      "othe": 8177,
      "Ġgrown": 8178,
      "agen": 8179,
      "agan": 8180,
      "Ġconvey": 8181,
      "Ġstick": 8182,
      "raction": 8183,
      "eman": 8184,
      "iki": 8185,
      "Ġexcell": 8186,
      "ĠPak": 8187,
      "ĠNow": 8188,
      "ĠEduc": 8189,
      "Ġuncertain": 8190,
      "Ġcontested": 8191,
      "Ġadventure": 8192,
      "Ġdisappe": 8193,
      "Ġintros": 8194,
      "ustrial": 8195,
      "Ġclause": 8196,
      "ensis": 8197,
      "Ġscene": 8198,
      "Ġprev": 8199,
      "ĠItaly": 8200,
      "ropical": 8201,
      "Ġreleases": 8202,
      "Ġconsiders": 8203,
      "Ġ45": 8204,
      "206": 8205,
      "162": 8206,
      "Ġmainstream": 8207,
      "...\"": 8208,
      "157": 8209,
      "187": 8210,
      "Ġnamely": 8211,
      "Ġbehalf": 8212,
      "Ġmonarch": 8213,
      "Ġbiography": 8214,
      "Ġminim": 8215,
      "boards": 8216,
      "ĠAndrew": 8217,
      "Ġencounter": 8218,
      "ĠScience": 8219,
      "Ġfocuses": 8220,
      "Ġfails": 8221,
      "ĠTriforce": 8222,
      "Ġimprovements": 8223,
      "Ġzo": 8224,
      "Ġyounger": 8225,
      "Ġunsourced": 8226,
      "ĠGermanic": 8227,
      "aughter": 8228,
      "Ġempire": 8229,
      "Ġbringing": 8230,
      "Ġrapidly": 8231,
      "ĠVictoria": 8232,
      "Ġarranged": 8233,
      "Ġfriendly": 8234,
      "Ġexercise": 8235,
      "Ġsaved": 8236,
      "Ġdupl": 8237,
      "Ġindefinitely": 8238,
      "Ġalphabet": 8239,
      "ĠAuthority": 8240,
      "Ġoxygen": 8241,
      "Bl": 8242,
      "Because": 8243,
      "Help": 8244,
      "aque": 8245,
      "effect": 8246,
      "fc": 8247,
      "mun": 8248,
      "water": 8249,
      "Ġauxili": 8250,
      "alo": 8251,
      "Ġple": 8252,
      "Ġbra": 8253,
      "icide": 8254,
      "asy": 8255,
      "ĠImp": 8256,
      "urb": 8257,
      "urian": 8258,
      "Ġstress": 8259,
      "Ġstead": 8260,
      "rab": 8261,
      "Ġaren": 8262,
      "opol": 8263,
      "Ġvide": 8264,
      "Ġvacc": 8265,
      "Ġnoting": 8266,
      "Ġnoticed": 8267,
      "ivered": 8268,
      "ocated": 8269,
      "ĠDistrict": 8270,
      "Ġcontribution": 8271,
      "Ġchose": 8272,
      "Ġadject": 8273,
      "Ġkil": 8274,
      "Ġdispos": 8275,
      "Ġ1948": 8276,
      "Ġclashes": 8277,
      "Ġindirect": 8278,
      "Ġapart": 8279,
      "rants": 8280,
      "192": 8281,
      "194": 8282,
      "199": 8283,
      "204": 8284,
      "Ġconfig": 8285,
      "Ġtalking": 8286,
      "Ġseconds": 8287,
      "Ġthoughts": 8288,
      "Ġbrother": 8289,
      "Ġ1983": 8290,
      "Ġ1986": 8291,
      "Ġopposite": 8292,
      "Ġshortly": 8293,
      "Ġhandle": 8294,
      "Ġsheikhs": 8295,
      "aux": 8296,
      "Ġparticipating": 8297,
      "Ġlogic": 8298,
      "Ġpatent": 8299,
      "ĠOrigin": 8300,
      "Ġplanning": 8301,
      "Ġfacility": 8302,
      "Ġradical": 8303,
      "Ġradiation": 8304,
      "Ġspoke": 8305,
      "Ġsettled": 8306,
      "Ġexplanations": 8307,
      "Ġspirituality": 8308,
      "Ġpermanently": 8309,
      "ĠPlayers": 8310,
      "ĠMedical": 8311,
      "Ġobservation": 8312,
      "subst": 8313,
      "Ġdecrease": 8314,
      "ĠTerrit": 8315,
      "Ġwindow": 8316,
      "Ġscheme": 8317,
      "ĠMicrosoft": 8318,
      "Ġvictims": 8319,
      "ĠJordan": 8320,
      "Mus": 8321,
      "Pages": 8322,
      "born": 8323,
      "ei": 8324,
      "gers": 8325,
      "ki": 8326,
      "lor": 8327,
      "pir": 8328,
      "produ": 8329,
      "tiary": 8330,
      "wer": 8331,
      "worth": 8332,
      "yal": 8333,
      "onom": 8334,
      "Ġwins": 8335,
      "Ġbank": 8336,
      "Ġbases": 8337,
      "Ġincons": 8338,
      "Ġfaun": 8339,
      "Ġdin": 8340,
      "Ġrept": 8341,
      "Ġefficient": 8342,
      "amid": 8343,
      "ĠAk": 8344,
      "Ġstem": 8345,
      "Ġstock": 8346,
      "ĠMot": 8347,
      "ĠMont": 8348,
      "ĠBros": 8349,
      "Ġexcess": 8350,
      "Ġdeput": 8351,
      "ĠRah": 8352,
      "ĠGNU": 8353,
      "odox": 8354,
      "Ġsharing": 8355,
      "Ġheter": 8356,
      "ogether": 8357,
      "ultan": 8358,
      "apor": 8359,
      "action": 8360,
      "Ġenemies": 8361,
      "Ġweaken": 8362,
      "Ġinfect": 8363,
      "Ġsubmitted": 8364,
      "Ġgene": 8365,
      "Ġgenes": 8366,
      "Ġrecru": 8367,
      "ĠItalian": 8368,
      "Ġrequiring": 8369,
      "Ġassert": 8370,
      "Ġamounts": 8371,
      "190": 8372,
      "Ġextant": 8373,
      "Ġsignature": 8374,
      "Ġwriter": 8375,
      "Ġconfirm": 8376,
      "Ġcommunications": 8377,
      "Ġrac": 8378,
      "Ġretrie": 8379,
      "249": 8380,
      "Ġminimal": 8381,
      "Ġideal": 8382,
      "Ġshel": 8383,
      "Ġ1977": 8384,
      "Ġeligible": 8385,
      "Ġsuggestions": 8386,
      "Ġpassage": 8387,
      "Ġtraditions": 8388,
      "Ġchecking": 8389,
      "ĠEnd": 8390,
      "Ġexplains": 8391,
      "Ġemergency": 8392,
      "Ġbreaking": 8393,
      "Ġnominations": 8394,
      "Ġmaintains": 8395,
      "Ġproductive": 8396,
      "Ġanthropic": 8397,
      "Ġframe": 8398,
      "Ġinjury": 8399,
      "Ġenvironments": 8400,
      "Ġinteractions": 8401,
      "Ġadopt": 8402,
      "Ġkeeping": 8403,
      "Ġqualify": 8404,
      "Ġprogrammes": 8405,
      "Ġparagraphs": 8406,
      "Ġdemonstrate": 8407,
      "Ġdegrees": 8408,
      "Ġspeedy": 8409,
      "Ġunclear": 8410,
      "Ġexplosion": 8411,
      "ĠOperation": 8412,
      "Ġdiplomatic": 8413,
      "Ġfolk": 8414,
      "Ġcriminal": 8415,
      "Ġlegitimate": 8416,
      "Ġmolec": 8417,
      "ĠCorporation": 8418,
      "Ġempty": 8419,
      "ibaldi": 8420,
      "TE": 8421,
      "base": 8422,
      "fri": 8423,
      "Ġtail": 8424,
      "Ġaf": 8425,
      "Ġcatch": 8426,
      "Ġbom": 8427,
      "Ġinaug": 8428,
      "Ġmel": 8429,
      "Ġmouth": 8430,
      "ouble": 8431,
      "Ġdated": 8432,
      "Ġdictionary": 8433,
      "Ġbear": 8434,
      "Ġlie": 8435,
      "ĠTenn": 8436,
      "ĠSand": 8437,
      "ager": 8438,
      "racle": 8439,
      "ĠBi": 8440,
      "ĠPsi": 8441,
      "ĠNorm": 8442,
      "ĠNever": 8443,
      "ĠRus": 8444,
      "occ": 8445,
      "Ġrig": 8446,
      "ector": 8447,
      "orthe": 8448,
      "ĠInit": 8449,
      "ĠInformation": 8450,
      "Ġinters": 8451,
      "aph": 8452,
      "Ġtrig": 8453,
      "Ġencl": 8454,
      "ntil": 8455,
      "Ġspend": 8456,
      "Ġoffense": 8457,
      "roughout": 8458,
      "oldid": 8459,
      "Ġammun": 8460,
      "196": 8461,
      "ysical": 8462,
      "Ġinstances": 8463,
      "Ġextr": 8464,
      "178": 8465,
      "Ġconfusion": 8466,
      "Ġguarant": 8467,
      "ĠRef": 8468,
      "Ġorganisation": 8469,
      "Ġ07": 8470,
      "Ġcontroller": 8471,
      "Ġdepict": 8472,
      "Ġsupporters": 8473,
      "Ġposting": 8474,
      "Ġverbs": 8475,
      "Ġinfluences": 8476,
      "Ġmargin": 8477,
      "Ġsuggesting": 8478,
      "Ġtertiary": 8479,
      "Ġpatrol": 8480,
      "Ġvolunt": 8481,
      "Ġphysics": 8482,
      "Ġmobil": 8483,
      "Ġliberal": 8484,
      "Ġregistration": 8485,
      "Ġsensory": 8486,
      "Ġsuffix": 8487,
      "Ġfootnote": 8488,
      "ĠHarapp": 8489,
      "Ġthreatened": 8490,
      "Ġthousand": 8491,
      "Ġhousehold": 8492,
      "Ġlimitations": 8493,
      "ĠLaws": 8494,
      "Ġmotivation": 8495,
      "Ġanatom": 8496,
      "Ġvaried": 8497,
      "Ġincorporated": 8498,
      "ĠSyria": 8499,
      "Ġlinguistic": 8500,
      "Ġphilosophers": 8501,
      "profit": 8502,
      "ĠRecords": 8503,
      "Ġreverting": 8504,
      "Ġempirical": 8505,
      "Ġcompromise": 8506,
      "ĠSaleh": 8507,
      "Ġlibraries": 8508,
      "Europe": 8509,
      "Ġammunition": 8510,
      "06": 8511,
      "400": 8512,
      ":\"": 8513,
      "Av": 8514,
      "BU": 8515,
      "Comm": 8516,
      "How": 8517,
      "Hello": 8518,
      "jan": 8519,
      "just": 8520,
      "named": 8521,
      "inder": 8522,
      "alia": 8523,
      "alics": 8524,
      "Ġpapers": 8525,
      "Ġbudget": 8526,
      "Ġmil": 8527,
      "lets": 8528,
      "Ġeukary": 8529,
      "room": 8530,
      "otype": 8531,
      "olar": 8532,
      "ĠTok": 8533,
      "ĠTreat": 8534,
      "Ġgal": 8535,
      "ĠSpace": 8536,
      "ĠSometimes": 8537,
      "ersey": 8538,
      "ithm": 8539,
      "ĠWild": 8540,
      "Ġitalics": 8541,
      "Ġwhatever": 8542,
      "Ġusual": 8543,
      "Ġ\"[": 8544,
      "ĠBest": 8545,
      "ĠBost": 8546,
      "Ġvul": 8547,
      "rome": 8548,
      "ĠNavy": 8549,
      "ocument": 8550,
      "Ġrit": 8551,
      "Ġriver": 8552,
      "Ġranges": 8553,
      "Ġheight": 8554,
      "Ġchart": 8555,
      "ĠLGB": 8556,
      "ĠOracle": 8557,
      "ĠJud": 8558,
      "ĠKal": 8559,
      "ĠStr": 8560,
      "Ġspring": 8561,
      "ĠChild": 8562,
      "Ġknows": 8563,
      "Ġimply": 8564,
      "Ġimpose": 8565,
      "Ġunderlying": 8566,
      "Ġautoconfirmed": 8567,
      "Ġextend": 8568,
      "Ġextrem": 8569,
      "Ġcopied": 8570,
      "Ġdescend": 8571,
      "onds": 8572,
      "183": 8573,
      "Ġraise": 8574,
      "Ġexplo": 8575,
      "Ġanniversary": 8576,
      "ĠShah": 8577,
      "Ġpresenting": 8578,
      "Ġprompt": 8579,
      "Ġfindings": 8580,
      "ools": 8581,
      "Ġminimum": 8582,
      "Ġcompete": 8583,
      "Ġpassword": 8584,
      "Ġsummer": 8585,
      "Ġskull": 8586,
      "ĠSpain": 8587,
      "Ġiniti": 8588,
      "Ġaffects": 8589,
      "Ġconnections": 8590,
      "ervous": 8591,
      "Ġdifficulties": 8592,
      "Ġcorrectly": 8593,
      "Ġinteractive": 8594,
      "Ġmisleading": 8595,
      "Ġsuffering": 8596,
      "ĠFlor": 8597,
      "ĠBelarus": 8598,
      "Ġvehicle": 8599,
      "Ġchampionships": 8600,
      "Ġadjacent": 8601,
      "Ġvariant": 8602,
      "glass": 8603,
      "Ġslowly": 8604,
      "Ġcooperation": 8605,
      "ĠHenry": 8606,
      "ĠBrazil": 8607,
      "ĠCEO": 8608,
      "Ġdeliberately": 8609,
      "ĠStephen": 8610,
      "Despite": 8611,
      "ĠGaribaldi": 8612,
      "ĠTechnology": 8613,
      "Ġsandbox": 8614,
      "Ġabandoned": 8615,
      "Ġinstrument": 8616,
      "ĠCambrian": 8617,
      "Ġamateur": 8618,
      "ĠLouis": 8619,
      "Ġunnecessary": 8620,
      "ĠBangladesh": 8621,
      "Ġhybrid": 8622,
      ".'": 8623,
      "215": 8624,
      "Cop": 8625,
      "Ps": 8626,
      "TA": 8627,
      "host": 8628,
      "mat": 8629,
      "master": 8630,
      "wan": 8631,
      "ye": 8632,
      "Ġairc": 8633,
      "Ġcaught": 8634,
      "alys": 8635,
      "Ġbon": 8636,
      "Ġfruit": 8637,
      "Ġmate": 8638,
      "Ġdict": 8639,
      "sts": 8640,
      "uts": 8641,
      "ĠSen": 8642,
      "ĠSir": 8643,
      "ĠSky": 8644,
      "Ġstatic": 8645,
      "Ġalien": 8646,
      "ĠBor": 8647,
      "esthetic": 8648,
      "ĠPages": 8649,
      "Ġshares": 8650,
      "ĠInvest": 8651,
      "ĠLim": 8652,
      "ĠLut": 8653,
      "ĠLaur": 8654,
      "ĠKay": 8655,
      "ritic": 8656,
      "Ġcreatures": 8657,
      "vio": 8658,
      "ailability": 8659,
      "Ġgenre": 8660,
      "Ġupright": 8661,
      "riques": 8662,
      "Ġemotional": 8663,
      "208": 8664,
      "Ġwarm": 8665,
      "Ġwarrant": 8666,
      "Ġwritings": 8667,
      "Ġconform": 8668,
      "186": 8669,
      "189": 8670,
      "insula": 8671,
      "227": 8672,
      "letes": 8673,
      "Ġplacement": 8674,
      "Ġdepth": 8675,
      "Ġ75": 8676,
      "theless": 8677,
      "Ġsingular": 8678,
      "ĠAustralopithecus": 8679,
      "ĠWhy": 8680,
      "Ġlegally": 8681,
      "Ġ1978": 8682,
      "Ġmedieval": 8683,
      "ĠEditor": 8684,
      "Ġinitiated": 8685,
      "Ġintroduce": 8686,
      "Ġencount": 8687,
      "Ġexpressions": 8688,
      "plete": 8689,
      "ĠAssembly": 8690,
      "Ġprevented": 8691,
      "Ġsuperior": 8692,
      "Ġfalling": 8693,
      "Ġcollections": 8694,
      "ĠCorp": 8695,
      "Ġliterary": 8696,
      "Ġfootage": 8697,
      "Ġweapon": 8698,
      "Ġchallenges": 8699,
      "ĠSerge": 8700,
      "Ġtranslation": 8701,
      "haust": 8702,
      "Ġvillages": 8703,
      "Ġdynamic": 8704,
      "Ġcredited": 8705,
      "Ġconstructed": 8706,
      "Under": 8707,
      "Ġtimeline": 8708,
      "Ġorders": 8709,
      "orbis": 8710,
      "Ġdesktop": 8711,
      "ĠAdvance": 8712,
      "Ġmagnitude": 8713,
      "Ġsucceeded": 8714,
      "Ġreferee": 8715,
      "Ġsimultaneously": 8716,
      "imyar": 8717,
      "ĠBeatles": 8718,
      "ĠSecretary": 8719,
      "Ġaircraft": 8720,
      "217": 8721,
      "Template": 8722,
      "nce": 8723,
      "pg": 8724,
      "uild": 8725,
      "esides": 8726,
      "ittle": 8727,
      "Ġwave": 8728,
      "Ġbans": 8729,
      "asia": 8730,
      "ashed": 8731,
      "Ġreign": 8732,
      "stein": 8733,
      "ĠAA": 8734,
      "ĠAward": 8735,
      "chi": 8736,
      "eter": 8737,
      "ura": 8738,
      "ĠCA": 8739,
      "istry": 8740,
      "ĠMand": 8741,
      "ĠMobile": 8742,
      "Ġarbitration": 8743,
      "thodox": 8744,
      "oung": 8745,
      "ĠPA": 8746,
      "ĠRay": 8747,
      "ĠRet": 8748,
      "ĠExt": 8749,
      "ĠEvent": 8750,
      "Ġrid": 8751,
      "Ġplus": 8752,
      "Ġplot": 8753,
      "Ġclade": 8754,
      "Ġcompens": 8755,
      "ĠKong": 8756,
      "ĠThank": 8757,
      "ĠStra": 8758,
      "aterrestrial": 8759,
      "Ġsubt": 8760,
      "Ġadds": 8761,
      "away": 8762,
      "Ġserving": 8763,
      "ĠYam": 8764,
      "Ġpreserved": 8765,
      "issipp": 8766,
      "Ġgenera": 8767,
      "Ġroyal": 8768,
      "Ġsystematic": 8769,
      "Ġmanif": 8770,
      "yrights": 8771,
      "azines": 8772,
      "Ġinternationally": 8773,
      "player": 8774,
      "ĠConf": 8775,
      "Ġgoods": 8776,
      "Ġsinger": 8777,
      "Ġbright": 8778,
      "Ġeleph": 8779,
      "Ġ1987": 8780,
      "ĠAdminist": 8781,
      "Ġheadings": 8782,
      "Ġmedium": 8783,
      "Ġmeta": 8784,
      "Ġcapturing": 8785,
      "Ġcheckmate": 8786,
      "Ġlooked": 8787,
      "Ġquestioned": 8788,
      "ĠPhilos": 8789,
      "Ġjoining": 8790,
      "Ġmaintaining": 8791,
      "Ġanthropologists": 8792,
      "Ġinjuring": 8793,
      "Ġlowest": 8794,
      "ĠHarvard": 8795,
      "Ġbelongs": 8796,
      "Ġthreats": 8797,
      "ĠArabic": 8798,
      "Ġtowns": 8799,
      "Ġchallenge": 8800,
      "Ġjournalist": 8801,
      "Ġjournalists": 8802,
      "Ġclosest": 8803,
      "Ġcorporations": 8804,
      "Ġassistant": 8805,
      "Ġtackles": 8806,
      "Ġobservations": 8807,
      "ĠMagazine": 8808,
      "ĠGuardian": 8809,
      "ĠMississipp": 8810,
      "Ġvessels": 8811,
      "Ġhighlighted": 8812,
      "ĠArchaeopteryx": 8813,
      "Ġbibli": 8814,
      "Ġheadquarters": 8815,
      "Ġbrigades": 8816,
      "Ġdisciplines": 8817,
      "Ġimprisonment": 8818,
      "%,": 8819,
      "%.[": 8820,
      "Hi": 8821,
      "ef": 8822,
      "iams": 8823,
      "lic": 8824,
      "new": 8825,
      "ria": 8826,
      "tons": 8827,
      "erly": 8828,
      "Ġske": 8829,
      "eded": 8830,
      "Ġcave": 8831,
      "Ġpairs": 8832,
      "Ġfert": 8833,
      "outs": 8834,
      "oma": 8835,
      "Ġnervous": 8836,
      "Ġeighth": 8837,
      "Ġbegun": 8838,
      "olid": 8839,
      "igraph": 8840,
      "Ġconver": 8841,
      "iph": 8842,
      "osis": 8843,
      "ĠMod": 8844,
      "Ġvirus": 8845,
      "pection": 8846,
      "ĠPac": 8847,
      "ĠFil": 8848,
      "Ġunregistered": 8849,
      "ĠLet": 8850,
      "ĠOx": 8851,
      "ĠJon": 8852,
      "Ġintens": 8853,
      "perial": 8854,
      "Ġindeed": 8855,
      "Ġquotes": 8856,
      "connect": 8857,
      "Ġoutbreak": 8858,
      "Ġ37": 8859,
      "Ġassaults": 8860,
      "ĠSeasons": 8861,
      "Ġinvention": 8862,
      "191": 8863,
      "ĠAnn": 8864,
      "yself": 8865,
      "Ġsimilarly": 8866,
      "Ġemotion": 8867,
      "209": 8868,
      "Ġowners": 8869,
      "Ġtermin": 8870,
      "Ġtransmission": 8871,
      "Ġviewpoints": 8872,
      "ooking": 8873,
      "Ġannually": 8874,
      "Ġlocally": 8875,
      "Ġversus": 8876,
      "252": 8877,
      "237": 8878,
      "Ġ1972": 8879,
      "iquity": 8880,
      "Ġequally": 8881,
      "Ġsoldier": 8882,
      "Ġseparately": 8883,
      "Ġsuccessor": 8884,
      "Ġdiffers": 8885,
      "ĠPlant": 8886,
      "Ġdeliver": 8887,
      "Ġdelivered": 8888,
      "Why": 8889,
      "Ġarrival": 8890,
      "Ġcollected": 8891,
      "Ġcontrad": 8892,
      "Ġwatching": 8893,
      "Ġkicking": 8894,
      "ĠBelgorod": 8895,
      "Ġcampaigns": 8896,
      "Ġassessed": 8897,
      "Ġambig": 8898,
      "ĠCopyright": 8899,
      "enaissance": 8900,
      "speaking": 8901,
      "Ġinterpreted": 8902,
      "specific": 8903,
      "Ġalgebraic": 8904,
      "ĠHourglass": 8905,
      "assador": 8906,
      "Ġritual": 8907,
      "?\"": 8908,
      "Ah": 8909,
      "Navalny": 8910,
      "Page": 8911,
      "cite": 8912,
      "iny": 8913,
      "Ġpock": 8914,
      "Ġdash": 8915,
      "amar": 8916,
      "ĠTro": 8917,
      "Ġgap": 8918,
      "iden": 8919,
      "ĠSk": 8920,
      "igital": 8921,
      "etry": 8922,
      "ĠCher": 8923,
      "ĠCart": 8924,
      "ĠFar": 8925,
      "ĠHerald": 8926,
      "Ġyellow": 8927,
      "Ġrich": 8928,
      "ĠLove": 8929,
      "Ġallies": 8930,
      "Ġresign": 8931,
      "ĠStand": 8932,
      "anyah": 8933,
      "Ġsubpage": 8934,
      "Ġrepubl": 8935,
      "ĠChampion": 8936,
      "ĠChanges": 8937,
      "Ġnewcom": 8938,
      "Ġsoft": 8939,
      "ĠVideo": 8940,
      "Ġupgr": 8941,
      "Ġ36": 8942,
      "Ġamid": 8943,
      "Ġinvited": 8944,
      "193": 8945,
      "195": 8946,
      "Ġfeet": 8947,
      "ĠAnthrop": 8948,
      "Ġusernames": 8949,
      "Ġfounding": 8950,
      "179": 8951,
      "Ġcharges": 8952,
      "Ġwrites": 8953,
      "Ġconfused": 8954,
      "Ġguard": 8955,
      "ronze": 8956,
      "axon": 8957,
      "Ġretail": 8958,
      "Ġprimitive": 8959,
      "Ġ150": 8960,
      "ohan": 8961,
      "Ġ99": 8962,
      "Ġseparat": 8963,
      "ĠGameSp": 8964,
      "ĠScot": 8965,
      "Ġlacking": 8966,
      "ĠColumb": 8967,
      "Ġdraws": 8968,
      "Ġdifficulty": 8969,
      "Ġfacing": 8970,
      "Ġdominance": 8971,
      "ĠAbout": 8972,
      "Ġfavour": 8973,
      "Ġderiv": 8974,
      "Ġsurviving": 8975,
      "ĠWilliams": 8976,
      "Ġcomparable": 8977,
      "Ġprincipal": 8978,
      "Ġdemonstrated": 8979,
      "Ġscholarship": 8980,
      "Ġdimensions": 8981,
      "ĠHistor": 8982,
      "Ġapparently": 8983,
      "Ġunlikely": 8984,
      "ĠNetanyah": 8985,
      "Ġtransferred": 8986,
      "audi": 8987,
      "Ġcoalition": 8988,
      "Ġpraised": 8989,
      "Ġpurely": 8990,
      "Ġthumbn": 8991,
      "ĠVeget": 8992,
      "ĠSiberia": 8993,
      "Ġrepository": 8994,
      "Ġoverwhelming": 8995,
      "ĠNetanyahu": 8996,
      "?]": 8997,
      "Each": 8998,
      "GE": 8999,
      "Like": 9000,
      "Of": 9001,
      "YK": 9002,
      "Yes": 9003,
      "gn": 9004,
      "made": 9005,
      "rich": 9006,
      "Ġtort": 9007,
      "Ġtight": 9008,
      "inical": 9009,
      "Ġwitness": 9010,
      "Ġborrow": 9011,
      "Ġfiction": 9012,
      "Ġmasc": 9013,
      "Ġdating": 9014,
      "Ġthor": 9015,
      "Ġthread": 9016,
      "otyp": 9017,
      "Ġgrav": 9018,
      "ĠCast": 9019,
      "ĠWay": 9020,
      "ĠWork": 9021,
      "uma": 9022,
      "ĠMoon": 9023,
      "Ġarise": 9024,
      "this": 9025,
      "Ġnotion": 9026,
      "ĠFact": 9027,
      "ĠHimyar": 9028,
      "oderm": 9029,
      "ortal": 9030,
      "Ġchron": 9031,
      "ĠOl": 9032,
      "pping": 9033,
      "Ġresem": 9034,
      "iece": 9035,
      "ĠStaff": 9036,
      "Ġweather": 9037,
      "Ġparad": 9038,
      "Ġshouldn": 9039,
      "awn": 9040,
      "Ġdefended": 9041,
      "Ġactively": 9042,
      "Ġpartnership": 9043,
      "pectives": 9044,
      "Ġemotions": 9045,
      "Ġexposed": 9046,
      "ĠAmericas": 9047,
      "ĠZapor": 9048,
      "182": 9049,
      "Ġorganiz": 9050,
      "Ġorganised": 9051,
      "223": 9052,
      "236": 9053,
      "Ġpromoting": 9054,
      "Ġhandheld": 9055,
      "Ġstudying": 9056,
      "Ġelite": 9057,
      "Ġcourts": 9058,
      "ĠAndy": 9059,
      "Ġcommentators": 9060,
      "sequently": 9061,
      "ĠMarathon": 9062,
      "Ġveter": 9063,
      "Ġdiam": 9064,
      "Ġdeleting": 9065,
      "Ġreduction": 9066,
      "ttp": 9067,
      "develop": 9068,
      "Ġcopying": 9069,
      "ĠNorwood": 9070,
      "Ġadaptation": 9071,
      "Ġacquis": 9072,
      "Ġprinting": 9073,
      "Ġsanction": 9074,
      "olitan": 9075,
      "ĠAntar": 9076,
      "Ġarrangement": 9077,
      "ĠCommunity": 9078,
      "Ġprocedures": 9079,
      "Ġboundary": 9080,
      "Ġconsequences": 9081,
      "ĠQueens": 9082,
      "Ġordinary": 9083,
      "Ġenforcement": 9084,
      "Ġcooking": 9085,
      "Ġwrestling": 9086,
      "Ġchairman": 9087,
      "Ġannouncement": 9088,
      "Ġmovie": 9089,
      "Ġdangerous": 9090,
      "Ġtutorial": 9091,
      "Ġgorillas": 9092,
      "Ġpunctuation": 9093,
      "Ġvideos": 9094,
      "Ġextraterrestrial": 9095,
      "ĠTreaty": 9096,
      "ĠBoston": 9097,
      "ĠZaporizh": 9098,
      "09": 9099,
      "216": 9100,
      "211": 9101,
      "Car": 9102,
      "bes": 9103,
      "ecess": 9104,
      "games": 9105,
      "ivery": 9106,
      "mut": 9107,
      "nik": 9108,
      "vis": 9109,
      "Ġrom": 9110,
      "Ġtur": 9111,
      "Ġaesthetic": 9112,
      "heres": 9113,
      "orage": 9114,
      "Ġwing": 9115,
      "alam": 9116,
      "Ġanonymous": 9117,
      "Ġmine": 9118,
      "lements": 9119,
      "Ġdrew": 9120,
      "omer": 9121,
      "Ġhab": 9122,
      "ils": 9123,
      "ĠTop": 9124,
      "idency": 9125,
      "iginal": 9126,
      "ĠWrest": 9127,
      "ĠBCE": 9128,
      "Ġvital": 9129,
      "Ġseized": 9130,
      "accept": 9131,
      "ĠRenaissance": 9132,
      "ĠEconom": 9133,
      "Ġunve": 9134,
      "ĠDra": 9135,
      "odon": 9136,
      "Ġheat": 9137,
      "ogr": 9138,
      "Ġchat": 9139,
      "Ġadequ": 9140,
      "Ġadmins": 9141,
      "Ġdisorder": 9142,
      "ghan": 9143,
      "izon": 9144,
      "Ġresource": 9145,
      "Ġjun": 9146,
      "Ġjourney": 9147,
      "Ġpreview": 9148,
      "ĠChin": 9149,
      "Ġdesired": 9150,
      "Ġmeg": 9151,
      "Ġrecovered": 9152,
      "Ġperspectives": 9153,
      "Ġinformed": 9154,
      "Ġinterven": 9155,
      "Ġavailability": 9156,
      "Ġseeing": 9157,
      "Ġguest": 9158,
      "Ġdifferently": 9159,
      "Ġowns": 9160,
      "Ġcurren": 9161,
      "ĠIndians": 9162,
      "That": 9163,
      "Ġfiled": 9164,
      "axy": 9165,
      "Ġtrace": 9166,
      "Ġstands": 9167,
      "Ġpointing": 9168,
      "Ġherbiv": 9169,
      "ĠAdventure": 9170,
      "Ġmultipl": 9171,
      "Ġelectrical": 9172,
      "Ġvisitors": 9173,
      "Ġperformances": 9174,
      "Ġobjections": 9175,
      "ĠPlato": 9176,
      "Ġplanets": 9177,
      "Ġavoiding": 9178,
      "Ġrestriction": 9179,
      "Ġprofessor": 9180,
      "ersonal": 9181,
      "Ġconceptual": 9182,
      "Ġmeasured": 9183,
      "ĠChampionships": 9184,
      "Ġfeeling": 9185,
      "Ġfeelings": 9186,
      "Ġadaptations": 9187,
      "Ġaltered": 9188,
[...]
